#version: 0.2
e n
e r
i n
c h
t h
o n
e s
a n
i s
u n
a t
i t
i e
th e
o r
a l
r e
i ch
i on
d er
s t
a r
r o
en t
l e
b e
a s
g e
t o
un g
o f
e in
t e
d ie
an d
a u
d e
o m
w i
d en
u r
un d
in g
i g
s e
l l
a m
w e
s ch
i m
v e
z u
f or
i c
o u
ich t
v er
i es
om m
e d
o l
t er
t en
a b
at ion
e m
r a
ro p
g en
l ich
n o
d a
b er
i l
h e
s o
th at
c t
h r
l y
ü r
w h
n e
wi r
is ch
is s
u t
is t
u rop
k e
c on
p ro
i r
er e
u m
i d
E urop
r es
u s
d ies
i er
a re
au f
omm iss
h a
f ür
da ß
c e
th is
s p
t r
v on
l d
or t
m ent
w er
ommiss ion
o p
a ch
al l
d es
f t
ein e
m e
es t
V er
no t
u l
i f
k t
n icht
U n
m en
a g
I n
m it
d as
t z
ou ld
wh ich
isch en
au s
de m
s u
o ur
wi th
in d
t a
i ve
s en
ha ve
at e
t s
g es
ung en
Europ e
l i
g r
o s
u st
l a
e x
v or
c k
l ie
R e
au ch
id ent
en d
a d
wer den
st e
am ent
P ar
p ort
i al
f f
c o
es s
ä n
B e
ü ber
b en
m a
an t
s h
p e
q u
it y
wi ll
T he
W e
s ich
n en
i v
a h
h al
z e
A n
ung s
un s
b y
T h
C ommission
h t
c om
u ß
er r
sch a
i b
d o
Europe an
ig en
w ie
an n
f a
M r
0 0
Un ion
h as
ion s
er n
w or
it s
p ol
f e
h en
al s
th er
S t
a p
H err
l o
h at
K ommission
scha ft
ab en
p ar
w as
ein er
i en
j e
i k
E n
I ch
r ä
wir d
ie l
s ind
D ie
ou t
ll en
P ro
p o
ch te
m ö
M it
s a
st r
m an
A us
W ir
te d
h aben
re g
u p
be i
S ch
l t
w ould
al so
le g
on e
isch e
z ur
E r
en n
es e
d ar
is e
w o
th ere
ke it
f ü
w ar
ab le
for m
g an
im m
Europ ä
g o
u e
g er
a c
t ra
lich en
or d
o b
ein en
V or
in ter
b es
b r
ch t
he it
c an
A r
9 9
f er
f in
sh ould
s ie
p r
en s
B er
h er
A b
P res
der n
un ter
at es
e t
we it
u re
o w
m or
rä s
w a
b le
at en
En t
hr en
em ber
p rop
v o
c omm
m ust
u g
m o
i ge
ro m
p le
räs ident
e l
in c
i re
er s
s am
l ament
ation s
ö n
co un
be it
st a
Pres ident
sp e
l in
ä r
ur ch
c ial
Par lament
par t
ü s
f rom
r it
li ament
pol it
F r
ation al
dies e
ic al
b ut
d u
F ra
ch en
k en
f r
be en
I t
it ion
n ach
se l
ul t
omm en
p os
ver y
p res
Ber icht
ct ion
f en
p l
E in
S ie
ou s
P räsident
ig h
G e
k ann
Par liament
al le
ve l
as s
k ön
y ou
G r
ä t
h in
dies er
an der
A u
d is
i ll
p re
ar y
M ember
d urch
n ational
e it
mö chte
üs sen
lich e
no ch
p er
t re
mor e
E U
ut ion
ar d
coun tr
o d
no w
u te
wor k
g ro
t ro
m üssen
ö r
an s
an g
i h
i de
ge m
li ke
ü n
sch l
Europä ischen
ct ive
m uß
g lie
re port
con c
ier en
p t
o ther
o un
a ge
w ä
c ess
Th is
w ur
for e
i z
ier ung
1 99
is h
te l
so ll
e ar
Re g
se d
ch e
n ah
an ce
c il
ig ht
er st
i p
al ly
zu m
th ese
Mit glie
m ar
n ur
E s
k on
D as
st em
om e
con s
wh o
ment s
gr am
le gen
2 00
y stem
dies em
u d
h and
t im
ge l
ble m
re at
h l
o k
kön nen
ein em
t schaft
s er
in st
g lich
tz t
ge gen
an k
sch en
te il
an ge
re ich
o g
ü ck
an z
C oun
kt ion
wa y
t y
ab er
ne ed
w enn
un der
s ib
Coun cil
c au
C omm
pol ic
at ive
o der
uns er
ne h
the ir
Mitglie d
ig keit
wh at
be t
St ates
s icht
Fr au
im port
U m
ier t
s ol
a st
c r
d r
at ed
the y
l ic
J a
lie ß
s ein
v ent
ta in
k ommen
l ar
M a
o ch
st and
f ol
an y
su p
i ous
u b
in t
se hr
s ome
st en
vel op
countr ies
se tz
a ct
y ear
m y
b ar
urop ä
ab out
us s
Mitglied sta
c ed
s it
g t
m in
f re
cau se
de c
D e
d ire
ge t
le ich
en z
me hr
ge b
K on
n ung
d am
a k
prop os
i der
w icht
fü hr
it te
M en
D ies
n is
e con
qu est
le ar
Un ter
ar beit
igh ts
at ter
ne w
än d
ges ch
on ly
weit er
as sen
da y
e uropä
ut z
fa ct
v ie
it ät
de velop
z w
ck l
Z us
u ch
sch ließ
ic e
dies es
n er
c y
h ier
on der
i a
il ity
wi ckl
it ies
ges e
ag re
tim e
o we
pres ent
f o
o ver
d s
in s
ein es
Ä n
S o
R at
ff en
pro v
ff e
Mitgliedsta aten
hal b
än der
p la
on g
j ust
k ing
Än der
je ct
Men schen
be cause
re as
c es
op le
K ol
b o
f l
is m
conc ern
o se
D er
ber e
tr ä
part ic
l and
de d
import ant
Gr und
te t
s ystem
ir st
iv en
F or
polic y
s on
ig t
In ter
ol it
su ch
ib t
e ben
op er
ra p
th ing
Ent wickl
sch e
su b
neh men
c lear
u ation
um ent
un ity
com e
ig n
K o
econ om
ll t
ie d
em ent
ag a
f ä
ul ar
d if
Au f
m er
pe ople
ust r
it e
i ß
um an
Vor schl
pro blem
l le
pro du
ta ke
200 0
v en
there fore
de ut
at t
wur de
c ur
p a
es ch
st ü
G em
hal ten
ch n
pro gram
itte e
z ie
R icht
p on
in to
the m
olit ik
em p
t ing
de b
ma ke
un kt
ah l
z ial
re ad
w end
in v
for der
b as
j ed
am men
sup port
i den
d ing
f all
ge ben
Fra ge
p or
sa y
Gem ein
b est
wir k
ur es
v iel
ih re
Zus ammen
nah men
g leich
in k
ste llen
c our
owe ver
l ä
Ü ber
ä m
be ing
ig er
Europ a
an sp
al t
k te
Ar t
if ic
sib le
B ere
i hr
bes onder
sam e
pe ct
br auch
iv es
partic ular
A s
r ights
ig ung
is ation
re l
Ma ß
we l
g ibt
h ör
m on
S ta
c as
h ar
w ür
F in
ra g
it i
gem ein
Z eit
Ar beit
of f
ma de
g u
ze it
Europä ische
ver n
po int
w en
ne u
f u
den en
wh en
h uman
ch ts
we en
t t
or der
Änder ungs
is ion
su re
ur al
wir tschaft
str u
ou g
we il
jed och
bet ween
at s
ol og
199 9
i le
dies en
f irst
res pon
r icht
th an
at z
wh ere
zw ischen
form ation
k now
ve d
st änd
H aus
ä ch
hal t
r at
f ra
k l
w ere
en ce
p ub
o c
h ere
we ise
l os
v ir
I h
gro ß
d ann
son dern
reg ard
Ja hr
cons ider
m ich
it ution
polit ical
so cial
dam it
L and
c er
k eine
u al
ion en
ge hen
we lt
l au
stü tz
at er
Bere ich
sp re
Z u
x t
Aus sch
iss en
Richt lin
i ent
am end
or s
th ose
ce pt
quest ion
Commission er
e ffe
Herr n
Entwickl ung
g est
ent r
ge ht
is ten
n at
mar ke
o h
ander en
gan z
ar t
man y
S e
m s
ord nung
N o
as k
europä ischen
u es
b st
m al
with in
ach t
tra g
in nen
on ment
sich er
f und
la st
mo st
vie w
bere its
at ing
g reat
he ute
inter national
cer tain
F re
th ink
ol le
am e
iss ue
den n
vir onment
ord ne
go vern
se e
ha be
th en
ge ordne
C on
ion al
qu al
B ür
propos al
is en
ic ult
uns ere
ate g
b ess
sch ie
ad d
com p
r ight
br ing
mit tel
develop ment
de t
la gen
p en
b al
ä ft
T e
f ar
lo y
w es
f est
so wie
w ant
b in
v ing
Comm ittee
do es
be lie
bes te
u ro
wo hl
än dern
w ort
v es
le d
er g
Mit tel
ex am
ach en
is l
is ed
year s
st imm
S tr
con t
te chn
p ra
ul ation
l ess
econom ic
ch ten
bes ch
am en
dis c
Parlament s
ent lich
Comm unity
is k
Ab geordne
h n
can not
i o
fin an
Richtlin ie
fa hren
ple ment
b ie
st er
Th ere
sa gen
i an
Maß nahmen
op e
a ir
d ra
read y
t un
Fra ktion
pub lic
con d
b is
d an
in e
Vorschl ag
M in
ste hen
le tz
dire ctive
deb ate
c ould
all en
or gan
le vel
res ol
ste ll
mö glich
m atter
ow n
wicht ig
ke hr
ser v
res s
B esch
Mr s
z we
ud get
ich er
k omm
p f
Gemein schaft
me as
wie der
imm er
A l
e ven
K ommiss
ä tz
ne t
in n
G ro
ter n
pos sible
r i
pro te
unser er
ro ug
p iel
en vironment
cour se
ad op
soll ten
W ie
a de
dar auf
pos ition
agre ement
trä ge
u se
gr und
ab l
m ir
ah men
gen ommen
e le
pr inc
inc l
y our
sit uation
t wo
to o
we ll
R ahmen
ke l
ben e
ges te
emp loy
leg isl
belie ve
c it
Kol legen
al ready
Kommiss ar
re cht
marke t
nah me
p ut
S te
oug h
aga inst
il d
Wir tschaft
Um welt
Bür ger
so zial
Re chts
re d
al th
princ i
re al
spre chen
da für
ut ions
com pe
tr ansp
ha d
spe c
ma in
soll te
do ch
go od
dif fer
I m
fu ll
re chte
zu g
vo te
vent ion
D a
W enn
be g
Pro gram
t ion
oper ation
S it
p ly
fü hren
Z iel
e very
wä hr
M e
c ted
se t
f ul
P olitik
iti ative
L e
M ar
pro cess
alle m
k er
s atz
a id
ab ility
or y
N ach
ta ken
vo ll
reich en
v om
is ter
re qu
isch er
cit iz
D em
ers on
besonder e
sel f
a ction
m uch
Th at
n um
sel bst
ha p
countr y
m eine
ver s
im in
c ar
im plement
ap pro
leg al
or ity
S icher
ma y
Pro blem
h ow
ent ly
inc reas
w n
h ope
t al
is ierung
setz en
to day
Th em
lar ge
setz ung
sa id
l assen
ok rat
b udget
a f
f ut
st ill
ihr er
sche id
O r
ag es
cas e
L änder
la ge
p unkt
comm on
G es
h igh
it ed
finan cial
be wer
b re
bess er
H owever
en g
s c
is piel
cur r
Fin anz
Ih nen
ü ß
je tzt
cont in
gen er
F l
are a
ür lich
M ein
D es
E uro
kl är
l ong
pla ce
roug h
G en
ind ustr
ein ige
reas on
k s
fut ure
re e
ant rag
Bericht erst
H er
H in
ö s
gan gen
por te
con f
wur den
u ck
wür de
meas ures
B ut
h is
num ber
ber al
ag t
wo llen
Dies e
exam ple
w issen
pos it
da zu
inter est
d i
ne cess
A fr
be gr
Berichterst atter
g ent
C har
h ol
v al
ber eit
ach ie
wh y
ant wort
bo th
st im
lie gen
h ä
ö l
at te
lich er
in formation
be its
porte ur
aus ge
ll ow
führ t
so c
sch on
fall s
oh ne
h o
ical ly
are as
fa hr
gro up
th rough
n un
rap porteur
amend ments
I f
j a
an ges
wor den
ac cept
ct s
res pect
ier ungs
all er
il fe
rit t
neu en
inv ol
g ar
heit en
pres s
disc uss
compe t
ic es
program me
citiz ens
en sure
geste llt
ur ing
ent ial
au th
st itution
hal ts
ze l
Gro up
polit ik
t i
th ank
st at
Ver ein
Re cht
dar f
str ument
Ja hren
Änderungs an
ou se
Ge bie
he l
kt ur
op in
hal f
ze ich
se it
la w
N e
ß t
ge leg
in ce
re t
pro ced
m einer
ä hr
ö ff
be tr
a v
h ö
m achen
ur ther
nis se
abl ish
c l
it al
ma j
re c
est ablish
if ft
G ese
g a
me ans
a ck
govern ment
ne ue
l ang
es sen
Fra gen
ins besondere
ä ß
glich keit
program m
Ar beits
Ent schließ
ein mal
te gr
kön n
necess ary
z ahl
h än
Be it
M ö
re form
Ab stimm
et was
Ko so
tt bewer
employ ment
re i
ff ic
L eben
ten s
sa fe
Ent scheid
entr al
problem s
k un
2 0
F all
g iven
ttbewer b
pl an
con tr
K r
s im
Te il
T reat
k lar
tr ans
wä re
H and
Aussch uß
reg ional
prov ide
ass ung
ander e
e h
au m
particular ly
re fer
te xt
best imm
ß er
tre ten
re present
co operation
wor ld
f le
dec ision
sch r
ä uß
H e
g ive
w alt
not wend
Pro ble
Sta aten
T r
Koso vo
s ätz
st att
be fore
ig ten
aga in
se ct
men d
resol ution
z ip
str ateg
M on
or ities
St and
ac c
with out
a kt
opin ion
s eine
K in
h owever
pro m
c ing
h ang
lich keit
sp olitik
Mö glichkeit
N amen
ges am
it ä
ze ug
he ther
sp r
o cr
Str u
Re gel
d ür
sp ra
ord in
requ ire
H ouse
f ten
er t
sam en
polit ischen
Member s
concern ed
princi ple
kun ft
w ish
re du
Ver brauch
ab il
po in
el s
Haus halts
ate ly
of fen
Mein ung
S ystem
ter ms
ist r
fer enz
A ll
e lt
z war
uss es
iss ues
letz ten
prote ction
w hether
inv est
le icht
we isen
ism us
nat ürlich
f un
i um
s or
W as
g lau
y ing
re m
Sch utz
ser ious
differ ent
spe ak
ill ion
B r
k äm
l er
z un
at ic
Zusammen arbeit
al ten
1 0
fin den
unter stütz
hand l
f ind
der ung
lo ok
ac coun
i kel
sib ility
vie le
wirk lich
G er
u de
z ü
s ign
propos als
in ner
De b
g ere
n al
ir d
gan g
fl icht
zwe i
an te
P r
We ttbewerb
s s
v ious
ament al
Unter stütz
st är
ex tre
cons um
hand elt
öl ker
om en
sh ip
comm un
be half
ll schaft
es en
is ions
gese hen
z en
con tro
tra gen
k ten
ul es
pl ic
ik a
Des halb
H a
ste ht
mar kt
way s
st ar
fol gen
Art ikel
ra ft
L i
it ions
de fin
Unterstütz ung
L ändern
o t
Abgeordne ten
stell ung
o sed
p end
im e
Reg ierung
A m
man age
1 5
of fe
bring en
k ur
We lt
l im
o ll
y s
A mend
Zusammen hang
stru ct
beste ht
de al
Kol leg
ch ange
gese tzt
rap h
stim men
gr ö
se hen
M ad
go ing
n äm
Menschen rechte
zur ück
Änderungsan träge
näm lich
wer t
T o
pro ject
ach e
sel ves
Unter nehmen
ien st
dar über
prop osed
dif f
Proble me
er forder
diff icult
Vorschl ä
c rit
se qu
Änderungs antrag
1 2
O n
fo llow
Sicher heit
führ ung
k ün
ge hör
ier ten
B est
who le
Abstimm ung
a gen
inst it
m il
ste llt
Them a
ver schie
ah re
fe w
c re
j o
ge w
ment ion
lie gt
betr ifft
s ince
R ates
u er
W hat
k es
ne xt
ück sicht
So zial
j en
ein ge
reg ulation
Präsident in
Sit uation
ver kehr
aus sch
comm it
a hr
l uß
ent lichen
be l
it t
fa v
B ed
g ung
w är
ic t
imm t
b an
b au
Ver trag
if ten
spec ific
am b
pro chen
contr ib
E m
e f
f urther
r isk
lo bal
Verbrauch er
Deb atte
af ter
n or
Treat y
P unkt
g aben
ib le
a ff
f assen
u sed
u ally
in zip
da von
s einer
ex ist
bas is
ges agt
legisl ation
ein zel
Mad am
b ack
da her
qu ite
g ut
i hren
l an
ma king
conc l
c or
ie le
deut ung
A ber
b t
Be deutung
sh all
com ple
schr iften
G esch
lic k
full y
Afr ic
ie ty
mö g
pra ct
co st
sub ject
fav our
M ill
op port
zie h
J ahre
ma ß
F e
m ed
en th
ke y
m one
los sen
instit utions
F und
d one
fo od
An sicht
fin anz
extre me
c ap
if e
iv il
begr üß
er k
gegen über
Ver antwort
v ar
ent ion
in de
es pe
se cond
work ing
ie den
st ate
vor gesch
e igen
war ds
environment al
g ress
me et
adop ted
all ow
inst itution
clear ly
wend ung
on ds
it en
am il
gen d
pr ü
hel p
ver ständ
ame work
Besch äft
im pro
A uß
in itiative
agre e
accoun t
L ös
wi er
kt or
national en
lin e
appro ach
ta x
1 9
n ie
do wn
in tegr
re if
ic le
are d
war d
go ti
ding s
c all
ing s
po wer
gu ar
z iel
In formation
if ied
In stitution
ex t
reg ul
unterstütz en
s id
zu sam
qual ity
geleg t
- ,
au ßer
ze ß
Kon tro
äch st
i ar
des halb
ur n
res our
ac cess
komm t
reg ions
cur ity
Leben s
be zug
unser en
l es
ne goti
v is
St ate
cial ly
V ol
Un d
c al
ra ther
res ult
v i
effe ctive
vorgesch lagen
guar ante
D isk
c olle
s m
contro l
ent s
fr amework
dr uck
f ach
at ten
Pro du
r ules
gen au
he its
fol g
zusam men
z weit
lin es
safe ty
An t
kann t
EU R
a ce
r u
zie hen
D ar
der en
il t
kon k
op en
Th ese
ard s
arbeit en
car r
D urch
E R
f ör
g ern
s weise
Un ited
some thing
add ition
ich te
dan ken
posit ive
C h
p erson
ze pt
ap pe
soc iety
B es
sch ein
ess ential
dire ct
dür fen
glau be
I s
pf ung
T ages
W o
ge geben
ze u
00 0
pr i
espe cially
su c
St ra
Or gan
it or
ag r
at ives
ro le
ier te
e ig
h ät
w ater
str eng
gener al
F isch
u f
po st
programm es
f it
w ach
it self
ct ions
Re form
An d
W i
Z ust
a il
der zeit
bet ter
respon sibility
Stru ktur
so llen
fä h
b u
m illion
be de
ab ly
ta king
Re chte
hal te
techn olog
transp ort
ste p
f te
s um
wi esen
Ver ordnung
dem okrat
sozial en
könn te
poin ts
Kolleg innen
pr iv
comm ittee
199 8
S E
e ach
v an
is ing
to wards
ed om
dar an
prop ri
europä ische
compet ition
hän g
G leich
he alth
gr at
ap propri
Frau en
3 0
h au
pro mo
sta at
Reg ionen
resour ces
A t
Mar kt
S eit
e p
le t
teil ung
o st
We ise
Er geb
groß en
p ur
iv id
p ens
ik an
ob je
achie ve
pro gress
The y
war en
ge legen
Europ as
under stand
w ün
scha ffen
fer ence
polic ies
proced ure
d uring
k ein
ge führt
fra ge
Zu kunft
industr y
sect or
Vorschlä ge
al e
Min ister
agr icult
fe hl
igkeit en
Aussch usses
gent le
o gen
tro ffen
pa y
bas ed
j ob
Art icle
fra gen
5 0
L age
u ft
sche iden
Stand punkt
ge d
mer k
serv ices
w omen
z ung
ein zu
ra cht
ex per
K om
M an
i od
icht s
gr if
erst en
b ind
le ben
mit t
ial og
inter nal
Pro je
econom y
fund amental
air s
käm pfung
extreme ly
gentle men
E bene
v ölker
in strument
ber ücksicht
lo se
ob ject
notwend ig
ro ad
In d
Li beral
un de
ge ther
Be ispiel
tra de
währ end
mone y
T O
T ur
om ent
Me hr
un den
ein igen
for ward
W or
is es
dem ocr
polit ische
ef for
c ult
g lobal
h offe
prop er
mo ve
spra che
wer de
fol gt
concern s
k le
w are
re ally
se i
se em
for ce
tr au
pre c
wel come
d au
p flicht
ver fahren
nicht s
dar in
grat ul
le ad
be ding
Er weiter
ktion en
sch utz
da bei
so wohl
tro du
effe ct
le ast
E C
in trodu
th ree
ie ld
or e
Tages ordnung
N at
a im
in ten
ind ivid
Au ch
per iod
Q u
se curity
An gelegen
b ur
re co
ud ing
cr imin
beste hen
var ious
e hr
to gether
wi c
ier ungen
impro ve
A ustr
Entschließ ung
R olle
Z ahl
d id
ra chten
Reg ierungs
brauch en
on ce
hä lt
R ights
we gen
ic ial
Be i
com es
ic k
ter m
We g
her vor
hand el
import ance
contin ue
acc ord
H au
Be tr
gro w
reif en
H ilfe
s ur
ex press
need s
P ort
k ind
ent sprechen
ab sol
ü br
be ispiel
Program m
interest s
itä ten
m ut
sch ied
act iv
wel che
manage ment
ch ar
sch ne
fe el
commun ic
F ort
d rei
mon th
an im
ing en
Ver fahren
com ing
quest ions
iden cy
W h
l auf
ster reich
ch an
Dem okrat
1 1
b lick
ie f
oug ht
b us
l on
en large
In itiative
En erg
sicht lich
cond itions
m ember
al ways
tz e
pl es
Verantwort ung
Institution en
B em
i ation
gen ann
us ion
fä hr
S ol
ll ig
for dern
scha ften
ger ade
in ess
ffic ient
wär t
en cy
an other
ll ung
sh ort
Aus sprache
pre vent
Kin der
inner halb
Lös ung
C O
P erson
f ang
in form
ist s
la ck
besonder s
Port ug
L is
N or
e vent
re ach
il fen
Ein e
tre ffen
Um setzung
forder t
B innen
su chen
Be völker
deut lich
i ben
re icht
ent wic
enn t
kon ferenz
Entwickl ungs
E x
F irst
ä d
re le
Ver walt
ass er
auth orities
A gr
Gr ün
kon tro
system s
Amend ment
Erweiter ung
a ware
an ts
de l
ter s
dem and
W ort
incl uding
invol ved
den ken
For m
rel ation
Tr ansp
Mill ionen
W er
z ogen
wa ste
konk re
beispiel sweise
a ffe
f onds
un i
ap plic
Pro di
sol che
F ol
U N
es se
sp räsident
fre edom
No t
ga be
sm all
n äch
at iven
ation en
Inter net
groß e
g ilt
er halten
th ird
enz en
iden ce
einzel nen
as pect
il dr
Aus druck
schließ lich
Jahr es
A spe
F ä
be come
me an
la dies
dra ft
B ar
i ther
t able
Par te
Ab kommen
ans wer
fund s
transp ar
eh men
suc cess
obje ctive
D ienst
S p
ß en
en erg
un kte
ab häng
reg ion
wirtschaft lichen
object ives
P l
d ort
p rä
ro w
kün ft
an zu
ou th
des t
des sen
ad min
bere ich
ild ung
Gen er
übr igen
r än
v ision
Au ff
Gebie t
b il
ra cy
pe ace
maj ority
Afric a
M ed
m als
u ten
en ces
teil en
certain ly
auf ge
vor gesehen
tra d
stat ement
äuß erst
project s
c reat
y et
en e
re chts
te m
wh ile
fin det
great er
ildr en
c ent
k o
kur z
ent scheiden
sch wer
comp an
curr ent
g ra
ver sch
po se
dar um
ih nen
gem acht
le isten
il y
kt iv
rit te
increas e
sub st
produ cts
er reichen
do c
reco g
1 4
J ust
l ück
re ce
Ver handl
fe l
dra w
doc ument
U S
W ähr
ein deut
Ver kehr
ass ist
amend ment
H ier
we is
so ur
zeit ig
un t
st o
Be ih
organ is
Char ta
V iel
Z we
an ces
Ih re
Binnen markt
j ud
l ight
ein ander
wor ds
ak zept
group s
D en
R ück
h on
ch ildren
as e
and id
se its
if iz
comple te
bus iness
le a
le ist
ge währ
id ar
maj or
mention ed
F ör
P ol
m äß
ü h
re gel
up on
Regierungs konferenz
enlarge ment
Z iele
al k
Wirtschaft s
all es
li beral
vor liegen
att ention
i x
s ing
ex ce
hin aus
stand ards
le is
of ten
opport unity
Ver tre
fre e
hn t
1 3
k ung
l änd
Er klär
dec isions
eben falls
A 5
be im
he iß
wen ig
d ien
ed u
Ko sten
Entscheid ung
Wi th
A ff
all gem
Abgeordne te
Ges und
l ife
ult ur
Fin ally
b on
y l
ar ge
co ver
wen iger
grö ß
weit ere
av ail
democr atic
ge fähr
cre ate
E rachten
p op
ch er
Be kämpfung
serv ice
implement ation
Erachten s
E G
d ou
l än
v ic
er b
ein z
sing le
B 5
e ded
ha ving
lo w
hap pen
abil ität
verständ lich
f ight
m ult
we e
sch re
con st
alt ung
. .
den ke
we g
we iß
if y
ap er
spe cial
b our
e v
er mög
bei den
Con vention
matter s
Disk uss
2 5
ide d
utz en
Gemeinschaft s
Char ter
K rit
st art
isch es
hat te
En de
Reg ion
act ually
gemein samen
ster dam
Ste llung
Am sterdam
m oment
ie llen
lo cal
wicht ige
Hin blick
follow ing
Y ou
Herr en
gegen wärt
gesch lossen
cas es
sim ply
R es
S ub
Be hör
ah n
comm end
wür den
A F
k r
ent er
mor gen
respon sible
gangen en
mil it
verschie denen
admin istr
M y
v ier
con tain
hin sichtlich
ats äch
agen da
w uß
gem äß
international en
other s
Wie der
Fl ug
Aff airs
A mer
I I
u ded
Grund lage
wirk ungen
compan ies
W asser
c ut
con gratul
par liament
Sch luß
Ge ld
viel leicht
hap s
Wettbewerb s
at ast
ig r
l ändern
p ast
v ö
be zü
Ver pflicht
An wendung
eigen en
ein fach
ap ply
wa hr
erforder lich
Em p
Auff assung
F ür
m eines
t ask
in er
at or
Über ein
Program me
Verein igten
colle ag
e th
is ik
the less
ro ss
ig in
am t
for tun
wur f
Arbeit sp
Land wirtschaft
atast rop
I hr
M o
M il
l ig
n ing
ch allen
pre vious
aff ung
m ight
um fassen
po sed
ute t
ific ation
gemein schaft
Fre i
organ isation
D ah
I r
T ür
In strument
200 1
dr ück
legisl ative
G ip
c are
auf grund
do ing
schließ en
gese llschaft
schne ll
an genommen
sta in
Inter esse
wes en
zun ehmen
n ame
p ass
Ver besser
ag o
aller dings
Gese tz
Dah er
er ste
er wä
geb racht
mon itor
Beit rag
fle x
l änder
Be l
sh ow
Aus wirkungen
ander er
ständ ig
s einen
er klär
st um
st ens
ur s
over n
appropri ate
M al
O ff
k einen
th ough
on t
ie g
su g
pla y
thing s
Bed ing
J e
U r
t atsäch
wi der
oc racy
C 5
C hin
Sch affung
pre p
weiter hin
avail able
c ivil
de ter
de ta
ke ep
It al
zieh ungen
ra gen
fa ir
fü n
vo ted
regard ing
alth ough
D och
h ist
n ess
ent en
be kannt
schließ end
viel en
har mon
öff entlichen
W ahl
gro und
So cial
gu ide
neu er
aussch uß
Demokrat ie
rece ive
C our
G overn
f ield
re quest
ra il
so gar
con text
princi ples
O L
je den
stü tzt
gemein sam
sozial e
Gese llschaft
gehör t
Information en
Gener al
B alk
m einen
am oun
po ll
alle d
accept able
neh mer
partic ip
besch äft
en de
it em
or igin
sub sid
dan ger
agreement s
Gesch äft
negoti ations
Cour t
B SE
f amil
v ol
be tra
he ad
Sch ul
increas ing
enth alten
heiß t
k om
Inter essen
Beschäft igung
Fort sch
1 6
D amen
L iss
sch wier
ol d
ab on
res tr
Re i
ien ce
je der
fr ist
ition en
ih m
Con ference
Liss abon
F est
e uro
f our
Ö sterreich
in ing
of t
he b
con stru
str ong
ihre m
Ste uer
sign ific
inde ed
Lis bon
d ist
k ut
gr ün
Fr ieden
gest immt
individ ual
A C
S el
ch o
or g
st ates
Best imm
vö llig
S econ
an gen
ne ver
qu e
far m
lon ger
näch sten
b it
ö t
them selves
govern ments
För derung
Secon d
v est
im um
ze igt
ap p
concern ing
eben so
grow th
month s
h end
ver b
ges prochen
co ordin
wor ten
trä gen
gemein same
Haus halt
consum er
effor ts
c en
g ute
in ge
teil t
bis her
rec ent
vi ol
Ant wort
Bevölker ung
energ y
s us
an al
our selves
ex p
fre i
b order
it er
aus zu
Par t
Par ty
agricult ural
D am
m iss
ig ungs
unter schied
l icht
s ag
no v
no thing
ze hn
üs se
Kommissar in
conf lic
jo int
hät te
Fisch ere
n on
mar k
y m
re fu
ir m
me t
vor zu
Bericht s
stand en
strateg y
Govern ment
D ire
c lose
r uck
at ent
to mor
au d
regul ations
tomor row
L et
P os
e qu
m den
m acht
t es
on str
st ra
ent liche
of fer
dem ocracy
Pro zeß
ob lig
Ge gen
government al
jen igen
Kontro lle
Beih ilfen
K ultur
e ver
f ung
s he
an u
as ed
ne g
lie d
a ffen
t est
ch es
ll ing
up pen
ble iben
develop ing
Rei he
R isik
c alled
d ue
r aum
te id
ke i
iv ing
Grund rechte
halt ung
Lebens mittel
Beding ungen
T ext
en ough
ie ben
to m
war ten
ide a
schl ä
sol ution
act ions
weiter en
techn ical
prote ct
guide lines
L E
L eit
S ü
S um
Z weit
t urn
ich tet
Ver trau
In vest
fer t
Dies er
off icial
merk sam
communic ation
Geschäft s
Z un
t on
sp iel
tz en
sh of
leg ation
rit ten
rit ts
rel ations
curr ently
itt le
Auß er
Ind ustr
prec ise
S icht
m ind
at is
re main
unter stützt
h u
l ittle
re commend
der t
le it
ver treten
ex pect
ma kes
bar en
Mehr heit
ch anges
is her
Ver fü
ck en
dis kut
ater ial
reason s
discuss ion
fün f
A D
U hr
Ö ff
be wuß
ig es
dis ast
gel ten
min ister
Str ateg
cost s
Tur key
Verhandl ungen
Second ly
h im
er reicht
am ong
vor schriften
qu o
fa ßt
po t
forder ungen
seem s
Tür kei
Off ice
T ats
se ver
ver ein
lin ien
s om
gr enz
Sch we
Reg ierungen
maß nahmen
OL AF
Q ual
z entr
to ur
de f
ll ent
ex cl
sh are
fol ge
) )
K ön
f s
in ne
an a
ra d
res ul
Be ziehungen
Her aus
Is ra
table d
I N
c ir
c lar
g ument
v ant
in iti
al en
to p
Kommission s
kon n
emp has
sicher heit
Sit zung
absol ute
leis tet
Arbeitsp lä
Gip fel
G ree
f li
j ähr
er fü
for t
ut es
wicht igen
richt ig
d om
we der
Vor schriften
Ge fahr
dr ing
wen den
Al s
könn ten
job s
handel n
activ ities
S pra
h lt
ic s
enn ung
gleich en
Not wend
4 0
L uft
f ish
r as
u ld
ff iz
Präsident schaft
tel le
exce llent
te ile
report s
member s
fortun ately
1 8
J u
ü cht
or r
st re
am p
199 7
guarante e
berücksicht igt
Behör den
Außer dem
der s
ar r
ken nen
Rat spräsident
Auf gabe
fall en
schie den
Vertrag s
bede utet
hon our
or en
he ar
ib ility
part ies
consum ers
entwic kel
L in
N ahr
P ri
W ach
le i
ab zu
tr y
Pres idency
Agr ar
. )
b uch
d isch
k rit
y o
le ment
ob vious
per haps
tre at
bas ic
Entschließ ungs
Sel bst
K ap
O b
P e
P unkte
in dem
ra c
ne eded
con sequ
su stain
gem essen
lä ßt
eig entlich
fäh igkeit
u ese
zu sätz
ver antwort
pres sed
gesam ten
Austr ia
Portug uese
cir c
D ok
J anu
m üß
ig lich
od y
fo und
Berichterstatter in
proced ures
Pri or
im p
ver l
ex ten
lo k
hl en
unser em
owe d
main tain
provide d
crit er
Vol ks
Dam it
se en
sp richt
produ ction
Gemein samen
Sta ats
Pr inzip
Energ ie
D ank
O ur
P al
re ct
st u
üs sel
arbeit et
led ge
adop t
bene fit
Amer ic
bezü glich
Notwend igkeit
M E
e as
f ive
h nen
ch nung
res t
sen se
up pe
neh m
led iglich
incl ude
Nahr ungs
f ern
m einem
y r
en cour
se tzt
ver fü
sie ht
agre ed
prov id
stru ktur
last ung
zun ächst
Auß en
eindeut ig
Dok ument
M är
M iß
m is
p ers
un er
at ory
der art
dem onstr
com b
hat ten
vo ting
wür d
Verbesser ung
B o
H uman
ol ate
he ut
auf genommen
ind ic
port ug
qu ick
comm er
work ers
richt ung
commit ment
appe ar
signific ant
portug ies
a th
b ank
p h
en ch
an e
an ted
zu stellen
An trag
wirtschaft liche
bestimm te
pop ulation
Zweit ens
c ation
at iv
at ors
ent ire
ra ised
con ne
ach ten
än de
sol chen
Organ isation
Parte i
unt il
T ag
a ctive
it ing
mit ted
com prom
gese tz
ask ed
ele ct
conf idence
er ien
re pe
res pe
ce ed
Un s
schl uß
komm ens
S an
n ü
ü hr
en den
ch oc
be ant
be teil
se x
im es
ab o
tr ue
fa il
et wa
ty pe
Emp fehl
Z um
b zw
h es
y es
fa st
unter nehmen
Kon fli
prov isions
pla in
Änder ung
Bereich en
establish ed
bur g
N r
r ing
le tzt
In form
sta ge
Reg ional
get an
day s
ile d
val ues
genann ten
congratul ate
prep ared
1 7
O ne
en or
re in
ge wiesen
ste ad
Hand el
prü fen
carr ied
kle in
deter min
I ra
Fre mden
Möglichkeit en
Erklär ung
Verfü gung
s einem
er inn
ver hin
us ing
ex pressed
En g
po or
sa ge
Sch ritt
fin al
pl ies
ok ol
land s
bal ance
Te chn
Them en
compet it
meet ing
choc olate
B rit
P er
b ahn
m ere
gleich zeitig
achie ved
Entscheid ungen
Chin a
Wach stum
N icht
P ost
m and
r ate
ver gangenen
ta ck
vor gelegt
reich e
arbeit ung
read ing
wes entlich
anges ichts
addition al
Nat ur
aspect s
C o
h ard
n immt
u ter
be troffen
to tal
te ll
su fficient
fä lle
Richt ung
b lo
s ide
ein gehen
res ear
ih n
por ted
Pl en
Diskuss ion
resul ts
b ody
e ither
ch ter
it im
be für
su ff
Mit teilung
contrib ution
Part ner
sag te
resear ch
S erb
W ar
b are
e llen
i ze
sch ung
me chan
Se ktor
Min der
lang u
schein t
Ergeb nis
Zun ächst
B as
H ö
b ildung
h ne
er ziel
mo tion
unser es
Dem ocr
Ger icht
hau pt
LE AD
LEAD ER
k rä
er ung
le ider
sch t
pro zeß
iel le
br it
Ge legen
utz ung
spre ch
pra kt
Fl ücht
through out
zweit e
Seit e
Öff entlich
A ktion
h ung
i ans
k tr
n u
s an
st op
im ens
Er stens
wo bei
ün g
marke ts
sor gen
S or
z entral
it z
for men
so on
Pro to
leg ung
Mitglie der
cr u
add ress
spr uch
ialog ue
accord ing
sug gest
Tats ache
disch arge
H els
S outh
b l
Vor aus
Ab schließend
Menschen rechts
ink i
nat ure
require d
priv ate
eth n
criter ia
Hels inki
h err
p ite
sch lagen
me th
groß er
fund ing
ade qu
grund legen
zeich ne
Regel ung
exist ing
Angelegen heit
8 0
b itte
ich en
Sch okol
part ner
Fr ench
sit ting
Bestimm ungen
Nahrungs mittel
R om
d at
f il
mit glie
ges sen
mo dern
erst er
streng then
tatsäch lich
Strateg ie
Inform ations
N A
W TO
m ein
w and
ge wä
human it
tal k
Verein bar
demokrat ischen
wün schen
h och
i op
ig te
ha ft
Re chnung
fa ce
po ver
ass ess
dec ided
gesam t
P re
d ialogue
p ted
st ress
ll er
sch em
if el
ug os
mitt l
Vertre ter
allgem einen
wee k
sever al
IN T
Öffentlich keit
0 2
M O
g raph
l ö
r ang
an no
fa cil
who se
implement ed
D ialog
s atis
al ität
ent e
de la
ta ge
cr is
cap ital
institution al
f ig
er ne
th iop
ver stär
tr u
hin weisen
setz ungen
fo c
Ko ordin
contin u
pract ice
pens ion
Proje kte
First ly
Sp an
AC P
quick ly
A K
S ache
un ities
In tegr
ex cept
co unter
pr inzip
say ing
pend ent
begrüß e
Struktur fonds
recog n
assist ance
Sum mit
AK P
N os
P ra
R EG
i ver
s k
un abhäng
se c
su cht
är m
present ed
Zeit punkt
every one
Grün den
dou bt
amoun t
F amil
ü lt
er heb
an gemessen
be dau
ab our
lich es
leg t
fr aud
Ein führung
Bür gern
level s
net work
tal king
Afr ika
anges prochen
Amend ments
begrüß en
rele vant
refu ge
pover ty
INT ER
K raft
c andid
on d
is se
be treffen
An satz
ple ased
Besch luß
istr ib
struct ure
anal ys
Fischere i
INTER REG
R aum
in nov
ein heit
zu stimmen
ab ge
je dem
inc or
Mitgliedsta at
wen det
Sicher heits
ennt nis
bewuß t
suff er
Gelegen heit
R u
er folg
ke its
res er
auf zu
co her
An frage
St abilität
spec if
uf ig
promo te
Frei heit
S inne
a vo
g re
i ere
l ange
ä l
be ar
de li
he ld
prov ision
just ice
iven ess
produ ct
Zu gang
require ments
gere cht
Bem erk
trad ition
Vertrau en
l ive
n ommen
n issen
ch ild
is on
ic y
icht en
ir gend
res sed
form ul
ac ce
mo del
pl ans
stehen den
Da bei
integr ation
beding t
Verwalt ung
Transp ar
2 1
a i
s inn
ch st
ge hend
um e
ob il
br u
ult ure
sol idar
Arbeit nehmer
budget ary
sätz e
verschie den
bede uten
grif fen
Angelegen heiten
transpar ency
Dienst leist
Stellung nahme
Isra el
) :
L es
T ät
le ge
he ben
li k
end lich
We l
ungs verfahren
besch lossen
bre it
Beit ritts
pri ority
ikan ischen
complete ly
imens ion
E isen
l ist
r ural
u ted
ar ian
ed on
wir ken
wer te
ag raph
Re de
Sch wier
fore ign
anz ös
ständ igen
Gro ß
bestimm ten
Kom prom
crimin al
Leit linien
E ast
P aper
R o
s of
y n
on en
be d
ver standen
el se
part y
dis crimin
fol ger
dam age
cor rect
för dern
g ing
k einer
ä u
er en
no te
Kr ieg
lim it
Fe bru
Pol icy
app lied
c entral
m iß
imm ed
inter ess
ble ibt
pre par
geb ie
geb ung
regard s
val ue
refer ence
M eine
sch o
ann ual
änder t
Grund satz
rap id
los igkeit
incl uded
Rechts vorschriften
hol d
zeich net
represent atives
fun ktion
access ion
Transpar enz
P atten
p fen
le ft
ic les
inc iner
zie ht
Bel g
P P
d ienst
h ilfe
as soc
me isten
la ß
kon zentr
Inter governmental
appro ved
zieh ung
Person en
ermög lichen
colleag ues
absolute ly
comprom ise
dat a
D inge
E N
F ern
S telle
r ene
v olle
icht lich
ist ic
imm ung
hör en
consider ation
rem ind
US A
akzept ieren
hist or
honour able
abo ve
immed i
D aten
p ts
t ar
ver gessen
kt ions
ess ion
alle in
crit ic
Verkehr s
organis ations
name ly
farm ers
NA TO
A pr
a ke
b road
h ind
is iert
st ability
ct ural
Sch if
sel s
durch aus
tim es
trä cht
dan ke
Stru ctural
Liberal isierung
c red
f isher
h inter
w ise
in fl
Ab satz
schl ag
every thing
applic ation
Apr il
H altung
L ast
N ationen
b ro
re fle
ll te
ier s
sp ir
In de
os sen
lo t
Er folg
ob wohl
Ar mut
off ens
consider ed
poin ted
invest ment
fun den
vorliegen den
Industr ie
cris is
S we
it err
am pf
no graph
us ions
ges und
Se p
besch rän
meas ure
tern al
hät ten
precise ly
conne ction
Proto k
T at
es ted
un bedingt
be handelt
ter rit
op h
Er fahr
tro tz
De velop
Dies es
bal d
redu ce
Schluß folger
am er
ta kes
ad van
über haupt
We iß
tra ining
mo t
fr ieden
fr anzös
sit zen
Zus atz
respon se
know ledge
wes entlichen
increas ed
atte m
Durch führung
staat lichen
Ergeb nisse
Wh ite
Gesund heit
const it
Verpflicht ungen
danger ous
erinn ern
2 4
O p
R uss
c kt
h men
m aterial
t in
w in
an ken
we ist
ist ischen
ck s
ord n
prop ose
comm ent
fr ü
Richtlin ien
Hand els
struct ural
Fe hl
Qu est
conflic t
pers ön
I P
d istrib
mö chten
comm unity
ish ed
rel ating
olog ie
sc ient
Zust immung
Fol gen
O f
c ies
o und
s ent
re view
he ard
sp ar
Ver gangen
leg itim
ins gesamt
sect ors
grö ßer
Vol k
zweit en
zeu gen
län ger
milit ary
drück lich
Schokol ade
D ritt
in spe
to t
ein d
ver ab
inter vention
over all
ism s
auth ority
stär ker
Aspe kte
üh ungen
elect r
specif ically
Les ung
Schwier igkeiten
F urther
W ider
r un
ge fordert
ag ing
lä ss
äm t
roug ht
beg lück
rec ently
ext ent
bu il
kontro ll
tem ber
constru ction
imp act
Develop ment
G ar
K atastrop
V ölker
u fact
in ation
ür z
ma x
man ufact
tra ffic
Le g
pract ical
berücksicht igen
receive d
initi atives
ugos la
candid ate
Vergangen heit
d ate
f al
z ö
z if
te le
all oc
En vironment
imm igr
inter pre
Ab sicht
comm ents
spe zie
og raph
any thing
Kon ferenz
forder ung
mittel n
invol ve
discuss ions
geleg ten
concl usions
power s
technolog y
cult ure
Arbeitsplä tze
meth od
W hen
g ült
u x
re mo
te en
gen et
lin ie
igh ted
gesch affen
itä ts
cult ural
Med iterr
gewähr leisten
pot ential
Koordin ierung
incor por
G re
H o
T our
be ziehen
ge troffen
Be teil
sich ern
her aus
Ent wurf
Au gen
Änder ungen
por nograph
wieder hol
gesam te
Fund s
Fund amental
edu cation
Krit erien
coordin ation
ane an
Mediterr anean
H ar
K omm
t ary
as se
sch ü
im men
je weil
nor mal
lan gen
ru le
carr y
pur pose
Nat ürlich
konkre te
sour cen
circ um
D o
K ern
R ass
c ers
f ter
er weise
in dest
un employment
it ure
ge kommen
for d
ste lle
Be am
hin gewiesen
prov ing
wichtig sten
deta il
Qual ität
Kön ig
dring end
entwickel n
sustain able
cru cial
2 3
N ie
b ür
f lo
n a
ä lt
be vor
ein g
ver suchen
pro ceed
su per
lie be
beg inn
instrument s
ehr te
bour g
monitor ing
bit ten
B ank
C hr
F R
e qual
g iving
r aten
be hind
ne l
con v
cht ung
nach halt
europä ischer
For derung
Finanz ierung
val u
stat us
refer red
lim ited
pur su
sprech end
adequ ate
rene w
Weiß buch
P atent
m ü
is men
be zogen
ge tragen
ll ten
so und
Ver teid
port s
Vor gehen
Ent lastung
hin zu
dire ction
bess ern
cont ent
ausge zeichne
Gebie te
lauf en
Eisen bahn
M ex
W issen
ar ound
be darf
kt ive
Aus führ
ün ft
zum indest
Kol lege
bene f
selbst verständlich
auth or
Änderungsan trägen
handl ung
bind ung
Fä llen
subst ant
poll ution
Protok oll
6 0
F le
h under
m ess
o il
un acceptable
des pite
Ver änder
wo gen
sta aten
Gr enzen
develop ed
Auf gaben
pf lich
good s
Hin sicht
zeug t
star k
opport unities
beding ungen
Bem ühungen
affe cted
Währ ung
yo ung
K enntnis
R and
g än
s ix
x en
ä ter
is ieren
de fen
zu setzen
ou ts
pro b
An nahme
par agraph
Sch l
spe e
lin k
per fe
reich end
Mon aten
Beschäft igungs
Transp ort
creat ed
liberal isation
Kommissions mitglie
verhin dern
Sep tember
D rit
K ampf
c ol
wi de
sch le
ver bessern
la im
An g
Fr ance
pl ann
Unter such
wirk sam
oc cas
Mittel me
ret urn
serious ly
gang s
pend iture
finanz iellen
Wo che
Zust änd
Betr ug
reach ed
creat ing
consequ ences
encour age
Plen um
avo id
Komprom iß
Rass ismus
S pe
W ert
e il
un ver
ie b
zu führen
em iss
ex act
Er zeug
sta ff
Gr ie
anz en
Bereich e
dra wn
rei ben
Regel n
verkehr s
konkre ten
Fortsch ritte
nu clear
b i
n ern
s ämt
al most
ent schieden
ge wicht
ein gesch
de e
ve h
ter day
gen cy
con om
men sch
li ability
Pro z
There fore
invest ig
risk s
exper ience
künft ig
bil ater
challen ge
Geschäfts ordnung
solidar ity
König reich
B udget
n utzen
o ten
v ital
die jenigen
ver se
pro f
us sed
ex plain
ex penditure
Ma y
Auf merksam
jed es
As yl
effe cts
fahr ens
Regel ungen
concl usion
agricult ure
länd lichen
Further more
Ausführ ungen
Aufmerksam keit
E conom
m ass
sch uld
co hes
go es
fr ont
ieren den
vern ünft
trans fer
entsprechen den
vic tim
hu ge
Gree ce
ffiz ient
tot ally
K l
a way
c laim
h ab
z ä
in ed
th in
st ances
ver gen
da durch
ir es
Ver träge
Ver hält
ex er
De c
brauch t
know n
Ste llen
Proje kt
kontro lle
Integr ation
E ben
F alle
G ed
M än
M ore
P rä
m ann
r imin
st ud
st ated
le iten
ver stehen
ke lt
con tra
li z
ern s
Fr ank
cr i
cr ime
produ cers
olog ical
Besch l
ho ben
enth ält
pri orities
accord ance
Wer te
lö sen
discrimin ation
Grie chen
0 3
N un
R ed
d ung
e c
on nen
il ar
ut ter
me l
In iti
ger ichtet
sup ported
fest stellen
ele ktr
industr ie
inten ded
Entschließungs antrag
refuge es
) .
H ow
a den
d lich
e fficient
th y
th us
on es
an er
st offe
ber u
li ving
ex tens
ap plies
ger ing
pos sibility
pre hen
cons ult
best ät
Über wach
disc ussed
möglich st
ja hr
speak ing
Stra ß
grif f
Bar n
Balk an
L assen
v ia
ä um
er hö
an ced
ab kommen
dem n
prop ort
el le
spe ed
ous ly
beg in
gehör en
Hau pt
Uns ere
G MO
b rought
c le
f eind
u ine
ü ro
th reat
or n
au t
de ath
ac qu
noch mals
200 6
verein bar
Minder heiten
erne ut
oph ob
circum stances
cohes ion
A L
M einer
a z
n ä
s ym
er warten
be tre
ge funden
pro fit
br ief
schl ossen
fre ue
ateg or
gegenwärt ig
Überein kommen
heut igen
E ind
d ut
f assung
j ur
k auf
k raft
l ing
der al
to ok
tr itt
des ign
Ver wendung
Wir k
ure au
199 6
ange b
my self
Land es
tern ative
set ting
Politik en
Gebie ten
struct ures
außer dem
proper ly
dien en
tour ism
gesund heit
9 0
E l
G C
G o
I GC
P ub
c ross
e ffizient
x is
ar ch
ge ts
ver pflich
il legal
all owed
ste ts
form s
mor ning
vent ions
pub lik
consider able
Fraktion en
wissen schaft
thank s
direct ives
Gesund heits
Frieden s
fish ing
rac ism
Brit ish
Chr ist
N ational
Z ivil
s ort
we d
ver ur
ue llen
ün st
att le
bau en
19 8
move ment
Ihr er
Pos ition
disast er
klein en
g ab
h offen
at isch
re ag
sch ätz
gen uine
sp o
ach tet
beit ragen
wicht iger
fest gelegt
sc ope
cap ac
recog nis
Lin ie
PP E
outs ide
1 00
e ign
h ome
l ung
ö st
ie ll
as yl
de ll
our s
Be g
är en
pres idency
durch geführt
oper ations
gu ten
Pr ü
Sol idar
Just iz
schre iten
administr ative
Gericht shof
exer c
H O
T ier
U R
V on
W es
W ahr
g reifen
m ag
in tens
un kten
ein iger
and s
se ktor
am ber
zu frieden
ist ische
um welt
ben öt
ac ross
pt ion
200 2
De ut
erg reifen
bie ten
resol utions
vorgeschlagen en
Konfli kt
Schlußfolger ungen
A chtung
P flicht
b illion
f ug
t ung
re f
se par
est s
gr uppen
sh own
has e
pr ice
min imum
pla ced
produ ce
zeu ge
Wieder auf
offens ichtlich
elektr on
asyl um
E lement
M io
s ession
en able
un ion
al ong
ar ily
ra hmen
sp er
tr an
conc entr
age ment
bo t
pa ck
rel ated
richt en
redu ction
fun ction
mil k
business es
parliament ary
yes terday
foc us
Pub lic
n one
ch em
be hör
Ver mittl
str ö
deb t
Sta at
see k
Da zu
gar ant
zahl en
wert ung
cover ed
som it
xen ophob
B an
N ow
b ung
b ill
y pr
at ik
der ungen
än den
An streng
ib il
lo g
nat ural
möglich keit
implement ing
reform s
All er
entsprechen de
administr ation
Quest ion
Frank reich
A ktiv
g lichen
on s
or ient
ig ungen
ll os
sch äd
da fr
Un ser
ex ternal
Th ird
St at
str ict
fin ally
Ein w
bet onen
ihr es
establish ing
lang t
Afric an
effor t
Invest itionen
obvious ly
Kap ital
dela y
Inde ed
Komm un
L I
S ome
ive ly
sen sit
ac io
pa in
No ve
ho hen
hel fen
lang frist
Treat ies
speak ers
med ium
einz ige
Dire ctive
official s
leit et
Pal acio
partner ship
scho ol
Econom ic
verpflich tet
N iel
z one
un ge
un anim
ein gere
ur gent
ver folgen
tr ying
wer k
vor hand
qu ant
ungs an
ok raten
right ly
real ity
Ges prä
press ion
contr ary
eh m
notwend igen
look ing
difficult ies
Just ice
Ju gend
3 7
D ruck
N ord
b ig
u des
com prehen
dar stellt
war um
bes ten
är enz
ander s
cau sed
dire kt
oper ate
view s
add it
rem ember
Ha ider
Prior itäten
san ctions
acce pted
zö ger
prob ably
perfe ct
Solidar ität
B A
F un
O M
P lan
a da
i ft
l abour
n ation
y e
em er
gr ant
dar stellen
ob tain
pl ant
bar keit
sit z
De legation
bo ard
fä llt
cre ation
aussch usses
effective ly
direct ly
Har mon
Aller dings
A R
B ö
K ar
Z e
in stead
ge lt
In halt
gan ze
Ab schluß
gu ard
first ly
lau b
ganz en
Mittel n
sum mit
comb at
Anstreng ungen
B ildung
K ur
N ations
c ame
g liche
l ier
t ief
w ind
y se
it ude
ent sprechend
be ein
be kommen
il ities
ke t
ex change
ess es
par ts
ik en
reg ular
Ab fall
conc il
int ention
bess ere
fest gestellt
discuss ing
post al
bestehen den
affe ct
ermög licht
gemeinschaft lichen
particip ation
recogn ise
erns th
capac ity
M ac
V O
c a
e her
h ig
y p
al es
be y
da gegen
us h
op ol
ad v
wor d
chte t
Aus gaben
national e
For schung
ri ft
Austr ian
verb unden
arr ange
ME P
buil ding
A gen
F E
d iv
m ber
p assen
r ong
t ät
ge wesen
um gesetzt
sp end
kt iven
ges che
über nehmen
mor al
Ein zel
pa id
Maß e
acht ung
bring t
use ful
reason able
stim me
Disk rimin
mitt ag
org nis
konn te
erfü llen
enor m
analys is
Nove mber
Agen da
D A
F ahr
a fr
i end
k ulture
de alt
con cept
la be
pr im
Ber ichte
ire d
alle l
199 5
De z
cy cl
bo dies
io t
ele ctions
Mar ch
regional en
wish es
inde pendent
prü ft
entwic kelt
Aspe kt
spiel en
conv inc
exact ly
M os
S to
a in
h nung
l ater
w rong
it ious
ar gument
ent scheid
for ces
no ck
con demn
ex plan
Th ank
Ber lin
el der
pres sure
Ma i
dec lar
Auf nahme
qual ifiz
Arbeits losigkeit
sim ple
commit ments
ife llos
ko sten
Gesetz gebung
Balk ans
schlä gt
müß te
Mär z
San ktionen
Ira q
humanit arian
coher ence
scient ific
Niel son
2 7
A c
I re
K u
c los
it ation
zu folge
ra k
fe ed
Aus bildung
ese it
Ein satz
Ko h
sicher lich
curr ency
He ute
Wo chen
inten d
Fol ge
document s
.. .
famil y
inciner ation
frü her
eingesch rän
bey ond
A lle
H off
N G
S ince
Z ur
i or
r ise
ä hn
in fra
an en
ge äuß
us sels
ier ter
ul s
In st
vor her
ens uring
kon om
fl uß
finan cing
citiz en
sc ale
sim ilar
Br ussels
commun ities
Ha ar
zeu ger
Wor ld
jud ge
Sub sid
diskut ieren
repe at
Sor ge
Verteid igung
mess age
defen ce
Eind ruck
UR BA
URBA N
D i
I T
L a
b ad
f es
p ed
r ig
ge leistet
ig keits
ne ar
Ver halten
Be denken
ze igen
ap point
polit isch
fr iend
act ual
bere cht
olog y
oh n
stell er
requ ires
gent eil
Br üssel
käm pfen
Mill iar
Dar über
person al
Agr icult
Parte ien
Zwe ifel
andid aten
fisher ies
beglück wünschen
victim s
LI FE
gesche hen
Ire land
m ist
at ure
be ziehung
im ate
con du
sp äter
vor aus
Er ika
ob serv
cons ist
sib ilities
polic e
stand s
utz t
Land wir
schie de
Abgeordne ter
Al ban
commit ted
iar ity
activ ity
Schul den
exp lo
Sü dafr
assess ment
i que
s agt
in it
it ors
St är
Vor bereit
Ein haltung
lear n
sub mitted
welt weit
hap p
hö ch
demand s
miss ion
Pe ople
Pra xis
veh icles
M acht
T ro
c ke
p ing
ch s
at ch
al one
de ad
for th
ter r
op tim
ze p
vo tes
lä ß
Or t
Beit ritt
Vorschlä gen
Ch amber
Wor te
Portug al
success ful
schwer wie
mäß ig
challen ges
erwä hnt
krä ft
Aktion sp
konzentr ieren
Veränder ungen
init ial
3 5
f irm
w onder
th ought
un fortunately
at ically
or al
be in
ge worden
au sch
de legation
ur ge
ver sucht
ab sicht
no ise
op les
our nal
Re formen
spe zif
Ein beziehung
ud gets
Um fang
develop ments
viel mehr
respon d
bie tet
Program ms
zeich nen
Em iss
anim al
Sol ana
Democr ats
Tät igkeit
Initi ativen
labe lling
E Q
F onds
I st
U AL
m b
ver t
gen ug
über zeugt
ap prov
ap prec
Ge genteil
ak a
Jahr hunder
zahl reiche
amb itious
dau er
anim als
Verwalt ungs
Janu ary
Op fer
bür ger
EQ UAL
A ktionen
l ant
u ations
or gung
te i
au tom
sch n
im ent
Ver br
nen nen
wor tet
reg ret
Sch ließ
Ar gument
pl en
per spe
kommen den
Maß nahme
Zeit raum
ständ ige
gest alten
international e
comp any
All i
lea ve
milit är
subsid iarity
neg ative
Heraus forderungen
portugies ischen
spir it
Griechen land
Harmon isierung
Subsid iar
C ypr
G VO
L ux
d ise
n öt
r up
ö k
ent spricht
ct ors
op pe
os s
fin de
ear ly
ear lier
For derungen
industr ial
öff entlich
erforder lichen
för dert
colleag ue
schwier ig
Americ an
Empfehl ung
Beteil igung
nä her
Koh ärenz
4 8
7 0
G lobal
S piel
a y
c aus
g ives
j üng
ö konom
er sch
ur spr
am pa
im proving
Ver bindung
ges tern
St re
Vor haben
pre fer
beg innen
Me er
posit iv
strateg ic
Kin nock
Pr iv
oll ar
deal ing
nie dr
event s
restr ict
fig ures
jeweil igen
Subsidiar ität
I hren
S inn
U K
c raft
k oh
w anted
al ter
re den
der er
ver me
pro z
ma ins
ien ste
leg ungen
form er
et imes
Ge b
Haus es
wes end
stimm t
trans ition
derzeit igen
harmon isation
konn ten
ras ch
provid ing
commer ce
mere ly
ethn ic
Dec ember
Haar der
Milliar den
E re
S P
S a
V oll
re mains
ent wurf
den ce
sch rift
um s
ive au
vor legen
ant i
fä llen
off ice
cond ition
komm e
grund sätz
vers al
Entscheid ungs
kün d
Verpflicht ung
kom p
Heraus forderung
treat ment
Famil ien
network s
assoc i
attem pt
Aktiv itäten
Fun ktion
cycl ing
convinc ed
ampa ign
C he
k aum
k ürz
n es
ro und
ol a
ab we
ber icht
ist isch
An fang
ien cy
her z
Präsident en
ün d
gel ungen
olog ien
main ly
Ne ver
institution ellen
außer ord
Kontro llen
inform ed
cent ur
Res sourcen
Janu ar
Volks gesundheit
langu age
immedi ately
Nie der
plen ary
ök olog
2 6
2 8
C entral
D enn
F akt
S pain
c lo
k eines
l en
l ag
un sch
be mü
as sure
ein gesetzt
am m
for ced
he art
ct or
Re publik
fe ar
Gr uppe
wä lt
sup plement
io x
grund lage
ele ment
recht lichen
high ly
defin ition
Person al
provid es
Gar ant
beginn ing
spee ch
concil iation
Lux em
% .
3 2
A d
A fter
H inter
N ur
R ules
S ach
a ft
c ampaign
d ank
m ä
n ers
er kennen
er griffen
un ch
re p
re ject
de pend
se le
ic tion
über ein
pe t
ern st
fe llow
Gr unde
Au d
gel öst
sol utions
trä gt
Grund sätze
son st
organ ised
bre ak
Best and
Produ kt
step s
Gleich gewicht
EC HO
Krit ik
def end
Pre is
manufact ur
substant ial
Verhält nis
addit ives
Dez ember
F ühr
S onder
f angen
h or
er v
an wesend
ie ht
re je
le hnt
ver bind
ra ise
ke tt
aus führ
fe lt
gel assen
ty p
gleich e
isten ce
qual ified
Ges amt
statt finden
crit ical
Gesch ichte
wach sen
let ter
introdu ced
bil den
beteil igt
Voraus setzung
Vereinbar ung
max imum
Wissen schaft
comprehen s
C an
E ti
K aka
c ord
w it
w ent
on ic
be coming
he im
des er
Re public
end gült
pr ison
Rat s
add ressed
adop ting
ausge wogen
invol ving
sor ge
contrib ute
Seit en
Hau se
künft igen
quo te
betroffen en
sinn voll
renew able
mann er
vorhand en
happ y
I C
L ud
N utzen
T err
b ol
d ient
r ieben
in come
al er
re ply
ent gegen
ver tre
Ver sch
lo sen
Mit arbeit
vo c
gesch ieht
Con sum
techn ischen
compe ten
car s
hä ufig
wär en
finanz ielle
demokrat ische
absol ut
transpar ent
erklär t
erklär en
verfü gen
anno un
yn am
ordn ungs
Drit tens
sensit ive
hig her
Agricult ure
B ild
B lick
D ann
M ol
ch ance
un mittel
as king
ll schaften
zu dem
ol ution
con trad
if f
Be handlung
min orities
mehr ere
produ ced
Her kunft
di vers
hän gt
zeug ung
jo in
comple x
bu ild
Gleich zeitig
wee ks
Ital ien
Third ly
E ing
L om
N utzung
Z w
s es
t arge
an ten
be zieht
ge walt
au ms
we ak
ne igh
con stitution
kt ors
la bel
ident s
iv al
An al
ap par
ass ungen
ser ve
cau tion
sit uations
pen al
möglich erweise
licher weise
redu cing
Ger man
CO M
Währ ungs
som etimes
grenz ung
commer cial
Span ien
deli ver
verschieden e
Beam ten
dut y
Südafr ika
Schließ lich
neigh bour
B au
W ill
s ult
s outh
ä den
st or
be finden
as bourg
ge ograph
se a
sen d
la x
vor schlag
com bin
fü gen
ue lle
Vor sitzen
Fr i
under taking
fre ien
bal anced
Str asbourg
öff entliche
hö her
He alth
Ha ft
Ch ance
Wi llen
Fä lle
Erklär ungen
gegenwärt igen
contain s
Fest legung
close ly
Überwach ung
xenophob ia
approv al
2 9
B y
E ven
G ra
d re
d ro
p as
r en
u cht
in o
be halten
be absicht
ge gangen
ge eig
se he
for get
urop a
gr anted
ex cess
ste t
co a
St abil
Er wä
wa it
fr ied
ak ter
itte es
wickl ung
comp ly
voll ständig
Tur k
regel n
const ant
Wettbewerbs fähigkeit
betra chtet
Schwe den
Flücht l
schü tzen
More over
komp liz
Never theless
comprehens ive
) ,
C om
G A
Z entral
f alt
l it
l isten
ö sterreich
er neuer
ein setzen
ein verstanden
ver folgt
ul ated
ges ichts
ex port
pe oples
Commission ers
je de
mo dif
lin ge
Au to
ließ en
führ ungs
system e
Bere it
begr enz
establish ment
ack now
spra ch
Kolleg in
To day
gew isse
jen e
erk ennung
schein lich
introdu ce
communic ations
größ ere
Hö he
Barn ier
F o
M ir
T i
un able
un sten
it ag
or re
re te
de p
sch et
em al
aus schließlich
An gesichts
pr ices
Ber ücksicht
räs ent
Gr enz
Um st
dec ide
Kon tin
att itude
techn ische
zwe ifellos
ele ments
spr ü
aff airs
char ter
Instrument e
Spra che
eas y
Erfahr ungen
Fehl er
sämt liche
Beg inn
Lud ford
P unkten
u fen
un zu
al ternative
ar m
be fassen
de g
se chs
ver an
Un fortunately
co coa
rä um
str en
Sch ritte
ger ne
Gr ü
lä ne
har m
stimm ung
cl ass
prü fung
gegeben en
zusätz liche
portugies ische
Empfehl ungen
Partner schaft
Swe den
französ ischen
w ants
er lä
th ous
ge zogen
ein schließlich
auf merksam
Ver ständ
Ver letz
über schreiten
An erkennung
wor th
sam m
erst ör
richt ungen
richt ige
ele cted
Me th
bre chen
System s
Produ kte
Bes orgnis
appropri ations
wün sche
CO S
Den noch
ground s
origin al
erfü llt
competit iveness
schem e
keiner lei
Kommissionsmitglie d
thin king
stud y
Eti kett
schet schen
K at
P ap
f if
y er
z ah
re ch
ur ance
se tt
im b
im ately
zu legen
sp ent
ex tra
reg ime
De fin
say s
letz te
Al though
adop tion
bereit et
hö hung
ffic iency
zip lin
stär k
relation ship
border s
Risik en
blo ck
Rechnung shof
Dienstleist ungen
Mittelme er
feind lichkeit
Ac cord
3 00
D an
G est
L ärm
S w
h op
t ag
z edon
ü ter
en ze
an cen
as ch
ver besser
ver ehrte
ab geschlossen
In sel
gr unde
Re vision
Be zug
will ing
go al
unter nommen
tro l
stand ard
uropä ischen
ign or
fä lt
kl are
Le ist
ho he
zeich nung
schr än
dür fte
unterstütz e
lim its
concl ude
mög lichen
eigen e
Lös ungen
introdu ction
task s
Mo z
betra chten
unterschied liche
Risik o
interpre t
Straß burg
Ban anen
MEP s
mb ly
Berücksicht igung
Accord ing
A k
b ild
un e
ver änder
ver wendet
ff end
St im
lo st
propos es
oc cur
comp at
air craft
Umwelt schutz
regional e
äuß ern
akt iv
Br enn
sequ ently
Fisch ler
vorgesehen en
Fremden feindlichkeit
Eng agement
competit ive
Ro th
critic ism
möglichkeit en
schwerwie gen
Global isierung
Turk ish
E thiop
K ing
g h
w ahl
Ä r
ü hren
en h
ie be
re ffen
gen ere
no on
all gemein
des cri
In fra
gr enzen
la id
ste uer
Kommission spräsident
go t
Vor red
part ners
dis h
wirk lichen
Über gangs
comp ens
Al ters
achie ving
Proble men
Kin dern
sor g
maß en
call ing
pri or
Mil ch
flex ibility
Spra chen
amp ere
verantwort lich
schem es
advan tage
Katastrop he
enorm ous
Moz amb
3 1
E S
M one
M oment
S en
d imension
h y
r ates
th re
at tack
be hau
ein f
im it
ver teid
em bar
so z
li ves
ex istence
Commission s
Pro ced
Er höhung
war t
Ein ige
Ein fluß
kon stru
Mitglied s
fre u
fact or
bo und
lä uft
Fre itag
put ting
begr ün
eh emal
Mon ate
redu ced
Minister s
bur den
improve ment
Viel en
Zwe ck
jud icial
dien ste
happen ed
flex ible
increasing ly
def ic
müß ten
ize i
ai ro
infl u
territ or
Fle x
recognis ed
exerc ise
strö m
Priv at
außerord entlich
centur y
Infra struktur
behau p
Proced ure
T ampere
Y ugosla
d on
f iz
st reichen
ent it
zu grunde
aus reichend
la unch
Be wertung
An spruch
out come
ac ter
sel ben
ide as
Inter national
sub mit
lle d
nat ur
ful fil
bre iten
safe guard
char acter
parliament s
wahr scheinlich
diskut iert
emphas ise
langu ages
wiederhol en
benef its
GMO s
reag ieren
Aud itors
Flex ibil
2 2
D is
H ä
P T
Z yp
h off
m id
er folgen
an schließen
re ib
st abil
be handeln
and els
Union s
Sch wer
Er zeuger
wo llte
conc rete
ieren de
mar ks
vent ionen
propos ing
führ ten
Zus ätz
fl anzen
mon opol
disc ip
Min dest
appro ve
Verein ten
vorgeschlagen e
guarante es
Bevölker ungs
Med ien
enter pr
care fully
rail way
oblig ations
recommend ations
exten d
stu ff
Regional politik
Bemerk ung
Cypr us
verme iden
deg ree
samm lung
King dom
h ours
k ret
k atastrop
l ate
p un
p aper
t ür
u gen
z er
re b
re chten
be ef
im at
zu ständigen
ab stimmen
gen ü
wh om
us w
Ver gleich
aus drücklich
qu ot
ure ly
polit ischer
fl ag
best and
qual ität
wes halb
employ e
zug unsten
posit ions
Ger many
manage d
med ia
außer halb
Wo hl
fäh ig
Wor ten
Zahl en
akzept iert
Res olution
Ital y
Organisation en
War um
Bemerk ungen
sof ern
Febru ary
Stär kung
läß lich
Consum er
Stim me
thre aten
M or
b ureau
h aus
m är
p atent
y a
be kämpfung
ge be
ur ban
im pression
ver br
ver urs
sp an
sp olit
Ver fahrens
aus sprechen
aus reichen
ive d
ate ful
ex em
ad ded
fe ld
ik ation
vo llen
per man
other wise
Ma zedon
Fin n
Con trol
Rechts grundlage
Me chan
Mein ungs
System e
defin ed
To des
mög liche
inten ds
express ion
Wh y
CO D
Lis te
statement s
mult i
hist ory
beschäft igung
vorzu legen
recommend ation
continu ing
electr onic
emiss ions
Beschl üsse
Prü fung
perspe ctive
Mozamb ique
D imension
I S
L auf
P o
Y et
b ra
l ies
p ft
er war
ar a
ol z
wir kt
wor r
par lament
Sch aden
pl om
Ge walt
ange ht
weiter er
employ ed
nun mehr
law s
Arbeits zeit
contrib utions
impro ved
Dar um
konk ret
promo ting
exper ien
Grün de
übrigen s
Wahl en
strong ly
cho ice
nehm bar
unabhäng ig
sec ure
Febru ar
flo or
proport ion
Defin ition
B ro
W unsch
d ict
i ate
n ight
er fahren
ar i
ent schlossen
ge iz
ge halten
ing t
im possible
ver ste
if ying
Re a
An teil
wor fen
je tz
ted ly
pre caution
199 4
sib ly
dr am
sup ply
Unter schiede
bereit en
ga in
Hand l
fle isch
fehl en
Nor men
umfassen de
beschäft igen
Prior ität
plann ing
Zuständ igkeit
Wirk lichkeit
perfect ly
herz lich
imb abwe
C ar
J o
M U
S he
p unkte
s iz
ch air
an nehmen
au er
ver letz
he av
Ver zöger
pe ten
fa cing
ac y
inter ven
comm ittees
mo der
Ein richtung
Gr uppen
Reg ulation
int ent
just ified
Auf bau
Über prüfung
erg än
io de
high l
Kr isen
zü g
Ch ancen
staat liche
global isation
draw ing
Ir an
frei heit
stre ben
Sektor en
Rom an
persön lich
ausgezeichne ten
Ged anken
Red ner
angeb racht
Landwir te
zah lt
Mazedon ien
C or
W ür
c ement
e quality
h il
u ct
er geben
or f
ar es
be trächt
ge fü
im plic
ver z
ne ither
iss ens
sp akt
ad voc
über tragen
ue l
fin ance
ander es
ander ung
Mitglie dern
tim et
Kon sequ
richt linie
interest ing
Ne u
klar en
spr inzip
sign ed
tax ation
nie mand
integr ated
Struktur en
prä z
Ir land
mechan isms
sof ort
Wider spruch
pack age
behör de
eingere icht
ada pt
Mos amb
urspr üng
Ere ig
Ti bet
Meth o
Mone tary
4 5
H och
V iele
c to
u ern
v it
w an
der e
le iden
ge ändert
ein bezogen
te te
and al
ab end
ne ben
auf zunehmen
op posed
des tro
Un abhäng
gr uppe
über w
com par
err ing
ien z
pos es
pre vention
che ck
teil weise
reich ung
sol cher
dec is
support ing
respon sibilities
incl udes
high light
conf irm
represent ative
Kontro ll
technolog ies
sur pr
subst ances
gewähr leistet
erwä hn
anderer seits
constru ctive
unterschied lichen
)) .
ffiz ienz
Techn ologien
Flücht linge
Rom a
Mex ic
Deut schl
tür k
quot as
B üro
K ü
W icht
e fficiency
k rat
o ben
w al
Ä thiop
Ö l
ä re
ge ber
wi d
wi ß
ver weisen
Europ ol
us es
dem okraten
gr ateful
vor schlagen
lie ben
ben ach
An liegen
An forderungen
fe deral
Er n
ander em
gel n
inst ance
bet ont
min e
min ority
Men sch
As se
off iz
neu es
Ih rem
Entwicklung spolitik
Le ider
vers ion
gener ally
Hin weis
Kr ank
Liberal en
oblig ation
derart ige
Bas is
erfolg reich
Budget ary
Eben so
fug nisse
none theless
Diskrimin ierung
clos er
NG O
geäuß ert
forth coming
parlament ar
K lar
L at
T ra
p s
t ies
er folgt
in a
re action
st off
be ha
to ld
den noch
sch ritt
il st
so le
Be weis
ob ser
stand ing
besonder en
wen igen
comp uls
Da für
vers orgung
ga ve
glau ben
Sozial schutz
call s
control s
del ighted
happen ing
ev idence
show s
Mal ta
subsid ies
Schwe iz
verl oren
appear s
spezie ll
na he
Erzeug nisse
Anal yse
% ,
D ollar
a str
m utzung
v ig
ü b
in es
is p
so genannten
um fang
ce il
ul ierung
ens wert
Ber at
age d
199 3
200 3
ins of
att ach
deb ates
bas e
Über legungen
geste llten
Umwelt fragen
größ te
Ur s
disast ers
Gree k
Ira k
Fremden verkehr
facil it
satis f
Wel che
breit ung
immigr ation
Ho hen
Ang ola
eingeschrän kt
Vorbereit ung
siz ed
Mosamb ik
compuls ory
4 2
9 5
E very
M any
c ou
r ück
ü ben
re iter
te lt
da cht
con sen
ges ted
ib iot
bei de
know s
exam ine
differ ences
af ield
Kr ise
nie der
Stra f
understand ing
Ex per
aufge fordert
sto ck
länd liche
organisation en
deta iled
Lebensmittel sicherheit
grenz überschreiten
Selbst verständlich
erziel t
vergen ce
consult ation
Äthiop ien
Asse mbly
B ird
D ienste
F ün
K ür
K OM
L anno
S c
W ales
f as
i for
n ungen
r ange
t ut
u als
ch sel
le bt
ein ig
om b
se ven
ll afield
ke pt
con ference
ere cht
op ou
op tion
des ire
ust om
ex pe
An fragen
ungs ver
scha f
ger s
ob in
ob st
lin ed
ör per
kon sequ
ser ies
Um wel
fre ut
fre cht
dec l
De fiz
get ting
fact ory
ose vic
Über zeugung
fra gt
pub l
Se llafield
dra st
Vorschlag s
abl es
Or d
contin ent
Ne w
defin e
guarante ed
Bes onder
Stra ßen
aim s
Energ ien
Mil osevic
comb ating
Voraus setzungen
erheb lich
afr ikanischen
condu ct
ordnungs gemäß
precaution ary
consen sus
D E
H ung
N u
R ind
T schetschen
c ast
d t
v a
ß e
ö hn
it ten
ent stehen
ent wicklung
ge fördert
se ien
se cut
sch we
zu lassen
ab or
em it
con vergence
sp unkt
We iter
An laß
Sch re
dar aus
Vor sorge
Ab kommens
ill ar
durch zuführen
iz on
dr än
For men
Inter oper
real istic
Ges am
represent s
erforder t
appe al
mean ing
sour ces
particip ate
tack le
brit ischen
Russ ia
design ed
arrange ments
Ethiop ia
Lanno ye
4 4
D on
K rä
N S
P act
T SE
T obin
f rag
k ennt
at ur
it ime
ic ip
ab ol
so eben
ly ing
all zu
me ant
ta bel
gr ie
über nommen
dis pos
national er
ang s
like ly
Ma astr
ak zep
chn ya
Gemein same
wes entliche
stell ungen
sätz en
star ted
star ting
folgen des
einge gangen
bind ing
ehr geiz
Nor th
gra du
sour ce
Mo dell
East ern
hab it
Tro tz
schn itt
Che chnya
reje cted
Grü nen
influ ence
Zyp ern
stuff s
Deutschl and
Bird al
opou los
akzep tabel
B yr
H ul
S co
d ynam
j em
o tt
r ational
s ser
en jo
at tet
de te
In spe
sen sible
vor genommen
fa ced
St ud
leg ally
Er arbeitung
ue ll
fin e
el imin
sam keit
gel angen
any one
some what
rel ative
wel cher
imin alität
besser en
posit iven
rec ord
zahl reichen
invest ments
person s
wün sch
mitt ler
hervor heben
Binnenmarkt es
contain ed
Je tzt
Fortsch ritt
Fest stellung
stra fe
tar get
amer ikanischen
Gre en
pornograph y
Wiederauf bau
Mac edon
dise ase
natur ally
Tschetschen ien
Byr ne
D imit
O ber
R uß
i ö
m ach
r ich
r id
at o
st ip
ge zeigt
den kt
sch au
op t
mit einander
ta il
ate ver
Re chten
co ast
Be für
An gaben
do ctors
Pres se
international er
schie det
recht liche
invol ves
seit en
strateg ie
Mon ti
einge führt
allow ing
pens ions
Betr ifft
Viel leicht
Sub ject
II I
Mo dern
sug gested
restr ic
schlä ge
Ratspräsident schaft
respe ctive
Serb ia
else where
größer en
verab schiedet
occas ions
rak opoulos
competen ce
Kat ifor
timet able
grie ch
Maastr icht
Dimit rakopoulos
Katifor is
M ü
M eines
c up
p at
is te
re v
sch w
im al
ist an
pro sper
sp ät
Re alität
fa iled
Ab fälle
For sch
spre che
Se e
certain ty
fest gelegten
amen ded
Wirtschaft spolitik
Ziel en
Ziel setzungen
di plom
notwend ige
nor th
post pon
promo tion
lead ing
Qu oten
näch ste
lea ders
vol ution
conflic ts
determin ation
Wachstum s
Informations gesellschaft
beschrän ken
territ ory
Russ ian
distrib ution
mass ive
acqu is
separ ate
oppe l
divers ity
pas sed
Verständ nis
A gre
E ffizienz
H igh
J une
T er
T un
V P
w ann
un ru
de leg
den k
we ttbewerb
pro je
aus gesprochen
ad just
ann t
wor se
Aus nahme
Er wart
there by
pre m
ide t
ange hör
bar er
oper ators
pa th
ansp r
Sta dt
Se attle
wieder um
bre ite
val uation
He imat
spra chen
On ly
ev a
Überein stimmung
excl usion
respe kt
Vereinbar ungen
Span ish
betreffen den
suffer ing
spar tei
Dritt ländern
alloc ated
method s
Gre ens
declar ation
Är z
obst ac
Agre ement
B udgets
F rom
P flanzen
c rop
h ü
m i
m igr
p räsident
v ast
w rit
er inner
an f
un less
at ischen
ge prüft
ein geb
ou ver
ver trau
ver ring
ut in
ach s
Ver f
ul ations
ind ire
ma k
lo wer
polit ic
kon vention
gegen seit
min des
Kon sult
wirk ung
wel chen
see king
wichtig ste
even ing
high est
inform ieren
einz igen
Arbeitsplä tzen
verfü gt
Serb ien
Hö chst
Sor gen
herr scht
link ed
Betrug s
erhö hen
wissenschaft lichen
spo ken
elektron ischen
clo sed
Hinter grund
targe ts
Fri day
Tra de
3 8
A I
H il
K op
L einen
W affen
d le
f lax
h ilfen
n ations
r uss
t land
er maßen
the it
re ten
und es
zu gelassen
ver age
pro spe
dies bezüglich
ha ften
sp ie
vor ange
vor gelegten
end or
We ge
fe hlt
Mit entscheid
nach drücklich
fact ors
rel ig
vir t
gest attet
Min utes
Sit z
Gen eva
Char akter
hol ding
seit ens
20 10
accoun ts
folgen de
Organ e
technolog ical
größ ten
fight ing
Diskuss ionen
Ital ian
spiel t
excl us
Agrar politik
erziel en
itz er
counter fe
fal sch
incorpor ated
Mitarbeit er
compat ible
Erwart ungen
A kte
E L
J uni
R O
T agen
T iere
a head
r y
t äu
to ler
de ten
ver eign
so vereign
pro test
op position
ag er
aus gehen
Be grün
An lagen
St u
can ce
wa iting
Fr ist
nach zu
Ge währ
tre ated
sol id
resol ve
Her zen
Her steller
opin ions
Teil en
Wettbewerb spolitik
change d
gew iss
gew öhn
exist s
At lant
gratul ieren
individ uals
grow ing
Entwicklungs länder
uni versal
allgem eine
viol ations
protect ing
nü tz
Per spe
Stabilität spakt
Tour ismus
bilater al
ernsth aft
consist ent
entit led
decis ive
dispos al
D än
E D
I dee
K re
S V
b ir
g one
m ob
m ünd
en vis
er weiter
an che
it el
re vision
re cycling
be unru
of in
au ßen
am a
im posed
il ater
pro of
Ver sammlung
mit telt
co decision
An zahl
war m
form al
Au ft
ang ing
Ko hä
forder e
oc cup
consider s
consider ably
Fre edom
Te le
loy ment
exam ples
Problem s
rapporteur s
Abstimm ungen
sim pl
colle ctive
open ing
Bes te
bu ilt
priv aten
genann te
künft ige
sto od
ifiz ierung
vorliegen de
Frei heiten
hu ber
prakt isch
Famil ie
funktion iert
occas ion
Christ ian
concentr ate
caus es
jüng sten
modif ied
jetz igen
Vorsorge prinzip
Kohä s
4 6
E igen
I de
J ugosla
M obil
S av
c ustom
h m
h und
k am
k ungen
m m
p assung
is ierungs
is ierten
al te
re construction
ar k
be auf
be kräft
om it
se h
ve get
ter en
he er
ant worten
ungs bereich
Aus grenzung
bei zu
Vor be
polit ics
Ein igung
199 2
ange künd
Sta uner
lau ben
great est
pen dence
differ ence
plan ts
letzten dlich
speak er
folgen den
einge halten
pract ices
genann t
subst ance
Den mark
regel ung
regel mäß
Social ists
amoun ts
beschäft igt
famil ies
equ ip
among st
clar ify
amp ag
stu dies
ME DA
Bo tschaft
grundlegen den
fig ure
tru ly
abge lehnt
Last ly
win den
spezie llen
bestät igt
jur is
benöt igen
spend ing
infra structure
nöt ig
supplement ary
verbesser t
Yugosla via
employe es
Modern isierung
Dän em
Jugosla wi
A ktions
C NS
D S
G anz
H ere
K enn
K ategor
N RO
S ter
S ign
f and
i j
n erst
y ed
z erstör
th or
is emit
re marks
ar dis
ur gency
sch reiben
im ag
zu letzt
ver sichern
wh ilst
sp ace
Ver lauf
tz ung
ges icher
vor be
über zeugen
sh ilfe
The ato
cons ol
gel ang
ins ist
ins urance
support s
kl ang
political ly
Se curity
bring ing
ital ien
require ment
cap able
nie mals
leben s
schre ck
Prinzip ien
demonstr ated
except ion
refle ct
Bö sch
eseit igung
manufactur ers
geeig ne
perman ent
Hul ten
S wo
V ier
a verage
m obil
w on
w ing
er ör
er öff
is ted
at om
to ol
ou l
ou ch
ver folg
ver langt
pro ble
tr ifft
Ver s
Be isp
iv ity
St ability
mö gen
sie ben
beit rä
Ge ber
hin der
ang est
sup posed
mehr fach
bo da
rap ie
fä llig
wirtschaft ung
wirtschaft licher
fest zulegen
Nach bar
Fl or
Tr ans
offen bar
zü glich
mone tary
begrüß t
pay ment
kle iner
draft ing
weg s
schwier igen
jähr lich
herr schen
Pra kt
Schif fe
cred ibility
Katastrop hen
aner kannt
cle an
brief ly
emer gency
tät ig
announ ced
thous ands
Vorred ner
sorg fält
Flexibil ität
Mexic o
Interoper abilität
Swo boda
Beisp iele
3 4
K andidaten
g lück
h emp
k orre
s ha
u che
z ieren
ü g
er ous
th ir
al tet
ar ded
be long
ge tr
and a
we alth
ver m
ab gestimmt
wer ten
op pos
In stead
Re port
St unden
Sch äden
ger ufen
et c
nach dem
iz üg
fre und
fo ll
consider ations
stehen de
resol ved
real ise
requ ested
appro x
Berichterstatter s
Arbeits markt
Kr iminalität
represent ed
bel s
effect iveness
improve ments
Pol izei
never theless
lok alen
entire ly
letzt lich
innov ation
Zusatz stoffe
legitim ate
inspe ction
Tour ism
ec ological
kulture llen
Voll beschäftigung
hor izon
hoff entlich
expe cted
Macedon ia
Ruß land
consol id
0 16
A p
B os
E le
E ig
F er
G rem
K lim
d ign
e ast
e valuation
k ap
s cr
ä st
an statt
re a
ro h
ein gebracht
ver lei
gen utzt
ber aten
il le
sp art
vor rang
end t
ste chn
ann ien
Sch ien
mehr eren
weiter es
bo ten
lä ufig
Gen ehm
Hin dern
defin ite
aussch au
meet ings
vis it
ru fen
appe ll
Markt es
pay ments
Betr ieb
Viel falt
Behör de
viol ence
exten ded
Miß brauch
poor est
brit annien
grundlegen de
einheit lichen
Groß britannien
Swe dish
Volk spartei
Leg al
remo te
beein trächt
judge ment
typ es
Umst änden
Zusätz lichkeit
implic ations
schaf ft
erinner t
ouver än
J ournal
R ent
S uch
S yr
T ai
c ard
g ünst
k nü
m ill
n ine
p illar
ü ckt
st offen
be deut
be kämpfen
ge wissen
ne un
pro ve
tr ust
me ld
In s
mit teilen
li able
Be ob
über all
An y
An merk
Th en
European s
St äd
Aus nahmen
wa hren
spe ziel
lin ks
pos sibly
pres ence
under taken
schließ t
econom ies
cept ion
isten z
bin den
Mittel punkt
process ing
voll kommen
conf ir
exper ts
ehr ten
rele ase
dou ble
famil iar
Ob wohl
zusätz lichen
Tag ung
additional ity
Nahrungsmittel hilfe
tradition al
involve ment
verur teilt
tran se
Stat us
Ze ichen
wält igen
Verletz ung
soz i
enterpr ises
verste he
NGO s
Fün f
Ord nung
jem and
AI DS
speziel le
P H
R ural
R edu
W est
Z if
in adequate
an as
is land
at tra
st ö
st ressed
ro om
as es
zu ständig
iss u
con ta
pro to
sp ür
sp here
Un gleich
In nov
su it
co ll
An ders
Aus arbeitung
inter oper
weit gehend
Ein klang
work ed
sol ve
sein es
Kon ta
Kon zept
Kon vergen
For eign
wen ige
groß es
lau tet
Fre izüg
komm un
Rechts staat
Nach druck
cl imate
hän gen
Verbraucher politik
Zust and
exper t
umfassen d
prep are
ende av
Dire ctor
Per haps
gewä hl
innov ative
assoc iation
immedi ate
hinzu fügen
Mex ik
Untersuch ung
extens ion
extens ive
Verbr ennung
Bestand teil
undertaking s
Dis ziplin
Jo int
Ereig nisse
benach teil
Schre yer
Sav ary
Konvergen z
E ffe
G elder
M c
M and
M ann
M art
O ther
c ro
f uel
h iel
k örper
w s
er arbeitet
ch anging
at isation
ie gen
re tain
ge hoben
to wn
de part
ic ks
em ann
wh atever
isch em
con ce
dies el
dies bezü
ce lon
ts ein
ges tr
la d
Re al
will igen
fe il
ap an
dar unter
mo ving
part ly
ör t
sol ches
act s
dec kt
zw ungen
wirk same
sicher stellen
prote cted
Finanz ierungs
bestimm t
Ha ving
einge leitet
ban anas
gut es
sid es
cal c
ikan en
introdu cing
Bar celon
bereich e
sto ßen
ix ed
ev ident
expect ations
emphas is
Americ a
würd igkeit
sufficient ly
recogn ition
material s
detail s
mensch lichen
betre ffend
Hoff nung
Meer es
penal ty
Rea ktion
intent ions
Rind fleisch
anspr uch
mindes tens
Dänem ark
Barcelon a
4 1
4 7
5 3
A no
B eseitigung
G üter
H äl
L ien
Z ug
i ra
p räsent
s al
at ers
se ts
ol k
id es
ach er
est im
Ver sicher
Ver breitung
einer seits
reg arded
bei getragen
inter ested
ug g
inc ent
Ein schrän
geb oten
oper ational
viel er
being s
rel ativ
wel chem
Zeit plan
lau t
wichtig es
Al ter
Le ute
bestimm ter
Haushalts kontrolle
zü ge
vi our
person ally
wach stum
kle ine
inform iert
Mil it
heb ung
Gegen stand
quo ta
pot ent
respe cted
Handel n
War en
sym bol
Wes tern
ref erring
feed ing
Stre it
koh är
erneuer baren
beha viour
foll owed
horizon tal
dign ity
Freizüg igkeit
Ano ther
Häl fte
Lien emann
9 6
C lear
D ub
D ring
E ur
H IP
M id
M aterial
b io
g in
l eng
p i
er leicht
re chen
re mark
be faßt
om in
ver sicher
ver wiesen
ab ziel
um zusetzen
ha fte
tr end
tr ib
op pose
kt iver
aus einander
Be cause
An griff
wor te
ther lands
Aus maß
Wir d
wo h
ill ustr
muß ten
199 0
cons erv
sol d
ub a
dam als
führ te
fact s
sche fs
produ cing
Arbeit en
stru kt
air ports
Ne therlands
Beit rä
statt ung
Bed ür
tax es
aim ed
Entwicklungs ländern
uni form
ktiv ität
eindeut ige
head ing
Gegen satz
dom in
Mär kte
ühr t
beant worten
humanit ären
breit et
immigr ants
mensch liche
Proz ent
Nieder land
unmittel bar
contrad ict
Zw ischen
mär kte
Todes strafe
highl ighted
ursprüng lichen
cou ple
thor ough
Mexik o
Dub lin
HIP C
F P
K ouch
O sten
O ffen
Z ul
Z oll
c ities
d ent
h om
h ib
t ter
u tern
in zwischen
it ologie
re am
le un
ge ehrte
au st
au ton
ur g
se ction
for es
hr endt
me at
ul ner
vor hin
ad o
Be hrendt
sh ared
reg ionen
Sch ne
Vor teile
Ab änder
lin ary
ass ume
ish ing
mar itime
act ing
geb ill
Entwickl ungen
mer ken
Zusammen halt
cour age
Program men
hap pens
Li ikanen
On ce
Bed ar
finanz iert
Produ ktion
Ant worten
Organ ismen
Kom peten
Kom itologie
global en
reach ing
applic ant
lea der
keep ing
Social ist
Luft verkehr
würd ig
Democr at
ärm sten
coher ent
Dienstleist ungs
constit ute
ordn ungen
proceed ings
ausgezeichne te
Aktionsp lan
Ärz te
Begrün dung
Fer ber
Kouch ner
A O
B en
K yo
L o
L ang
L abour
Z B
c ret
d lichen
e valu
f ill
h re
h oh
i vers
k ü
k an
m lich
p ie
s low
v ulner
z ierung
er neu
in ational
is ol
le y
ein stimm
we ap
zu läss
ic ity
ver we
ver dient
da hin
sen s
hal tet
An derer
An passung
hen ce
Er nen
Vor ausschau
Unter schied
rel ates
wirtschaft lich
richt igen
Zu dem
nat ür
Se cret
zwe ck
Problem atik
ship s
difficult y
gew innen
open ha
ikan ische
hervor ragen
hervor gehoben
Kinder pornograph
leist ungen
Vertre tern
apply ing
offer s
oblig ator
leit ung
gelten den
demonstr ate
repe ated
beant ra
befür worten
satis factory
prepar ing
Belg ien
tar iff
plann ed
argument s
bein haltet
excess ive
Flüchtl ings
Zentral bank
Etikett ierung
Sw itzer
heav y
relative ly
Hil fs
beunru h
interoper ability
strukt ure
Kyo to
Anderer seits
Kinderpornograph ie
Switzer land
4 3
5 5
B il
G lück
I dent
K le
S ah
a be
b a
d ritten
f ats
p hen
w ritten
w aters
er lassen
er hält
un be
ge ist
and el
se bene
ver langen
ab use
ra in
auf en
gr enze
vor an
vor stellen
end um
ad vis
Be wer
ma il
lo b
Sch reiben
go als
Vor rang
br uch
Parlament e
sit es
sicher zustellen
govern ance
finan ced
letz ter
process es
num erous
compet ent
refer s
cor e
subject s
19 7
Gleich stellung
kurz em
entscheiden de
umfassen den
Verbesser ungen
mand ate
wesentlich er
bedau er
bro chen
beschrän kt
genet ically
prof ess
explo itation
gegebenen falls
territor ial
Wür de
Forsch ungs
wettbewerb s
politic ians
Bos n
Klim a
Eur atom
A T
B olk
D ut
D ary
E ZB
F utter
G laub
J apan
b or
e fe
e chte
g st
h ouse
k n
k il
n ut
s ü
s ach
t ä
an nehmbar
it ative
or um
ing d
sch wed
ic ation
ver pflicht
ten e
con vention
sp lit
est ein
ident ity
ident ified
Be tra
Be achtung
ah en
was ser
Aus nah
Europä er
ob li
Vor lage
mo dell
hand s
neh me
stand e
oper ating
pa ßt
deb ating
groß em
dan ach
inn ere
incl usion
Da v
Politik er
tal ks
cor rup
derzeit ige
mut ual
Bar ingd
kom ple
Steuer zahl
maintain ing
eas ily
Eng l
Brit ain
facil ities
verstär ken
tru th
distrib uted
bestät igen
sym pa
Zivil gesellschaft
Element e
apprec iate
Gra efe
österreich ischen
chair man
secut or
restric ted
woh ner
Bolk estein
3 6
A id
B undes
D u
O hne
P ens
V itor
W issens
c ategor
p ir
s light
en gen
er leben
er teilen
an c
it zen
or gt
ent weder
le hnung
ge arbeitet
to uch
au ern
im pose
he t
ut ing
um faßt
res ist
tr ial
Ver such
aus gaben
with draw
ex c
An träge
ik ations
Wir kung
Sch uld
ger äum
Ein richtungen
igh ten
Men ge
new s
ansp rechen
abl ing
Ges icht
Ne tze
hö chst
find ing
Sozial politik
jen er
after noon
genau so
Proje kten
applic able
entscheiden den
versch är
mult inational
kr ieg
Ir ish
play ed
fail ure
determin e
einheit liche
gebie te
Belg ium
ungsan lagen
nation als
grant ing
rig or
terr or
proz esses
Funktion ieren
constitution al
beabsicht igt
Fo od
räum en
Lauf e
Jugoslawi en
Prakt iken
Clear ly
Baringd orf
3 9
B ahn
B lok
D ingen
R in
T S
a ken
b üro
c op
d iction
h le
k enn
l ust
er gibt
th ly
re lie
le hnen
be zeichnet
se kret
ll ar
we ight
ver walt
ab stain
gen ehm
so weit
con ven
Ver b
Ver ring
aus geschlossen
ste igen
com it
com plic
Sch ro
war n
sta ke
Bericht en
kann ten
durch ge
muß te
inst ream
ange hen
gesch ü
gesch rieben
pa ys
deb att
iger ung
As sozi
fu hr
consider ing
Fre e
Al so
industr ies
trans l
Regierung schefs
grö ßt
follow s
suc ceed
sur v
answer s
Pl atz
tem por
Währ end
bekannt lich
General dire
fert igt
excl uded
entwickel ten
eas ier
reser v
correct ly
pts äch
super vision
nachhalt igen
Schl üssel
investig ation
Jahrhunder t
bemü ht
mä cht
Bereit stellung
erlä utern
Ak in
genere ll
compens ation
discip linary
facilit ate
satisf ied
veget able
verlei hen
mill ions
transe uropäischen
Bedür f
phen omen
Glaub würdigkeit
A lt
H anf
N iveau
P räs
S ouverän
g l
k und
l atter
w est
z t
ö der
st ät
ro o
be ob
be findet
ge faßt
sch ö
so ever
ir regular
um ed
auf treten
tr ieben
Ver bot
aus gesetzt
la p
ck x
Be fugnisse
über lassen
ap art
Vor sitz
Ab lehnung
unter streichen
but ter
per mit
over come
Grund sätzen
your self
necess arily
hä fen
Stand ards
ordin ary
ium s
ler nen
sign al
Ha fen
einzel ne
tax pay
zusammen arbeiten
essential ly
pur poses
Wh ile
kurz frist
Binnenmarkt s
Flug häfen
rail ways
cho ose
equ ally
stra frecht
orr up
Außen politik
krä fte
strengthen ing
Beitritts k
interess iert
französ ische
Untersuch ungen
äum en
Sto ffe
explan ation
Alli anz
kürz lich
Kaka ob
Sen kung
Ern ähr
insof ern
publ ished
endor se
Ster ckx
Genehm igung
vulner able
Secret ary
Verring erung
F L
F our
R enten
d ritte
d iox
e b
g lad
p urely
z enten
er fordern
er scheint
un denen
au ber
ke hren
id ing
Ver urs
tz eit
li ance
vor schläge
Par ität
co operate
ungs ausschuß
do llar
00 6
ions fonds
par allel
reg ister
Sch wä
unter brochen
ple as
coun t
Ein er
Parliament s
durch führen
gel ingt
fre ie
into ler
bas ically
Gemein schaften
trag ung
zwe ifel
voll er
bereit gestellt
ho le
hö here
strateg ischen
glau b
Deb atten
star ke
Unternehmen s
concl uded
help ing
Durch führungs
för der
hau ptsäch
freedom s
peace ful
schnell er
pass iert
dist ort
farm ing
Pos itionen
treat ies
ph ys
verstär kt
infl ation
Erfahr ung
Do es
Rand lage
Proz esses
explain ed
beru ht
Gesprä che
mist ake
grundsätz lich
Luxem bourg
fif teen
descri bed
ehemal igen
Hä fen
Mechan ismen
Krank heit
gesicher t
oppos ite
Tai wan
Redu zierung
Präs id
5 00
8 5
A ut
F et
G et
H olz
f are
k re
t went
un necessary
at ische
be le
be wegen
te ten
de ck
ur teilung
zu kommen
ver lassen
ed ter
gen ie
da k
con ventions
us ual
Ver lust
aus ende
ck er
An näher
Th ose
Aus richtung
per cent
teil nehmen
anz un
under take
under stood
what soever
sol ange
fre qu
cour ts
ateg ory
pen ded
Le ft
Gese tze
Gese llschaften
acc idents
för derung
Bes uch
EC B
affe cts
versch le
gewähr t
För der
gegenwärt ige
Überein kommens
indic ated
beant wortet
verhin dert
continu ed
funktion ieren
Leg isl
nachhalt ige
kauf en
function ing
früher en
near ly
observ ations
restrict ions
associ ated
dank bar
constant ly
Brenn er
threaten ed
verletz ungen
Urs achen
prosper ity
openha gen
Blok land
comit ology
Schro edter
5 6
7 5
P läne
S k
T rad
V allel
Y es
a waren
d oppel
e ten
e ight
f am
g ap
o so
re act
re place
der og
be wältigen
as h
ge wiß
te x
die d
de z
ig u
se as
for em
for ese
ab and
no ted
da c
ct ing
ut ung
wer fen
ul ate
li ber
sh o
An k
wo llten
tra ce
ple ase
el ig
ers und
Ge wä
hin weg
work s
schl imm
200 5
hand els
dec entral
geb aut
pla ces
Inter nationalen
fä ll
cour t
isl ang
ine vit
Des wegen
Ne tz
av iation
Mon at
handl ungen
Ger ade
ban ana
back ground
zusammen arbeit
ikan er
prevent ing
Emp loyment
drück en
verantwort ungs
heut ige
beteil igen
determin ed
Bas que
zentral e
bed ro
rapid ly
mot ions
länger ung
verab schieden
Wahr heit
tran sa
garant ieren
Einw anderung
unanim ously
Fahr zeuge
prim ary
firm ly
Alli ance
wit ness
acknow led
Handl ungs
ergän zen
Kü sten
Krä fte
enjo y
counterfe iting
sovereign ty
gelang t
won ach
scr utin
confir med
Bewer ber
Ausnah mere
Vallel ersund
awaren ess
forem ost
A ust
E F
M ut
N eben
P hase
S h
T EN
V ice
W here
b omb
l ös
m es
m essen
p ict
p hase
s il
s inc
t rop
ä hl
in halt
in telle
at al
st äd
ar men
for me
ver ändert
ab sur
il s
pro ved
pro hib
ir y
auf nehmen
Ver trägen
aus end
aus wirken
ex ter
lie fert
ad mit
ff ung
co de
Be griff
ap pointed
lo ck
Pro te
Aus be
bei hilfen
Er haltung
comm od
President s
üs s
ult imately
pres er
Ge w
dr ingen
zie mlich
weil en
amend ing
Entwicklung shilfe
ot ential
Produ ktions
Dar auf
person nel
Hau g
leist ung
erwä hnen
flex ib
request s
test s
Qual itäts
Pal est
nehm ern
sex ual
facil ity
suffer ed
Wel th
Män nern
schätz ung
AR E
elder ly
spezif ischen
Fakt oren
keines wegs
bemü hen
Kontin ent
rech tzeit
Konsequ enzen
Don nerst
Stud ien
russ ischen
juris diction
PH ARE
proto col
Ident ität
Vitor ino
geräum t
anzun ehmen
Vallelersund i
Donnerst ag
3 3
A kt
B ureau
C IT
D ro
G ang
K ir
M ot
O z
S ym
V ize
b ese
b eseit
d än
h ur
l ists
er wiesen
un möglich
st able
ent re
ent standen
ver halten
isch ung
est ic
Ver brechen
In kraft
tz ten
vor bereitet
Be kannt
über aus
ant icip
com pon
com ings
lo c
Pro f
Aus einander
Aus sage
ger ichte
tra ges
Vor teil
Ber uf
her stellung
Ein kommen
bar r
trä ger
best immen
Fin land
lau gh
environment ally
recht lich
bre ach
contin ues
Teil nahme
Ger ichts
stär ken
Sicherheit spolitik
uer ung
atten d
member ship
short comings
ko ordin
sto ß
vol unt
rac ist
Bo den
Co sta
angemessen e
deli ber
histor ic
Män ner
spo ke
Kommun ikation
langfrist ig
La dies
deser ves
neighbour ing
dep th
interven e
züg ig
crop s
hü tung
Kop f
Auft rag
sekret är
Beitrittsk andidaten
Vize präsident
A re
B uch
C it
D uring
b tedly
g ht
j ournal
l if
n iveau
p ap
t ank
en nen
en ded
er ad
er zeug
al ity
st ab
ar ms
ent steht
ent ail
ent licht
ge leis
ge zwungen
sch lage
ou btedly
ab schließend
id o
sp read
all ing
Ver längerung
ag ue
vor liegt
vor mittag
An lage
Th urs
com ed
err or
Er it
cht ungen
Parlament ar
polit isches
Fra gest
Ge lt
Ge wicht
zum al
sit e
min utes
gese llschaften
Auf grund
wel comed
effe ktiv
gest altet
Con sequently
comp liance
beg onnen
Euro dac
öff entlicht
akt uellen
Br ief
Situation en
second ly
sm aller
Man gel
grif fe
feel ing
hon est
restr uct
Österreich s
oft mals
Bestimm ung
jähr igen
maintain ed
rest or
encour aging
uner läßlich
Minder heit
formul iert
gebie t
electr icity
run ning
tele vision
beru hen
erhö ht
betre iben
Wahr ung
Emiss ionen
militär ischen
Haft ung
Pap ier
stärk ere
Dan ish
verteid igen
defic it
Kür ze
konsequ ent
obstac les
proble me
Anders son
Disziplin ar
Dut ch
obli ged
dak is
oso ph
. ,
8 7
D auer
N utz
P rop
W omen
f ted
l imin
p an
s ad
ä ude
ü bt
er ten
er lebt
an träge
be comes
au l
de x
ing er
sch wä
zu gleich
ver wenden
ver öffentlicht
da ily
ber uf
ist ics
um setzen
all ström
Ver fassung
Un regelmäß
ex plic
vor zunehmen
Re present
sh ift
qu is
fa ction
sa ving
Er reichung
ger aten
inter institutional
Ar ten
Ein stellung
pre ced
pre limin
ome tr
under lying
ak ten
just ify
Inter nal
Sta hl
entr y
govern ing
exam ination
large ly
eng ag
Finanz kontrolle
number s
rei ft
jen en
inde pendence
negoti ating
Aspe kten
äußerst er
cent re
gra d
Verhandl ungs
kr imin
care ful
Je der
field s
vol ume
unterschied lich
ton nes
Luft verkehrs
lok aler
Co operation
befür worte
dela ys
prepar ation
Fern er
mot iv
kontroll ieren
tele communications
emiss ion
zä hlen
Unser er
ernsth af
transition al
IC AO
Herkunft s
Vorsitzen den
Erwä g
hop es
Verzöger ung
Unabhäng igkeit
Sign al
Eig ent
issu ed
Milit är
Mid dle
Bedar f
einstimm ig
beantra gt
Souverän ität
Verurs acher
Get re
tex ts
aband on
sinc ere
Ausbe utung
Cit iz
Thurs day
prelimin ary
B l
D R
F as
H ab
K orrup
W ähl
Z imbabwe
a der
b ann
b orn
c lau
e co
f än
f ib
f low
j ido
r assist
ü ge
in fe
be danken
ter e
ab sen
ct ual
ne tz
Ver trages
ul i
Un der
ste uropa
Be trag
ma cro
ant ibiot
sh ar
sh ame
ik as
Aus wahl
Er gän
enn ungsanlagen
Vor stellung
Ge fahren
mar gin
kon stitution
geb ühren
present ation
gleich heit
art ige
val id
Gebie ts
Entschließ ungen
lichkeit en
itä re
look ed
Pr ime
consum ption
star ken
gew ün
zusammen zu
EUR O
carr ying
CO 2
demand ing
entscheiden d
gra v
Beih ilfe
gefähr lichen
Landwirtschaft s
gesellschaft lichen
sus pended
mark ed
neg ativen
Vertrau ens
verl ieren
fern er
gewä hren
except ions
erheb liche
Ru le
Schif f
traffic king
alloc ation
wiederhol t
vernünft ig
zä hlt
adv ance
berecht igt
ersch einen
Fakt or
Kaka o
vorhanden en
begrenz t
interpret ation
begrün det
Bevölkerungs gruppen
Bro k
türk ischen
schritt weise
exclus ively
sorgfält ig
spart ner
definite ly
Kakaob utter
Annäher ung
Citiz ens
clau se
A llow
E VP
E jido
G D
G u
G erecht
K ann
R OM
S ind
T A
T aten
T age
T rag
V an
W ur
W og
f res
i qu
i able
k to
k ür
l at
l esen
m un
z ivil
er ungen
er arbeiten
an be
un ab
ie ller
al arm
be ge
as ide
de als
ur en
und oubtedly
so genannte
ne x
id ung
res sourcen
sen ior
vor n
co hol
qu ar
qu orum
ah me
do k
str i
ac cur
tra vel
unter zeichnet
fr üh
sel be
Ge fü
Ge werk
hin gegen
Au tom
ip her
cons c
ange wand
fol gung
pla ying
important ly
deb ated
wel ches
Fin an
respon ding
los s
sicher gestellt
ves sels
besch ließen
dra fted
stell te
Mar ket
Gen au
geleg te
prom ised
prom ises
nor m
ktor en
zweit ens
bestehen de
schwer en
gefähr lich
Gemeinschafts initiative
Gip felt
Mal m
Ur teil
fair ly
minister s
clar ity
clar ification
Gipfel s
Staats an
struktur en
mechan ism
Belg ian
trotz dem
kontroll iert
genet isch
schle cht
Christ demokraten
qualifiz ierte
Ku hne
niedr ig
Sa al
keines falls
Garant ien
Terr itor
acknow ledge
hy po
wid men
aust ausch
urg ently
profess ional
phenomen on
hauptsäch lich
rechtzeit ig
Bekannt lich
Fragest unde
absen ce
Wog au
anbe langt
4 9
J on
M ich
O st
O ver
U E
a fra
b lack
d um
e der
k orr
r aums
z weiter
Ä uß
ch mal
ent fern
be k
den jenigen
se eing
ic ed
ver tritt
ter in
ten d
sp ite
tr ied
In fl
aus stattung
ex pl
lie ber
Par is
über prüfen
scha ffung
je op
tra in
Ar men
her gestellt
unter scheiden
weit ung
inc ident
oun ded
gel ingen
Unter nehmer
zw angs
Ko operations
rel ate
off ices
gest altung
Se ktors
comp ared
pen se
Min uten
organ isms
Ste uern
bre ch
klär en
Gen fer
conf ident
respect s
betr ieben
regional er
represent ation
defin iert
einzel staatlichen
finanz ieren
appe ared
post s
einzu führen
kind s
char ta
chan nel
short ly
Form ulierung
Fä h
With out
enter ed
ator en
Gesetz geb
wider spie
signific ance
verb undenen
viol ation
fert igen
Dokument e
active ly
Techn ologie
modern isation
reser ve
genuine ly
prim arily
ökonom ischen
Subsidiarität sprinzip
ökolog ischen
Garant ie
Luxem burg
pun ish
bureau cr
Finn land
erwar tet
sole ly
equip ment
conserv ation
Offen heit
fores try
weap ons
twent y
laugh ter
explic it
afra id
0 20
B N
B ill
D ad
E ch
F Y
G UE
J uli
S äu
T ests
f ir
h ern
j un
p ush
z ard
ü cke
on ial
an lagen
al d
re volution
ar g
ar beits
am es
zu vor
ic ken
ver letzt
ol an
ab gesch
um än
auf fordern
des tru
not ice
In sofern
dem ograph
ident ify
com plement
wor thy
je ctive
str on
Aus weitung
Sch icks
her it
fr u
Ein heit
Ein stimm
Ge ist
hin dert
Reg ime
che cks
cons isten
De tail
ak te
vie wed
So llte
fl ä
Inter vention
fä l
pa ar
Sta ates
Bürger innen
Rechts rahmen
Da ß
Dem okraten
af ford
sc ore
Fl achs
liegen den
lang sam
He ad
akt ive
Schutz es
Am ts
allow s
road s
lead s
lauf enden
Entwicklungs zusammenarbeit
Wort meld
weis ung
Viel zahl
gefähr det
gemeinschaft liche
tatsäch lichen
grün den
coordin ated
rad ical
rad io
top ic
krit erien
Bo th
sec ret
Last en
valu able
verur teilen
benöt igt
school s
condemn ed
Verhalten s
appoint ment
Währungs union
behaup ten
don ors
genü gend
Wohl stand
gebe ten
verz err
Sco tland
EL DR
Kohäs ion
beauf trag
ampag ne
Zif fer
Schne ll
pie ce
sympa thy
instream ing
bedro ht
Gerecht igkeit
dok ument
Finan cial
Dad urch
FY ROM
0 10
9 8
C res
E v
F isher
H atz
L u
L angen
P SE
R espe
T a
T ank
T onnen
d ur
e chten
i dakis
r ent
s laughter
t ie
er teilt
an wenden
st ag
ent täu
be wiesen
be zahlen
ge he
ll es
sch ul
im per
ou red
ver ank
ver teilt
em m
gen der
ir re
wer b
vor gehen
vor anzu
ad vant
ess ions
St immen
je gliche
bes orgt
är kt
nach mittag
durch schnitt
ieren der
wä hlen
gel ung
ange wendet
zw ingen
schließ e
produ ctive
deut schen
program ms
wel fare
gest atten
fest zustellen
besch leun
af ft
klär t
hö re
bestimm ungen
Haushalts linie
extre m
zurück zuführen
amb igu
Verbraucher schutz
exist iert
Ansicht en
demokrat isch
Wer den
bil det
versch mutzung
gefähr liche
län gst
schre it
jeden falls
General sekretär
poll uter
Sü den
Geschäfts verkehr
Industr y
him self
top ical
dom estic
exten ding
Americ ans
rest ore
derart igen
würd igen
brit ische
itz t
Menschenrechts verletzungen
gebie ten
claim s
profit ieren
seek ers
Geb äude
Mol do
Chancen gleichheit
parlamentar ischen
Klar heit
decl ared
Besonder s
opt ions
Stu die
Journal isten
Rechtsstaat lichkeit
endeav our
Beiträ ge
auton om
corrup tion
Engl ish
categor ies
Präsid ium
elig ible
Aust ausch
Welth andels
entre pr
volunt ary
preced ent
Getre ide
Hatz idakis
Respe kt
advant ages
B itte
C orr
E P
F assung
K urs
L ond
N och
N acht
W erk
W ohn
d rop
i th
k ommission
n ör
r ies
ä he
er weisen
er setzt
in ens
in folge
un eingeschränkt
ie ties
the or
al cohol
le id
be ur
ge treten
de cken
zu zu
ab schied
so bald
ha zard
Ver wirklich
Ver abschied
aus gerichtet
su che
sen ding
sh aus
We it
En d
Aus ge
reg re
Sch ott
Er laß
wo hn
Ab häng
unter breiten
el on
pl us
ass es
Reg ard
cr ises
Kon vention
dam aging
agre es
program men
unkt ions
wirk liche
Über gang
alt ies
gehen de
Te ile
fest legen
sozial er
spec ies
sc re
hol en
fahr t
thank ing
zeich en
statt gefunden
strateg ies
Mon tene
acc ident
Haushalts jahr
vious ly
Li ke
zurück zu
Dar in
einzu setzen
proper ty
sur round
sto cks
mäß igen
mult ilater
Bel der
Ur spr
exp and
miss ible
sag ten
Kön nen
Ju ly
unabhäng igen
bear ing
refle cted
Absicht en
remo ved
incorpor ate
pursu e
pursu ant
Vorgehen sweise
spee ches
Drit tel
schle chter
unver züglich
schätz en
behör den
Bö ge
kompliz iert
Com p
Auto s
Gest atten
Alters versorgung
Metho de
erwähn ten
nieder länd
mittler en
mak ro
Akte ure
imag ine
äst inens
Hindern isse
coll abor
Steuerzahl er
het or
Assozi ierungs
restruct uring
Unregelmäß igkeiten
Represent ative
Malm ström
korr ig
zwangs läufig
Fisher ies
Verwirklich ung
Verabschied ung
) ;
A P
B u
B owe
E MU
G uter
K airo
K MU
m ick
o ber
o zone
p fl
w of
er hoben
in fr
al ition
re ds
ein zur
se min
sch ar
ver w
ver gleich
he il
des wegen
me e
We chsel
wor st
fe wer
St raft
str ik
durch zusetzen
sub sequently
Ko operation
pa ying
Zusammen setzung
zeit raum
Aussch üsse
ient s
Fre ude
Besch rän
recht fertigen
beg ünst
Des pite
contro vers
nor men
regul ated
regul atory
Durch setzung
Energ y
Sp ann
abhäng ig
dou b
einz ig
deter ior
Ratspräsident en
Ob jective
Post dienste
Menschenrechts konvention
ethn ischen
gewä hlt
Krieg s
cred it
inspe ctions
author ised
Mittelme err
Mac Cor
explan atory
ähn lich
friend ly
Jahrhunder ts
autom atisch
ausführ lich
deser ve
Rats vor
Bild ungs
geograph ical
sprü che
freu en
launch ed
spolit ischen
IS A
compar ison
Befür chtungen
vorange gangenen
Anmerk ungen
Innov ation
suit able
anspruch s
feeding stuffs
büro krat
verwalt ung
Montene gro
MacCor mick
7 00
B ab
H ome
L ob
M ost
N ein
N one
N ahen
O cto
R ese
R aums
S M
S ex
S up
T em
T AC
W U
W ass
W äl
Z war
b udgets
b islang
c kel
e ye
g igen
l iter
l iste
in i
it ive
ar ies
be handlung
ge denkt
and e
de pl
de ep
sch edu
for ests
ab schließen
ber ichten
ere i
Europ ar
res umed
Ver ordnungen
ex pens
lie fern
We ll
An wesen
com pl
wor ding
En ts
Sch w
enn ess
dar gelegt
ob liegt
dis appear
200 4
anz ig
sit zung
Kon sens
present ing
For st
econom ically
zie he
Fre ise
cont am
Al ternative
real istisch
zug ute
Sicher ung
sc ience
Finanz iellen
Abstimm ungs
mil ch
power ful
Vol kes
guarante eing
UN O
energ ies
anzu wenden
gra de
cover ing
fortun ate
Chin ese
enthalten en
dist in
equ ival
Sü do
fünf zehn
jähr ige
indic ation
hard ly
Beteil igten
Zuständ igkeiten
Straß e
Prü f
unanim ity
tief st
affect ing
adv ice
div ided
höch ste
endgült igen
prison ers
Bereit schaft
worr ying
Metho den
Every one
griech ischen
Ter min
Verf asser
Freedom s
gebill igt
beunruh igt
Palest in
Oz on
Inkraft treten
Ech elon
Lond on
theor et
Abhäng igkeit
pfl anz
Octo ber
Rese arch
5 2
8 1
B is
B la
B io
C airo
G reat
I K
J ed
L og
N AF
P at
P ake
R ap
T enden
d ig
f ounded
k ul
k ern
m atch
n ischen
n dez
r ul
s wi
t ten
t ang
er sta
er kannt
er freut
th r
re move
and en
wi es
ig end
zu tage
zu tiefst
for man
ver handlungen
ter t
sp lan
op enness
Ver teilung
sen ken
vor sieht
Pro secutor
Mit wirkung
str ichen
inter im
her zustellen
Ab schaffung
Gr ö
ill s
per mitted
per ipher
tre iben
kon tin
setz ungs
min ute
fre mden
geb il
Auf sicht
mer it
wirk samen
Fre ih
Con stitution
exam ined
eng age
sc andal
ausge geben
refer endum
akt iven
offen en
look s
kur r
Sozial demokratischen
amb ition
Em bar
eig entlichen
einzu beziehen
bereich en
cent res
mäß igkeit
Wirtschafts wachstum
Gemeinschafts recht
Amsterdam er
Wieder herstellung
Flug zeuge
previous ly
cho sen
bisher igen
rad ik
hear ing
Entschließungs anträge
Ob viously
lok ale
erinn ere
bedau ern
Augen blick
asse ts
flo od
bi ometr
vernünft ige
jahr es
proport ional
reag iert
sper iode
kulture lle
citizen ship
Verteidigung spolitik
appoint ments
Sach verständ
stor ms
Flüchtl ingen
stren ge
erlä uter
stärk sten
span ischen
erwähn te
ceil ing
ceil ings
gradu ally
verring ern
Konsult ation
Mobil ität
angekünd igt
Betrieb s
feil er
FP Ö
debatt ieren
trace ability
scrutin y
pict ure
Erit rea
Autom obil
entfern t
stron ger
herit age
Einstimm igkeit
Ev ans
entrepr ene
Corr ie
surround ing
) ]
A G
F ach
G ut
M igr
O kto
P a
S C
T reffen
e li
f ixed
h ous
k einem
p ic
s man
z iti
in tra
an streben
un it
re gen
st ick
le z
as pe
ein führen
ein geräumt
we gung
im age
zu sagen
for est
ver deut
ver trag
ver zeichnen
ab gesehen
ber g
us ually
ier huber
ag anda
la den
la stet
ex pense
Re icht
ben s
An gleich
com plain
reg ierungs
Sch ierhuber
ger icht
inter nen
bes itzt
weit e
weit aus
Ent last
beit ritts
dis p
dis par
per su
more over
nah m
erst ens
inst all
cr imes
stand ardis
min ded
Menschen rechten
sche idet
Zeit en
rat ifiz
wieder aufgenommen
Im p
conf usion
hol ds
ohne hin
ho her
inner en
15 2
kur ze
cre ates
period s
gefähr den
wahr t
schwier ige
Invest itions
Tats achen
Isra eli
Konfli kte
Nicht regierungs
talk ed
Pre ise
Tät igkeiten
attem pts
constit u
beginn t
paragraph s
efficient ly
intens ive
strict ly
Schulden er
Emiss ions
militär ische
Führ ung
Terr or
appar ently
south ern
höher en
Leist ungen
einf ache
embar go
stabil isation
writ ing
Betrugs bekämpfung
Sitz ungen
approx imately
Ins besondere
bor ne
complic ated
tempor ary
stät igkeit
transa ctions
absur d
Gipfelt reffen
Schicks al
Moldo va
Guter res
Okto ber
ziti ere
8 00
A tom
B B
E valu
F ar
P la
S of
S imbabwe
W IP
W WU
i ated
j uni
l end
o ting
Ö k
ä cht
ü st
en for
ch ain
on i
is ierte
at tain
it als
re ve
st ance
ro at
se ktors
for um
ab geben
ab gegeben
ber ührt
he ik
sp flicht
ul f
ul ating
In ner
os ystem
über sch
An hör
Er inner
Er schein
Er richtung
ac ted
weit en
mo ved
Au ge
dis krimin
pt ions
min im
dire kte
dire cted
geb lieben
zw anzig
produ ktion
best ände
Arbeit nehmern
human itäre
rat ing
gest ärkt
art icle
bring s
legisl ativen
Da von
Nach frage
voll ständige
sc en
Her stellung
Hin sichtlich
klar stellen
refer ences
sect ions
sor ry
contrib uted
open ed
Bes itz
fäh igen
bu y
event ually
aufge worfen
entscheiden der
wenig sten
Sub ventionen
kr ank
contain ing
angenommen en
harmon ised
frei heiten
turn ing
Spra ch
Kap itel
Energie träger
beteil igten
Plen ar
satis faction
verstär kte
bedau ere
verschieden er
volle m
fisher men
genet ic
wide ly
prof its
eingere ichten
Plan ung
dead line
terr ible
spezif ische
SP AR
schrift lich
fif th
zer o
verurs acht
obser ved
nahe zu
vig il
prospe cts
Kategor ie
geeigne te
beiträ gt
Ele ktr
hiel t
Einschrän kung
lob by
schwed ischen
relie f
durchge führten
geschü tzt
reserv ations
irregular ities
Parlamentar ier
angewand t
BN FL
hazard ous
doub ts
WIP O
5 4
A tt
C ould
T C
c ere
d den
f ate
g ä
g as
h ing
m utz
u chen
en force
in qu
an ke
ar ten
ar gu
be ziehungen
ge teilt
ge fragt
de tr
im or
zu gestimmt
ver ordnung
ber n
iss es
ut most
con fu
ir able
vor getragen
ck heer
Re cycling
ad verse
Be wuß
über mitteln
über prüft
ben ch
An wend
fa ith
Mit verbr
str ing
man che
man chmal
Aus gleich
Er fordern
Er mittl
able hnen
Fr isten
Ein kommens
hin derung
durch setzen
mar king
tim ber
Um gang
gesch wind
Gemein den
Art icles
As s
where as
regard less
pen alties
less ons
wieder hole
voll ziehen
Verein igte
Kin des
whole hear
erk ennt
Verantwort lichen
negoti ation
negoti ate
priv atisation
staat licher
Ergeb nissen
Minister rat
lack ing
applic ations
Rück verfolg
Gesetz es
gemeinsam es
Schul milch
miss ing
Text es
Zun ahme
remain ing
Dialog s
Ru br
constit utes
jeweil s
Fle isch
wogen heit
Königreich s
vereinbar t
Go eb
intens iv
Kur z
autom atically
oss ier
wält igung
manufactur er
combin ed
harm ful
occur red
schwerwiegen de
einf achen
Unions bürger
monopol y
monopol ies
hil f
reiter ate
drän gt
Perspe ktive
envis aged
Schien e
Rent ner
leng th
erleicht ern
Niederland en
Futter mittel
Betra cht
Korrup tion
Jon ckheer
bureaucr atic
Ausge wogenheit
Schott land
Regard ing
Nichtregierungs organisationen
juni or
Rückverfolg barkeit
Goeb bels
0 15
4 00
5 7
A ir
C ha
D r
D iox
G iven
O SPAR
R umän
W ille
h our
m as
p al
p one
t schaften
u ung
y ch
z a
er weit
er lau
an halten
re formen
ar ise
ar med
le ite
be weisen
ein treten
te am
de pendent
om s
ing u
we aken
sch er
ver hält
il ot
he ber
pro ud
us sen
auf gaben
Ver schie
su dden
vor nehmen
Re fer
co vers
sh ares
An geb
An hang
com position
str ugg
Aus gang
Sch mid
leg te
ac compan
tra ding
Vor gän
bes itzen
unter breitet
Ent schäd
Fra hm
sel ten
ass ungs
you th
hin dern
ide olog
schl immer
ip fel
ange hören
Council s
dr ückt
Kon serv
hier bei
bo ost
sure ly
Aussch üssen
Se hr
trag ic
Rahmen bedingungen
put s
Umwelt ausschuß
red und
zug än
Or ient
sc rapie
Hin weise
soc ieties
ho od
proced ural
Kr anken
statt findet
Verbrauch ern
gere gelt
Am t
erforder liche
bel g
comple ted
post pone
sum mer
demokrat ischer
Hau p
UN M
Dienst stellen
prä gt
trad itions
organis ierten
mult ination
show ing
item s
Schul en
grün det
emphas ised
enor men
Natur a
Fischerei politik
gre en
tradition ellen
miß brauch
refle cts
dee ply
Män gel
contra cts
Go od
log ical
langfrist ige
ungsan träge
obtain ed
declar ations
höch sten
dead lines
Argument e
caus ing
ökonom ische
mä h
vertre ter
Versch mutzung
appar ent
Mor oc
überw achen
Lat in
Exper ten
Defiz ite
wünsch enswert
indire ct
hund reds
bekräft igt
beizu tragen
Kenn zeichnung
rigor ous
Bedürf nisse
taxpay ers
intelle ctual
Prote ction
fib re
fres h
lat est
Cres po
erweit ern
accompan ied
multination als
0 1
9 7
C uba
D el
F unktions
G on
I ts
J ör
T ime
V e
W andel
W allström
a des
a ther
b all
c ul
g ipfel
m ant
u ier
w om
w atch
z ig
in ken
th alten
un ions
un employed
at lant
or ded
re ly
re isen
re liable
der iv
de utet
sch einen
ver ehrten
ver stoßen
iss ion
des per
Ver hütung
mit zu
aus üben
li ft
vor schlägt
end s
sh op
wie weit
fa ß
fe as
fe ature
par tei
man geln
wo durch
ac commod
Vor der
Ab bau
Ab fällen
weit em
ure d
Ent schlossen
vo ice
nach läss
Ge fän
kön ne
Gr enze
dis placed
ide al
erst es
under mine
some one
fl ights
system atisch
lä st
tt ung
rat ified
Gemeinschaft spolitik
gener ation
gener ate
accept ing
programm ing
Stand punkte
ss ern
kur zen
agen cies
amb od
institution elle
Beschäft igten
ziel t
result ing
priv ile
promo ted
cult iv
Zahl ungen
express ly
char ges
Verwalt ungen
ko dex
Rück kehr
Vertre tung
Ihr es
Ur heber
deta ill
subsid y
sus pend
Strateg ien
Kap az
verfü g
Miß verständ
significant ly
befür wortet
mechan ismen
prakt ische
meth o
bedau re
gerecht fertigt
bro ader
persön lichen
Dritt staaten
beglück wünsche
Leg itim
bevor stehenden
Protokoll s
Ang st
transfer s
gering er
dut ies
Wirk samkeit
Vermittl ungsverfahren
bill igen
qualifiz ierter
NG L
ähn liche
fes ten
len ken
depend s
weak ness
deliver ed
unzu reichend
Lärm be
katastrop hen
ari at
moder nen
Wicht igkeit
grenzüberschreiten den
dynam ic
Beste uerung
italien ischen
Beob ach
körper schaften
Kle in
cop y
conven ience
roo ts
inevit ably
lös ung
barr iers
konstitution elle
beauftrag ten
equival ent
kontin uier
Schuldener laß
detr iment
Bewuß tsein
Gon z
Jör g
Gefän g
9 3
D ort
G el
H al
M ess
O TC
P ie
R ad
S ten
S pr
b attle
c ofin
d aten
e ll
i bel
j ungen
k ultur
m üsse
n ed
n ungs
o te
p has
s ize
ö deral
er mut
ch a
ch ap
on y
on going
es ten
un eingeschrän
un annehmbar
at ures
re ck
re ven
st ieg
ar en
be denken
be fug
be zeichnen
ge plan
ge klärt
to ug
ein halten
ein beziehen
wi ld
se con
zu erst
ic kt
ra ising
um ge
us ers
all mäh
Ver stär
Un i
su gar
ges p
la v
ex ec
Re ad
ad mitted
än en
will kommen
sich ere
An gehör
ungs maßnahmen
igen ce
man ip
man gel
ac a
heit lich
wa ge
mo sp
mo ther
ige m
ple d
sta ats
been det
ange wiesen
wenn gleich
Comm on
Kon zentr
ak es
europä isches
prov ider
bo ok
Der iv
Der zeit
trä glich
deut liche
besonder er
wel comes
where by
kl au
cer t
gehen den
ater ie
see ks
belie ves
air port
Gemeinschaft sebene
Nach dem
voll ständigen
gener ated
Gen uß
Her an
ho sp
Kr ie
offen ces
invest ors
sor gung
further more
favour able
Lebens qualität
streng th
wün scht
sur ve
Nor den
event uell
Ex istenz
success fully
Verhandl ung
regel mäßig
exce eded
Arbeitsp l
monitor ed
civil ian
gemeinsam er
dist ingu
refu se
stra ight
neg ativ
Lebensmittel n
fert ig
tour ismus
jähr lichen
consequ ence
suggest ion
except ional
cred ible
scient ists
Kl amt
198 9
Gerichtshof s
Pflicht en
garant iert
Gesprä chen
ush k
Diskrimin ierungen
Ku ckel
Hoff nungen
friend s
verbind lich
schwerwiegen den
wahl en
konstru ktiven
behaup tet
Finn ish
Verzöger ungen
Roman o
gefü hl
Hoch geschwind
Büro krat
ps ych
Berat ungen
grenzüberschreiten de
decl are
drän gen
Gesam theit
meant ime
proje kte
Heimat land
Atlant ic
mob ility
Flor enz
expert ise
natür lichen
percent age
geleis tete
saving s
Wähl er
Gebiets körperschaften
unab ding
Infl ation
Welthandels organisation
swi ft
Rumän ien
Verschie bung
UNM IK
Entschlossen heit
Gonz lez
Verstär kung
C olog
H under
K öl
M ult
M assen
P rem
T isch
W ün
f roh
h of
h orr
i dem
k orn
n ament
r ichtet
s mo
s ight
u ll
z iert
z io
er setzen
in et
ch ines
th aft
an cing
an gesehen
is ra
un fair
un certainty
st ein
st rä
st olz
ro ute
be came
be wirtschaftung
ge dacht
ver teilung
ter ing
ra ises
so zusagen
wir ft
ke en
um zu
Un sicherheit
with drawn
sen den
os ition
la y
la ßt
än ge
Be zeichnung
ant isemit
com pla
llen n
bei behalten
Sch engen
fü hlen
Ber ger
unter strichen
wa gen
beit reten
Ein schätzung
ass ent
pre jud
per forman
cil iation
Ja ck
Kon vent
ak istan
just if
Menschen recht
fl üss
Grund freiheiten
mer kt
oc curr
Con ciliation
far ms
zwe if
piel t
ele ction
Rechts sicherheit
ausge führt
ho st
Recht sprech
betr iebe
bestimm ung
strateg ische
Br anche
käm pft
agen cy
gew onnen
Sozial demokraten
regul ate
negoti ated
Ant isemit
health y
Qu ite
reco very
Demokrat ischen
Ex port
Ex ternal
Gener ationen
lea ving
heiß en
edu c
einz iges
cut s
grün dlich
test ing
sever e
fort setzen
dring lich
stre am
krit ischen
ph il
Konfli kten
bl ind
strengthen ed
dienst leistungen
Quest ions
persön liche
getroffen en
Veränder ung
wirksam er
Spe cial
Eben en
angeb lich
wissenschaft liche
Friedens prozeß
Vermittl ung
unanim ous
quant ity
Inst anz
Alban ian
Führ ungs
Mol dau
sett lement
bureau c
haus halt
advoc ate
präz ise
destro yed
offiz iell
stip ulated
Mü ll
migr ation
Gewähr leistung
gewiss er
mob ile
erweiter t
ofin anz
vorrang ig
appell iere
beeinträcht igt
Städ te
spür en
Director ate
gewähl ten
Effe ktivität
Mand at
diesel ben
diesbezü glichen
ado x
Kompeten z
Ernen nung
Du ff
Parität ischen
ernsthaf te
Erwäg ungen
sincere ly
consisten cy
Head s
scre en
Spann ungen
None theless
Freise tzung
Angleich ung
Erinner ung
wholehear tedly
Rubr ik
zugän glich
Uni versal
klau sel
Kuckel korn
Colog ne
Köl n
isra el
5 1
6 00
B on
C ulture
E hre
I V
L ank
O per
P olit
P otential
P akistan
S omm
S ri
S urely
b iß
c ity
f em
g g
j our
o sen
r hetor
s ought
z icht
ü bung
ch tern
th ilfe
un fortunate
it a
al ien
re it
re cy
re bt
re ported
der selben
be völker
be wirken
ein seit
ig ern
zu zustimmen
ver ändern
ver mitteln
ed s
ab uses
il en
hr t
con jun
Ver bind
Ver kauf
ges to
ges pielt
ste el
Be wirtschaftung
über mittelt
über winden
ze go
An pass
fa cto
Mr d
pol og
St ur
out set
Mit ro
sa w
Er st
unter suchen
Parlament en
ken ne
dis agree
pre t
pre ise
per iode
gro wn
iz in
ück en
bet one
fol glich
dire kten
Rat ifizierung
just ification
Grund lagen
Grund prinzip
problem atisch
pa ir
zie le
emp fo
Über tragung
ster ben
Min en
compe te
spec ified
beg un
Her zego
hä re
Arbeits weise
Mon day
defin ing
Sozial isten
Gesch le
food stuffs
vi able
Produ zenten
sum s
global e
express ing
Auff assungen
aufge treten
größ ter
gefähr licher
Stellung nahmen
Flug ha
congratul ations
pass ing
four th
Kultur en
Öff nung
Kommissions vorschlag
Ju den
krit isch
verantwort ung
gesetz ten
beant ragen
fail ing
02 7
MO X
sk ills
Fern seh
buil dings
Rand zio
bi olog
langfrist igen
observ ation
Aktionsp läne
bein halten
ausgewogen e
Eing reif
Bau ern
Stabil isierungs
österreich ische
Fo llow
verteid igt
don or
Wicht ig
parlamentar ische
attach ed
Nu clear
Tun is
Mitentscheid ung
nütz lich
münd lichen
Ide en
angest reb
korre kt
verm ieden
conta ct
Dring lichkeit
Zul assung
komple x
Ernähr ungs
forese e
sho ck
beseit igen
Ergän zung
arg ue
destru ction
controvers ial
SM Es
Wäl der
Freih andels
Pla th
Hochgeschwind igkeits
Bürokrat ie
Prem ier
Jack son
bureauc racy
0 7
0 12
0 25
6 5
9 4
C eder
E PP
K red
L icht
N ähe
T ieren
a qu
b aus
f an
f at
f oss
i ary
m g
m ing
r isik
s cept
v in
ü t
er a
er stellt
in king
in akzeptabel
th al
th res
an o
is tern
re mit
der jenigen
be low
be weist
te ach
au ta
de le
se lt
sch ub
sch iö
zu ver
zu ständige
zu künftigen
zu stande
for got
ic ated
ver knü
ab geordne
he ft
um gehen
um gehend
auf bauen
aus wärt
ex ports
ben utzt
ah rel
ungs prozeß
St unde
Aus bau
Sch ad
Er fü
dar legen
wo od
war ning
inter institutionellen
pr an
pr ime
her steller
unter liegen
weit reichen
pres ident
dis semin
mar ine
Es sen
dr ug
lic ate
Ma at
min es
Kon text
hier zu
system atic
For um
deb ts
gu ter
Zu ge
marke ting
Se ix
mal e
great ly
Fre ie
Con serv
techn ischer
komm er
Kommiss are
princ ip
Ste igerung
eng l
gener ations
klär ung
ausge hend
accept ance
stat ten
rec all
Arbeits losen
rei ze
plan ung
trans national
prom ise
wish ed
redu zieren
Haushalts ausschuß
contro lled
15 0
zurück kommen
aff irm
cor re
help ed
resour ce
Produ kten
genau er
Ant ibiot
Markt wirtschaft
einzu gehen
Betr ü
Sol ange
rele ased
Wer ten
Jahres bericht
Zwe i
lea ves
mäß ige
wenig stens
weg ungen
congratul ating
tatsäch liche
Beschäftigung spolitik
org ungs
Grundrechte charta
Invest ment
Lin ken
Mär kten
derart iger
bank s
gesetz lichen
address ing
Nahrungsmittel n
refuge e
prepar atory
Schlußfolger ung
mot or
Kommissionsmitglie der
schuld ig
Beschl üssen
effizient er
Kommun ikations
Nord ic
passen gers
gewalt ige
veran laßt
Gest altung
Schwer punkt
exem ption
Handl ungen
Roman ia
wid met
North ern
habit ats
ott i
diplom atic
postpon ement
deleg ates
gewöhn lich
münd liche
warm ly
zerstör t
Grem ium
Versicher ungs
dahin gehend
repeated ly
Sah ara
multinational en
phys ical
genie ßen
Kir k
Disziplinar verfahren
bege g
flä chen
wof ür
schedu led
Pake t
dig ital
beitritts willigen
dispar ities
Evalu ierung
string ent
Heran führungs
Antisemit ismus
phil osoph
Somm er
biß chen
conjun ction
Mitro vic
empfo hlen
Ceder schiö
auta ire
Seix as
Cederschiö ld
A ug
D if
F akten
H ence
K unden
L am
L isten
N az
a ded
f is
f ur
f ere
h am
i rak
v ina
w anderung
y le
ä ss
er ium
er faßt
er freu
un equ
re iz
ion age
st ände
ro hung
be trägt
be kannten
ein nehmen
wi den
se ll
sch were
sch äden
ver brauch
ver fahrens
ver heer
il ty
he ugen
con fer
con fin
pro vo
ere quis
um b
us er
des irable
Ver heugen
not ably
sen sib
vor haben
Re ise
Be im
Be troffen
Be wältigung
über legen
über greifen
The ir
iv oc
An schluß
An reize
do or
fe der
out standing
sa ke
Aus sagen
wo zu
inter ne
pr erequis
Fr ass
Fr üh
durch gesetzt
erst mals
kon front
ystem e
teil ungen
sicht ig
Um feld
Mitgliedsta ates
min or
lear ning
fl ussen
land wirtschaftlichen
Zusammen halts
gleich ermaßen
As ia
gu ilty
qual it
wes tern
Mittel ausstattung
Le hren
Dem onstr
Them as
Finanz mittel
öl kern
fahr zeuge
Mon opol
gere chte
To tal
Best re
Information stechn
Man agement
Tur mes
ehr ter
char ge
uni que
Sub st
offer ed
turn ed
tour ist
resul ted
ras chen
krit isiert
consequ ently
sex uellen
rein force
Post dienst
befür chten
bedeuten de
interess ant
konzentr iert
Fern sehen
histor ical
inspe ctors
max im
Ho he
immen se
Nie mand
nachhalt ig
investig ations
Kl är
Ged anke
Jugend lichen
beein flussen
Iraq i
Di kt
apprec iation
associ ations
Wissenschaft ler
endgült ige
geeig net
Erwä gung
Umst ände
rech nen
willing ness
enh ance
prior it
Mitglieds länder
territor ies
reib ungs
experien ced
Konsequ enz
vig or
Ober grenze
respekt ieren
respekt iert
Tele kommun
hund red
erör tert
sha pe
Konta kt
incent ives
bio technology
Bil anz
bedauer lich
Pens ionsfonds
Bewerber ländern
städ t
Dro gen
margin al
Gefü hl
fremden feind
Sten zel
Follow ing
Premier minister
Kirk hope
Mitrovic a
Aug ust
Frass oni
7 1
8 4
A ction
B ul
C er
I ll
L ie
M organ
M erk
P oms
R est
R oh
S er
T imor
V og
c atastrop
f tet
j k
k enntnis
r und
r ats
s l
s ah
v ine
ü gen
en ger
er nen
er lauben
ch sten
ch net
on ing
an dern
at iver
ie bene
re ception
ar io
ar ising
ro lle
le ute
we chsel
sch ön
ver boten
gen huber
ct ives
us i
sp hase
tr aum
des to
ag no
aus länd
la sten
ex e
ste uern
ma instreaming
je glich
mö ge
bei der
war s
inter governmental
unter sucht
mo d
nach denken
fen ce
Ein es
Ge brauch
dis put
kon z
schen ken
ak is
Unter lagen
zw öl
lä uf
iger t
har ma
Zu cker
effe ktiver
sicher en
schie ben
organ ise
kehr t
geste hen
Ziel setzung
Them atik
eng aged
Finanz märkte
Afr ikas
respect ing
Arbeits gruppe
eh mend
Mon tag
zun ehmend
commun autaire
einge hend
Em pf
lan gem
colle ction
transport ation
Fort setzung
prevent ed
pop ulations
Flug zeug
amt ierenden
particip ating
cho ices
sus pic
Pos it
clar ified
Entschließungs entwurf
zusätz lich
Außen minister
pers ist
gesetz gebung
enor me
prakt ischen
according ly
ugos law
foc used
unabhäng ige
erheb lichen
angesprochen en
prepar ations
amer ikanische
advan ced
sent ence
legitim acy
interpre ted
Beam te
bür gern
Asyl bewer
aner kennen
kauf t
effizient e
umwelt freund
elektron ische
Vermittl ungsausschuß
Gesprä ch
infra structures
geäuß erten
campaign s
Vorsitzen de
listen ed
erneuer barer
Verletz ungen
sett le
Sw iss
Privat isierung
ausreichen de
Mechan ismus
experien ces
Lat ein
umfang reiche
Sc rapie
Hung er
gradu al
schau en
rev ised
north ern
relig ious
Gewähr ung
ED F
Vier tens
eröff net
Flor a
kleiner en
Städ ten
town s
sold iers
Abänder ungsanträge
nut rit
verpflicht en
slight ly
Fet te
bele bung
derog ations
Ausnahmere gelung
CIT ES
Prof ess
GD P
accur ate
Staatsan wal
Äuß erungen
fir ms
fru it
enttäu scht
infr inge
Sex tourismus
Ents orgung
Tenden z
tang ible
gebil det
Constitution al
erläuter t
Anhör ung
Vorder grund
Arbeitspl atz
llenn ium
performan ce
Erfü llung
fis cal
unequ ivoc
Bestre ben
Vog genhuber
- -
0 8
B ör
C as
C openhagen
E AG
K or
Q ue
R ob
S uche
T ausende
V ölkern
d rit
e yes
f on
g al
m ischung
p us
s cri
s auber
t te
t ier
t wel
v ague
ö te
en kt
in habit
on sten
an teil
an sehen
an forderungen
an cies
the t
al ban
st ammen
ro us
le b
le ase
be wahren
as pir
ge zahlt
ein bringen
ein schlä
ein gerichtet
ein räumen
de v
de fe
ver dienen
ver wirklichen
ver kaufen
ed ing
ten den
em b
gen es
da vor
ne tze
res ident
us al
ce eded
des ired
est imate
Ver stoß
not ion
ul ous
ta p
ta ckl
ta ged
gr ass
ust er
vor gelegte
Be ziehung
ben utzen
pe tr
We il
An betra
An reiz
man gelt
reg ierung
Er d
tra ck
Vor wand
br id
her ange
ug t
pos sibilities
Ein leitung
Ge heim
per petr
tre ffend
ans onsten
tel n
ser b
ange paßt
reich er
dec reas
De fence
new sp
fo oting
sub sequ
ific ations
Bere its
As soc
los ses
Jahr zehn
social ly
effe ktive
gest anden
last ungen
resol ving
Berichterstatter n
Arbeits bedingungen
20 20
All es
All gem
sor gt
gere ien
defin ieren
verschie ben
enth usi
finanz iell
fach ung
eig entliche
fäh ige
ep idem
einzu halten
leben den
rece iving
Rück gang
cut ting
wahr nehmen
Je ws
Schul z
grün d
Sum me
Sitzung speriode
Staats angehör
Dokument en
zentral en
Proto col
suggest ions
adequ ately
verstär kten
reser ved
aufzu bauen
Patent amt
Verteid igungs
encourage d
sämt lichen
bilater alen
hab t
Überwach ungs
xenophob ic
Ban otti
Einw anderer
Einzel heiten
fes thalten
rup t
pet ition
contrad iction
dro ht
Insel n
Leist ung
enh anced
attack s
Infrastruktur en
multi annual
surpr ise
Dafür halten
fas c
Defiz it
eingeb rachten
prospe ct
nachzu denken
occup ied
custom s
Kategor ien
Verlauf e
getr enn
beeinträcht igen
bedeut sam
Other wise
Alter nat
hoh es
hoh em
Dav ies
Rin dern
abstain ed
strafrecht lichen
diox in
acknowled ged
dän ischen
Auseinander setzung
abandon ed
expl os
Fäh igkeit
regre tt
collabor ation
Ratsvor sitz
Bio technolog
Moroc co
forgot ten
kommer zie
Betrü gereien
Anbetra cht
subsequ ent
0 17
6 2
B us
B IP
F il
F if
G al
H ern
K an
L iebe
O F
O steuropa
P yr
S omit
T reib
W en
W ho
a polog
c ategory
d ated
f öder
g reift
j ugoslaw
k y
k ä
l s
m ur
o le
s lo
t ausend
u ble
y ner
ö tz
er suchen
an ischen
an hand
it arian
re conc
re verse
re publik
st es
st ad
st amm
ro t
ge plant
ge ehrten
de pr
de voted
de vast
wi des
ll s
am an
we ises
ver handeln
ab r
em bra
ra ce
lich keits
he bt
wir r
ut s
ist ical
con vent
pro found
pro sec
ir ischen
um p
op ath
me tr
Ver stö
not iced
aus sehen
aus gestattet
ges onder
vor sehen
Re fu
co w
ann akis
00 7
ern ste
rä ume
sa ve
Aus sicht
Aus land
leg um
Er neuer
form ed
her d
wa ke
part ial
fr ustr
hin nehmbar
ander ungs
dis appointed
pre ad
erst re
ank ommen
Comm un
lar ger
bar bar
fre ight
dec ade
dec ades
De ll
dam al
just it
Auf forderung
Richt er
forder ten
rag m
zeit en
Se a
pf ern
Al koh
geste llte
transp or
differ ently
führen den
every body
vers prochen
increas es
contin uation
Verein fachung
invest ieren
Ger ichte
Ha vel
Welt bank
wär ts
bau t
vis ory
vis ible
Mehr wert
sur face
Grün buch
demand ed
Fol glich
Fä l
vorgesehen e
ko stet
versch oben
organis ieren
With in
Wasser politik
zunehmen de
Sel b
app alling
viol ated
refu sed
Sü d
quo ten
ana da
verantwort lichen
Staats bürger
elect oral
hard t
suggest s
erfolg reiche
Schif fs
Inde pendent
amer ika
Dritt länder
Wider stand
normal en
vernünft igen
transfer red
contra ct
div ide
div ision
consist ently
weltweit en
ay annakis
rep räsent
targe ted
neighbour s
thous and
Pap ayannakis
veränder ten
discip line
katastrop he
erwar te
ergän zt
surpr ised
türk ische
Berat ung
Kür zung
schwe mm
Trotz dem
coast al
gegenseit igen
vorbe halt
erör tern
eröff nen
günst ig
diesbezü gliche
Real isierung
ört lichen
estim ates
estim ated
abziel en
exc use
Generaldire ktion
beob achten
pleas ure
Trad ition
Gewä sser
preser ve
Verursacher prinzip
Hab it
gewün scht
Trag ö
iqu es
TAC IS
expens ive
disp ute
übersch ritten
Konserv ativen
ushk its
Lam y
Bul gar
disput es
yner g
wides pread
convent ional
Refu ge
Alkoh ol
5 8
8 6
A LE
A hern
B ou
C AP
F F
F ischer
G lauben
N a
P lease
S ens
S met
b lic
c attle
e u
e uropa
g ig
g all
n omin
p est
u le
w reck
en abling
er ing
in her
on om
an stelle
un a
al beit
re de
re course
ar res
be fugnisse
ge kenn
ge prägt
ein iges
se cur
ll y
am ed
sch icht
sch uß
zu weilen
ver steht
ab kommens
ber ichte
urop as
res ort
sp rä
Ver brech
ul ted
ag ers
das selbe
ind is
ges ucht
vor schrift
Re chen
Re volution
ad ding
Par agraph
Be lastung
über denken
pe ll
hal opath
An nex
com pr
fe ier
St rom
St reichung
lo bens
En des
Aus gehend
Er stellung
Er kennt
form ing
tra ged
Vor bild
Vor feld
et tering
comm ended
sta y
fr ank
pl ötz
Ge wiß
ass um
dis ziplin
pre ce
tro uble
gel aufen
Um struktur
dec ent
De zentral
geb unden
Grund züge
system atically
ign ed
Über legung
iger weise
kl ag
Fre und
comp lied
mittel frist
techn isch
organ ising
abl en
differ enz
country side
hope fully
ihrer seits
Or te
bewer ten
bewer tet
gener ous
soc io
dür ften
Haushalts mittel
leicht er
fun ded
kur s
Bed ienste
Bed rohung
exist ieren
Fe hlen
med ic
approach es
integr iert
genau e
Dar aus
open ly
Organ en
wach sam
technolog ischen
sum mar
democr atically
Zahl ungs
handel te
uni vers
avail ability
low est
Amer ikaner
erklär te
Beding ung
dist ance
que llen
Part nern
arr ived
indic ate
conne cted
bl ame
zeichne ten
angemessen en
äl teren
irgend wo
interess ante
advan taged
Op position
Gar ca
pursu ed
hunder t
Kl uft
Stellen wert
Prä m
Go tt
strö me
Kar as
entscheid ungen
qualifiz ierten
condu cted
Verbr ennungsanlagen
oppe lt
oss iers
alter nat
ökolog ische
überein stimmen
reje ction
endgült ig
vertre te
Fri days
kompliz ierten
dep loy
Grenz werte
sprü ch
stren gen
Roth ley
konstru ktive
Po ettering
Sc ient
verring ert
Vorbe halte
east ern
Schien en
appell ieren
Syr ien
gewähl te
incent ive
trib ute
contradict ory
zuläss ig
Bosn ien
resist ance
atal og
journal ists
score board
verank ert
Mittelmeerr aum
Forst wirtschaft
Palestin ian
NAF O
entreprene ur
enfor cement
Elektr iz
cere als
erlau bt
reven ue
Konzentr ation
Dif ferenz
stamm t
traged y
8 8
B ur
B ern
D ine
E W
E d
E EF
E TA
F lä
K au
K ofinanz
L uf
M ag
M od
M ollar
O pt
S ar
S par
S ake
S erv
U C
U EN
W ald
Y our
Y ear
a war
h it
h um
h abil
k ed
k lear
k olle
l ern
l assung
l assungen
m ix
p fer
r ire
t ighten
t abling
u en
u um
er geb
er bringen
in burg
ch r
es tens
is ations
un um
un ited
al together
re placed
st ä
st ory
ent zieht
be m
be währ
be gangen
be dür
be merk
be fried
as ing
ge achtet
ung laub
ung erecht
ein igt
de licate
den y
se arch
ll ari
we ckt
zu kunft
ver bleiben
ol met
em pt
ra w
gen e
ut il
auf kommen
für chte
all i
me ister
Ver hinderung
ul ative
kt s
Un zu
men gen
sen z
end ing
co alition
Be vor
Be fore
Be urteilung
Be wegung
sh or
ib ly
St ich
ap pl
was s
ien cies
out lined
str itten
Aus führung
reg istr
Sch on
tra ins
bes agt
ens hr
her auszu
ers ön
spe ct
sel ber
Ein igkeit
pre text
ans ion
ün glich
schl icht
under line
dr iving
Ma es
dec line
arbeit eten
ces sed
ign ore
Auf hebung
iß ig
problem atic
produ kte
emp fehlen
deb atte
inv ited
Arbeit geber
stru ck
kl ass
last ing
international ly
belie f
Al ba
Rechts akt
zug reifen
Ziel s
every where
Mar ok
Mar gall
Gen f
stat ute
acc used
pend ing
Best ät
cor por
med ical
Verantwort ungs
account able
Dar an
Gleich wohl
Betr iebe
fähr t
rele v
answer ed
organis iert
üh m
cut ive
wider spricht
harmon ise
coordin ate
quo ted
Kön n
krit isieren
treat y
mis er
Natur katastrophen
grundlegen der
gewä sser
Ru iz
formul ieren
acce pts
Groß teil
miß braucht
inciner ators
histor ischen
gült ig
author isation
Prä senz
contra st
Griechen lands
Red ing
zöger t
ada pted
dauer haften
dise ases
niedr iger
ausgewogen en
gewalt igen
Stabil isierung
Stabil itäts
mär kten
exem ptions
beträcht lich
dere g
üb lichen
ungsver fahrens
drast ic
elimin ate
adjust ments
writ e
mak ers
Mitentscheid ungsverfahren
thir teen
benachteil igten
depart ments
diesel be
gestr igen
leader ship
obligator ische
Bosn ia
sü dlichen
Four thly
kre is
compon ents
Beruf s
Gewerk schaften
confident ial
channel s
abgesch afft
Assoziierungs abkommen
Bu iten
vigil ant
confu sed
hilf reich
strugg le
deriv atives
feas ible
läst igung
antisemit ism
bevölker ung
Flugha fen
thres hold
auswärt ige
Cer tain
Assoc iation
Biotechnolog ie
Dine h
Ed inburg
Sake llari
Margall o
Edinburg h
Sakellari ou
A gent
B our
B ot
D ien
D ritten
G 7
I M
K och
L ohn
M utter
P et
W ann
c ommission
c uss
e ller
j ahrel
k ol
k ulation
l anges
m ater
n utz
p p
p ure
r um
s car
s ale
v ary
en ge
in spir
in compatible
in wieweit
an x
an läßlich
ie th
re commended
st rom
ent schuld
be kun
be find
be zahlt
den oun
se ite
ver handelt
ver kün
ver bot
ol f
pro active
ir respective
Europ es
auf s
auf re
sp unkte
op s
Ver arbeitung
Un recht
ges chen
ex te
lie b
Re lig
ad vert
Be ide
Be haupt
ma ck
ungs antrag
Th rough
Th ys
fe els
ap ital
lo cation
sa cr
man aging
man agers
Aus fuhr
Aus übung
Er de
wo oll
inter n
inter ference
inter ventions
bes orgnis
ow ner
wa ff
vo ters
inc idents
beit rag
nach kommen
Ein nahmen
Sie d
hin ein
Au fen
pre is
tre mend
ör en
ide ology
fore cast
cons ulted
ange boten
bet t
dr iven
tain e
min en
gesch ritten
present s
So weit
pla cing
pla ys
clear er
mer gers
produ cer
fall ing
har t
ständ iger
rat ification
kl agt
besch luß
besch rieben
stell ern
pf ul
ätz e
Gro s
Rahmen s
Rahmen richtlinie
führen de
Le id
bereit zustellen
ausge arbeitet
hel pful
ret ire
ga ther
essen ce
plan et
offen e
invest iert
fun ctions
jo ining
cor responding
med izin
prü f
integr al
integr ate
And al
Ind ones
move ments
dau ern
enlarge d
kontro llen
konkre ter
Hier zu
weis ungen
organis ierte
jud ged
allgem einer
enter ing
schwier iger
four teen
anal y
frei will
sustain ed
verl ag
tack led
blo od
krä ften
Menschenrechts kommission
grundlegen d
mein t
Beschluß fähigkeit
erfolg reichen
bedeuten den
lik ed
critic isms
stärker en
manufact uring
normal erweise
Projekt s
vereinbar ten
ling u
exerc ised
Konflikt s
schäd lich
delay ed
big gest
fes te
urspr ünglich
restrict ive
fear s
break ing
verbind liche
ynam ik
GA P
veran lassen
tag ung
veränder te
Resolution en
verurs achen
dram atic
moder ne
Cor bett
überw acht
Sozialschutz es
insof ar
ordnungsgemäß e
Hung ers
frag ment
abol ish
griech ische
prem ature
virt ually
Aktions programm
Grem ien
stö ßt
contradict ions
Kompeten zen
kil led
Dav id
Rin der
deck ung
frequ ently
schlimm sten
sil ence
gerichte ten
Vizepräsident in
shar ing
quar ters
Wortmeld ung
Log ik
Automobil industrie
reve al
Ausgang spunkt
Entschäd igung
Del ors
Ve terin
uneingeschrän kte
toug h
secon dar
allmäh lich
rhetor ic
Stur m
konfront iert
Klär ung
zwöl f
Profess or
Bör sen
tackl ing
Rechen schaft
Bestät igung
Thys sen
besorgnis er
3 50
6 1
6 7
6 9
A f
B isher
D I
D al
E lles
F ü
F ir
G or
H as
K ind
K uba
M ün
M org
O GA
P en
P hil
R und
S al
T on
V o
V ision
W ests
W äre
Z one
b ul
b low
c ia
f ift
h oc
i ber
k w
k in
l ans
m ischen
n s
o eu
p unkten
p ragm
t agt
w under
w ine
z it
ä glich
en gu
en cies
er mächt
in put
in sufficient
in haft
th ro
es te
is lands
al itäten
re per
re tro
re cit
st ating
ro utes
be gan
be wirkt
be denk
ge fallen
ge liefert
au lt
zu cht
zu zulassen
ver stand
ver nachläss
ter ung
pro cessed
ir ing
um en
auf greifen
Ver urteilung
not ification
men ge
ag og
mit unter
la ying
vor legt
ad jour
Be tre
über geben
über flüss
ant ini
An bau
ern ähr
fe atures
St att
lo ad
par adox
Pro van
str and
man oeu
Aus bild
Er folge
Er fassung
wo hnen
Europä isches
ger ingen
Ber g
Ber engu
Ent schuld
coun cil
Fr amework
been den
ass urance
dis agreement
dis mant
dis advantaged
per tain
ans äss
gem er
hand ed
Mitglied schaft
min der
De leg
fo ster
fo ot
bo vine
fl ug
Grund recht
system en
oper ative
chn ungen
inv ested
Über schwemm
äm m
mon at
off ic
where ver
halt igkeit
effe ktiven
art igen
fund ament
mittel s
exam ining
finan ces
Rechts akte
beg reifen
fut ter
di um
glichkeit en
Arbeits programm
klar er
trans it
world wide
He kt
redu ctions
Haushalts kontroll
Haushalts ausschusses
accoun ting
defin itive
amb itions
aff air
maß geb
urn ing
Lebens bedingungen
achieve ment
progress ive
exper iment
Ind ien
Mehr zahl
ehr lich
handel ten
Wort laut
Med ina
aufge griffen
aufge hoben
US D
Res er
Wieder belebung
eth ical
amt ierende
amt ierender
Instrument en
Off ens
wider sprüch
kom peten
Lissabon ner
Haushalt splan
Fischere ise
remain ed
verein f
ras che
stre it
arr ive
Pe king
Außen handel
ph one
nü gen
rein forced
Bas ken
stop ped
sk i
Beschluß fassung
incor rect
bro ken
zö gern
Vorgehen s
benef ic
benef icial
Proz esse
front iers
mel det
jur istischen
El end
illegal en
ref usal
concentr ation
chem ical
quant itative
ähn lichen
bad ly
mist akes
Emiss ion
öffentlich er
prefer red
substantial ly
wachsen den
competen ces
dre w
class ification
extra ordinary
flag s
experien cing
Car thy
gefü gt
Mensch heit
Krank heiten
obser vers
Nu ll
Weiter hin
ehrgeiz ig
Inspe ktoren
postpon ed
mi llennium
vorbe ugen
Trans fer
consolid ation
pillar s
Mc Carthy
gestr ichen
zweck mäßig
hervorragen de
rain ts
tä glich
west lichen
Legisl ativ
deliber ate
erad ic
mun icip
stri ke
dum ping
jeop ardis
explicit ly
imper ative
Beschrän kungen
rul ing
thr ust
Att wooll
Kindes mißbrauch
pal ästinens
Good year
Funktions weise
Gefäng nis
provider s
Rechtsprech ung
screen ing
Lank a
Verbind ungen
Betroffen en
prerequis ite
jeglich er
reconc ile
Erneuer ung
Sens ibil
Verbrech ens
Kofinanz ierung
Unzu län
Marok ko
cuss ions
Andal us
secondar y
Morg antini
OGA W
Wests ah
manoeu v
Berengu er
0 11
2 20
B end
C oh
C ohn
C ategory
D anu
D olmet
D ynamik
G as
G ibt
H at
H ilfen
K ampagne
M us
M ul
O li
P lo
P ersön
S u
S im
T ar
T ol
T itel
W ould
Y or
Y outh
c ure
e chn
f isch
f ought
f inger
g ige
g rem
k ter
l orr
n ar
n isch
o ij
p urch
p harma
s we
t au
t ort
u ous
w omit
y ield
ü hen
ü mer
er stellen
er led
er heben
er weist
in vent
es ion
an ch
an merken
st ations
st reicht
be we
be trag
be merken
be wegungen
as ion
ge änder
ge halt
ge leitet
ge wahrt
ge widmet
im stande
zu geben
for cing
ic als
ver wirk
ver weise
ab seh
wh ite
ist rat
ist ischer
auf er
auf geführt
auf gerufen
Ver ts
Ver arbeit
Ver sorgung
ul ates
if un
In halts
su pran
ges prä
lie hen
Be förderung
über gehen
über wach
sh ore
pe l
ah nen
An schein
ungs weise
ungs stelle
ann ually
fa ces
St il
St ück
ap proving
lo ve
str ange
man if
Er lä
Vor gaben
inter essen
fin ish
pr ud
her stellen
wa ffen
el n
spe kul
Fra ktions
pl ä
Ein wohner
kann te
report ing
199 1
che ap
kon sult
import s
sol ved
dr ive
ließ t
lar gest
geb rachten
Kon z
Men gen
Dies en
Inter pret
sub scri
deut sche
deut licher
bas es
viel es
Über arbeitung
besonder es
wen de
when ever
human ity
stütz en
fest geschrieben
ves sel
tun nel
stell ungs
Dem ocracy
eng ine
Finanz en
Finanz dienstleistungen
Hin zu
di ver
di verse
di agno
bereit ung
Ne ed
betr ieb
ga ined
prom pt
handl ing
sign ing
gere chten
seiner zeit
regul ating
vi ability
suc ceeded
Standpunkt s
object ions
Ind ia
schne llen
schne lle
Grün dung
anzu passen
Beih il
Zwe cke
regel ungen
free ly
erb are
const raints
administr ations
vier zehn
Amer ika
anal yse
initi ativen
jähr liche
fort gesetzt
abzu stimmen
sustain ability
criter ion
demonstr ates
Techn ik
prakt iz
Schokol aden
hoch rang
prinzip iell
angemessen er
analys ieren
Ru he
reser ves
product ivity
irgend einer
bedeuten d
interess anten
scho tt
broad cast
Handels abkommen
Wider sprüche
fal schen
Weißbuch s
Rand e
defen ded
Dec ision
threat s
mag n
bot tom
tief ung
clos ing
vorher igen
jüng ste
Ere ign
grundsätz liche
nes sed
sele ctive
Versch är
ren der
gh an
hy dro
ehemal ige
fulfil led
katastrop hal
reb ungen
Meinungs verschieden
highl ights
beträcht lichen
offiz iellen
Urs ache
schwe igen
Krä ften
Sco tt
obstac le
vertrau t
Tele fon
Eigen schaft
approx im
kap ital
Ungleich heiten
Konta kte
abziel t
auseinander setzen
erneu erbare
natür liche
Gesicht spunkt
terror ism
surv ive
decentral isation
decentral ised
Sh ould
trop ical
inhalt lich
Sym bol
entail s
Bl ut
bek lagen
Gesetzgeb ungs
Säu le
ambigu ous
shaus halt
Lob by
Grö ße
Terror ismus
Angeb ot
Orient ierung
belg ischen
geplan ten
hof ft
chines ischen
thaft ung
begeg nen
Ser ben
twel ve
Habit at
gekenn zeichnet
Scient ific
Bour langes
aufre chter
geschen kt
Sied l
tremend ous
gemer kt
Westsah ara
Bend it
Coh esion
Danu be
Plo oij
Tol er
Yor k
verwirk licht
supran ational
Erlä uter
6 4
A 1
C ze
D at
E he
F O
F al
G ama
H it
K auf
K lage
K openhagen
L ö
L ange
L agen
M our
P hän
P aul
W esen
Z ins
Z erstör
a wait
c iety
c amp
d ial
e at
e he
g os
h ion
j ing
k amen
m em
m ün
n isses
s oft
s yn
s ales
v acc
w ö
w ages
y ard
z o
z iv
er te
in en
an on
an ger
un its
un realistic
un längst
it uation
the ory
re cru
ar my
ar ians
ent ziehen
ent rating
be ziehe
ge habt
to s
to x
ein her
and t
ig are
ver bieten
ver hängt
em ot
no body
ber gen
ber ühm
ne ut
con front
ere ig
um stritten
us ionen
are z
auf gestellt
ha ftet
ce ase
sp ong
sp ot
wer ter
wer tet
ach te
me ist
Ver an
Ver tr
Ver öffentlich
Ver tiefung
ul se
Un fall
ag ieren
mit geteilt
aus drück
ex ac
vor läuf
vor ankommen
Be if
Be grenzung
Be züglich
will en
pol izei
St ür
je derzeit
Pro test
Mit gefühl
Sch ule
Er werb
form ally
ger inge
ac ute
Vor sicht
br y
prop aganda
nach gewiesen
pl ural
dis covered
ün de
conc entrating
dr inking
any where
De cour
Kon ting
Unter drück
gesch äd
Zus age
hier für
time ly
So ciety
ose x
bas iert
viel fält
gu ards
vern ommen
Zu sch
sicher ung
Fre unde
think s
Con federal
stell ten
immer hin
Umwelt politik
Me ld
Le hr
reichen de
Gen ugt
di jk
gent echn
bereit gestellten
hä uf
law ful
ret ch
cl oning
zahl ung
trans atlant
offen ce
Welt markt
zurück gezogen
Änderungsantrag s
einge gangenen
specific ations
contrib utes
contrib uting
pract ically
genau en
Stra frecht
democr atisation
cult ures
Bei jing
hervor geht
Demokrat isierung
Sol daten
lack s
energ isch
dien sten
Diskuss ions
My ller
flex ibel
though ts
civil isation
euro s
unterschied licher
joint ly
vorzu bereiten
emphas ises
circ ulation
abo tage
Eng land
mand atory
Natur ally
Democr atic
ethn ische
Beitritts ländern
Beitritts verhandlungen
Rede zeit
histor ische
Armut s
größer er
max imal
Har bour
Beam ter
super visory
pursu ing
hinzu weisen
Schl ag
Spe zif
investig ate
198 6
vorhand ene
Kur dish
tief greifen
ket te
arrange ment
passen ger
explan ations
explo it
initial ly
dauer haft
dauer hafte
Spiel raum
Can ad
wit nessed
geograph ischen
Partnerschaft s
Dan ach
schrän ken
begrün den
worr ied
Rea ktionen
advoc ates
ursprüng liche
destro y
üb lich
fas hion
Umwel tze
Besonder heiten
Don au
wünsch te
iö se
angehör t
Stabilitätspakt s
bir gt
bir ds
Ide ologie
ampag nen
Nachbar n
thir ty
Syr ia
Einschrän kungen
Niederland e
Dienstleistungs aus
evalu ate
Flüchtlings fonds
strukture llen
transl ation
Trad itionen
fam ine
Ank ara
flexib ler
hur t
compon ent
Gelt ungsbereich
restor ing
ries ige
Anwesen heit
Bla k
peripher al
Besitz stand
inqu iry
Cha ir
Schmid t
Legitim ität
Beobach ter
copy right
Hal b
Pie tro
chap ter
gesp annt
mosp häre
depr ived
Dezentral isierung
Orte ga
enshr ined
lingu istic
Af ghan
reper cussions
fundament ally
überwach ung
aufrechter halten
Lagen dijk
Mour a
ziv ile
exac erb
Decour rire
Genugt uung
8 2
8 3
B re
B 50
C F
E th
F a
K il
K lon
K ürz
K orre
L A
L kw
N O
P in
P feiler
R en
T est
V al
b id
d iss
d ating
g au
i beral
k ommiss
k ill
m ord
p ity
v arez
ö ten
en ables
er reich
er sucht
in comes
in appropriate
an führen
an stehenden
an fangen
at mo
at ischer
al ert
re consider
re minded
ich ens
st ück
ar z
ar isen
ar bit
ro ll
be dürfen
be achtet
be hindern
ge ehrter
au en
au se
au ert
den z
den ied
ig flag
ll ation
am s
we b
sch ä
sch wach
im plies
zu gehen
zu gesagt
zu kommt
zu wenden
ic ter
ver ze
ver schaffen
ver wal
ab inet
ne z
wir tschaften
dies mal
ier end
auf halten
auf weisen
auf hören
tr at
wer s
me idung
Ver sprechen
Ver folgung
Un glück
In nen
ate ll
ex pla
vor gestellt
vor sitzen
vor behalten
vor bereiten
ident ical
ad her
An künd
ib ung
lo hnt
par te
Mit bürger
man ager
fin ished
ug ung
fr ame
nach vollziehen
pos ing
Ge geben
Ge fähr
Parliament ary
hin nehmen
pre d
per ce
tre m
gro ss
tro ops
schl üssel
Reg imes
che iden
cons ent
ud sman
gel esen
hl ten
inst ability
inst ances
Comm unities
cr y
och et
Mitgliedsta ats
fre m
De va
geb oren
ak ing
gesch ah
weiter entwickelt
reas sure
bo ts
Inter ventionen
Auf stellung
iß t
produ zieren
pa ket
Gem äß
viel fach
gleich berecht
Über leben
As ien
erg ie
techn iques
besch l
ine quality
organ ic
stell end
own ers
ri um
employ ers
real en
spec ulation
differ ing
voll es
vers orgungs
bewer tung
üß en
fahr zeugen
represent ing
Mon ats
prom ising
spr ing
offen kund
find ung
Am b
Bed auern
back ing
lan ger
19 70
ziel en
außer gewöhn
positive ly
zept anz
And re
At mosphäre
einzu leiten
Ind ik
Wor king
übr ig
Sol bes
Nor wegen
event uelle
admin istrat
versch winden
lück en
Zwe ifellos
leist ungs
Pol ize
hinaus gehen
Wettbewerbs verzerr
vö ll
ator ium
origin ally
Fortsch ritts
Österreich er
sus pect
sus pension
exp ansion
ym metr
vorzu gehen
Leit ung
ton ight
fort geschritten
disch ar
Ob gleich
nehm lich
Miß achtung
demonstr ation
indic ates
indic ators
Serb ian
ente ils
pension ers
Integr ations
candid ates
erfolg te
avo ided
gre enh
Zugang s
central ised
critic ised
fal sche
conv ince
bilater ale
Verhält nisse
Ged ächt
Initi ativ
illegal e
partnership s
Jugend liche
regular ly
tät igen
Fahr zeug
La an
vert ie
Argument en
perspe ctives
assure d
sele ction
fangen en
combin e
Gra a
GA SP
listen ing
begrenz te
stren ger
Mittelmeer politik
ignor ed
Leist ungs
Ak zeptanz
genere llen
descri be
soz io
character ised
enterpr ise
lies t
Iran ian
surpr ising
Büro s
Öl pest
abol ition
Ober flächen
eingeb unden
virt ue
exclus ive
toler ance
Perspe ktiven
bir th
mm ern
getr ennt
Anmerk ung
potent ielle
Dring lichkeits
Prozent satz
kü mmern
Ernen nungen
hervorragen den
strukture lle
withdraw al
verschär ft
verschär fen
genehm igt
intoler able
Aut or
Aut onom
witness ing
exter nen
loc ated
engag iert
macro economic
Territor ium
widerspie geln
Bill igflag
beschleun igen
beur teilen
Urspr ungs
Comp uter
Tem po
depl ore
contam ination
ersta un
verdeut licht
Reicht um
install ations
ratifiz iert
Anwend ungsbereich
Mitverbr ennung
Haup tz
cultiv ation
Kapaz itäten
metho den
Lärmbe lästigung
occurr ing
fem ale
zuver läss
exe cutive
inhabit ants
Allgem eine
kommerzie llen
jugoslaw ischen
stad t
Refuge e
Bedienste ten
Flä chen
habil itation
thro wn
Hekt ar
kompeten z
municip al
Mul der
Canad ian
Pin ochet
atmo sphere
A la
C 4
E st
F on
G ült
G öte
H ol
H orn
H emm
K nör
K FO
N it
O pfern
P OL
R ome
S on
S port
S pre
S zen
T B
T it
V om
V III
W ed
d ates
f ließen
f öderal
g reif
h ide
h reb
i os
k m
l varez
m ixed
o ve
p ick
s le
s enten
t at
t wi
v age
w issens
Ö VP
ö hnung
ü tz
in f
in no
an nehm
un ten
un gefähr
it ute
the id
or ate
re conciliation
ro ot
be achten
be waff
as i
as p
ge worfen
ge einigt
ein gestellt
ein setzt
ein leiten
ing red
ig sten
im s
im pet
ver g
ver weist
ver mittelt
ver breitet
ab fälle
ab stimmung
no wa
he ct
so viel
ct ure
ne ten
con ve
con fine
pro stitution
id ance
res idence
wer ks
Ver dienst
Ver mögen
Ver schlechter
Ver meidung
Un fälle
ag gress
In zwischen
aus machen
aus sieht
su ited
ta ct
ges enkt
gr ants
vor ab
lie fer
ste igt
ste uropas
Be weise
über wie
über ras
ant wortet
sh ire
An hän
An dere
An stieg
fa ster
wor um
lo ans
str icter
man chen
Aus setzung
Aus legung
Sch a
Sch üssel
Vor stellungen
inter ception
fin nischen
Ab ove
inc red
fr isten
per sec
per mission
ang ere
ide ological
age ments
wä chst
ear th
who lly
ser ves
teil te
under p
sicht bar
bar es
Dies bezüglich
prov en
änder ungen
fl üge
sche ch
ign ation
Auf schw
mer zung
ven öl
Gemein sam
Über nahme
rel uct
hör t
Sta ff
point ing
rat ify
oh ol
Con ventions
qual itative
cont ents
bie ter
air lines
public ly
sozial es
Rechts hilfe
zug s
Le tz
Nach teil
Nach haltigkeit
contin ually
Mein ungen
begr enzen
hol i
hol t
liegen de
ausge zeichnet
stat istics
stat istical
öff nen
Koso var
abil ities
Haushalts ordnung
Haushalts verfahren
Haushalts behörde
System en
Artikel s
Mad rid
iar ies
access ible
ru in
Stra fe
Stra fs
streng ere
Struktur reformen
demokrat isches
van os
EC OF
Nor way
ither to
kurz er
eindeut igen
jud ges
Rück stand
ifiz ieren
alk ohol
Krit erium
einfach er
Je de
civil ians
harmon ising
Steuer politik
vorzu schlagen
aud it
neg le
official ly
bewuß tsein
gelten de
krit ische
verl ust
mis sed
mis management
heut zutage
ath ol
entire ty
comprom ises
erziel ten
stop pen
mitglie der
betreffen de
formul ate
formul ated
sinn volle
Tät igkeits
beschlossen en
Grundsatz es
broad ly
hinter her
gesund heits
Zusatz stoffen
win kel
remo val
Erzeug ung
prof ession
claim ed
contra ven
AL TEN
arch y
Gesundheits wesen
zufrieden stellend
Deut lichkeit
Stat ut
sensit ivity
ungsan lage
learn t
schwerwie gend
nöt ige
ersch ien
kürz t
lag erung
wachsen de
Blick winkel
Eing r
Com petition
Kontin ents
block ed
Vorred nern
compens ate
Yugosla v
safeguard ing
character istics
Schwer punkte
pun ished
threaten ing
spolit ische
dict ator
heav ily
check ed
umfang reich
drast isch
Straßen verkehr
ehrgeiz ige
rational e
proje kten
gegenseit ig
Atlant ik
Kohäs ionsfonds
bekräft igen
beizu behalten
schreck lichen
kap az
Ins gesamt
Beob acht
Mart in
potent iellen
leng thy
domin ant
Lang u
kan ad
kn ap
kn app
Wissens gesellschaft
größt enteils
Einer seits
glaub würdig
fam ous
Ausnahmere gelungen
koordin iert
pap ier
stri kt
norm ally
widerspie gelt
demograph ic
multilater al
niederländ ischen
korrig ieren
einzur ichten
schar ta
deterior ation
Sup er
Embar gos
Migr ation
hous ing
BB C
Erschein ung
Ass ist
manip ulation
Universal dienst
foresee able
confin ed
persist ent
mur der
blic ken
inher ent
Mag hreb
Serv ice
retire ment
Veterin är
Rund fun
Unzulän glichkeiten
manoeuv re
Oli venöl
Need less
Verschär fung
Toler anz
Cze ch
arbit r
Gegeben heiten
Gedächt nis
Ala vanos
Fon taine
Knör r
KFO R
Wed nes
twi ce
impet us
nowa days
ECOF IN
ALTEN ER
7 7
9 1
A U
A z
B om
B anken
B lock
F ische
J acqu
J arz
K ör
L ag
L ama
M ission
N ation
O AU
P ass
R ac
R ente
R ather
S lo
S atz
S intra
T T
T ake
V ir
W ind
W oh
W ild
a bel
c ope
c atch
e cho
f ire
g ieb
g barkeit
i hen
k g
k ra
l ou
n it
n ord
r üst
s essions
t ions
u ters
v y
v ill
w man
w hel
z qu
ü chte
er zeugen
er langen
in av
on to
es ien
an wesen
an schließend
un certain
un miß
un ilater
at ern
re ine
re put
re viewed
st ages
st alten
st abilität
st retch
be am
be have
be haltung
be legt
ge höre
ge forderten
ein stellen
and inav
de cess
de zentral
den selben
ur ances
se ed
we ich
im ine
im ported
im prison
im posing
zu genommen
ou ter
ver f
ver nicht
ver sprechen
ver wand
ver folgung
ies t
ab road
gen oc
ber ichtet
il and
il ing
con tem
con vic
auf recht
op ole
aus gesch
aus geht
aus genommen
aus gelöst
ta st
ex changes
Re akt
ad here
ad missible
Be träge
Be hinder
Th us
igen de
fe ty
Mit te
Er satz
Er öff
ord nen
ob gleich
br anche
Ab schnitt
unter gr
unter nimmt
et te
ow ski
Ent fern
mo un
inc idence
Fr anz
Fr anc
Ein mischung
alle vi
ass ing
ass urances
Au fre
pre v
pre decess
conc essions
wä l
wä cht
Reg ulierung
kon fli
hand led
ange führt
Um schicht
sol ving
dr ivers
vent ure
De v
De clar
Kon kurr
änd ler
Zus agen
over whel
prov es
land wirtschaftliche
Inter ventions
Auf schub
mer t
att ung
bas k
Sta dium
wür fe
fu hren
Änderungs vorschläge
ile m
respon ds
los ing
vir us
groß zügig
Zu wanderung
Se ele
ask s
then burg
wes ens
pra ise
möglich er
Bürger meister
spec ify
spec ulative
Im port
Politik bereiche
Le tzten
voll zogen
car ious
bre cher
bre iter
Fl ag
Her angehen
ausge übt
stat ut
Ne hmen
rec kt
rec orded
Arbeits kräfte
trans mission
äuß erung
He il
Tr ink
akt iver
akt uelle
Haushalts führung
Was hing
find ings
gere chnet
lim iting
Best ände
Fe deral
finanz ieller
var iety
account ability
regul ierung
vis ited
Produ ktivität
Bes org
technolog ische
ikan ern
Minister präsident
fehl ende
seem ed
trau en
schne iden
Bem ühen
Ex e
tem per
assist ants
ifiz ierungs
moment an
Flug zeugen
zunehmen den
Je den
wider sprechen
Chin as
head s
bit ter
Pos selt
disast rous
initi ated
top oul
fort zusetzen
Luft fahrt
Lin ke
Agrar haushalt
Staats führung
Co de
chter haltung
sitting s
stress es
cris y
deli very
Dienstleist ung
Beitritts länder
Verkehrs sicherheit
measure d
Zusatz stoff
Richtlinien vorschlag
spar en
verab schiede
col onial
Spe kulation
unver zicht
Erzeug nissen
dee per
Eben falls
demn ächst
acqu ired
Go thenburg
National staaten
Zivil isation
sort s
recognis es
orient ierten
unge he
unge achtet
quant ities
addit ive
Inst ance
Di aman
Landwir ten
Alban ians
learn ed
condition al
Entscheidungs prozeß
sele cted
Führ er
ausführ liche
unmittel baren
label s
combin ation
dre ißig
begrenz ten
unzu läss
sett led
veränder ter
Umweltschutz es
Übergangs zeit
Mitglieds land
genü gt
verz ichten
Ereig nis
überw unden
compar able
Schweiz er
elimin ating
Tun esien
indire kt
konvention ellen
cance llation
solid ierung
simpl ify
zerstör en
herrschen den
hiel ten
pi racy
remark able
versicher t
territorial en
TS Es
frequ ent
erzeug nisse
sad ly
bann ed
antibiot ics
zusammenzu arbeiten
alarm ing
jeop ard
Lu cas
einzur äumen
distin ction
Jed es
Sof or
bench marking
leite ten
cert ific
surve y
unabding bar
smo o
educ ational
israel ischen
foss il
princip al
Antibiot ika
Heranführungs strategie
städt ischen
Latein amerika
Staatsanwal tschaft
aspir ations
emb owski
regrett able
Hern ndez
damal igen
Bou wman
arres ted
plötz lich
Hungers not
Fir men
kin der
adjour ned
Offens ichtlich
Basken land
Scott ish
wö ch
spong i
CF SP
greenh ouse
überras cht
Strafs achen
Jacqu es
Jarz embowski
genoc ide
Aufre chterhaltung
Washing ton
topoul ou
Diaman topoulou
0 14
0 13
7 2
8 50
9 2
A ct
D rei
D ossier
E du
F uß
F ang
F inger
G F
G oll
G rad
G olan
H av
H ände
I zqu
K ennt
L ad
P ack
R oc
S om
S ad
T V
T wo
T od
U CIT
W F
Z er
b read
d ischen
d istr
f erring
f ault
j ung
j unkt
k ay
n t
p hon
r unde
r ush
s kept
u z
u ers
w is
er ation
er schweren
in te
in ated
th u
th row
an cy
an ia
un al
un ken
un ded
un precedent
it udes
ie h
or ed
re ise
st ich
ent f
be an
be tragen
be fallen
be hindert
as m
as ymmetr
ge braucht
ein s
te lling
and o
au erung
de ar
de em
ig ter
se ly
we igh
sch ten
sch ungen
sch war
im ents
zu stand
zu künftige
ic ts
ic ulous
ver sp
ter min
ab warten
ra ge
ra cial
ut ze
um n
res c
auf weist
sp ort
von einander
ach sen
Ver y
Ver un
if ies
if fen
mit y
ta ste
ges unden
end ung
ad ig
ste cken
ste uropäischen
co existence
ma ster
sh ö
ze denz
An leg
Th un
do g
wor auf
wor über
St ill
ap pra
Pro fit
po und
Mit two
bei hilfe
Sch ü
Sch ätz
Er leicht
Er teilung
ac id
Vor fall
Ar ab
her ein
unter einander
unter worfen
fr on
sel b
pres cri
Ein heits
Ein fuhr
Ge bur
Au th
pre dict
pre carious
gem isch
wä sser
Reg ul
zum achen
under lined
Um gebung
sol ide
dr y
fre chts
gesch ä
gesch ickt
zw ingt
Auf lagen
Auf klärung
pa ce
emp hat
read s
inv ite
Gemein de
best raft
lä re
Über wind
Europa abgeordne
Maß stab
wel ch
Zeit raums
kl ug
Jahr tausend
Land e
sicher t
geordne t
qual ities
comp uter
bal ances
red istrib
transp osition
Im migr
beg leiten
vers ions
car go
car bon
sc rap
Finanz minister
Finanz rahmen
Her z
ausge drückt
betr ug
rec ke
tens ion
safe guards
fle et
Tr uppen
rem ed
find s
defin itions
15 8
12 44
Best ands
instit ute
gew inn
Sozial versicher
fav oured
ban ken
Afric ans
cap ita
erk läre
vorgesch rieben
integr ating
Information spolitik
person en
Stra frechts
Gleich behandlung
fehl enden
einzu treten
einzu bringen
Kom pon
grif fs
Ind ivid
Bei behaltung
Weg gen
drei zehn
prevent ive
gra in
gra ce
Den ken
exce ed
schre ibt
Gemeinschafts rechts
schnell st
Je gg
ground water
ebenso wenig
Risik ok
mind s
leit ungen
vertreten en
minister ial
def iz
Gefahr gut
abzu lehnen
Agrar ausgaben
Dokument s
indic ative
fail s
hes it
letzt es
Fremden verkehrs
befür chte
Serb s
fil m
hoch wert
continu ity
innov ativen
reser ven
formul a
damage d
frü here
asse m
renew al
Zuständ igkeits
bi ological
dee pen
Prä z
Prä zedenz
mel n
cle ans
profit able
Wes halb
Kommun al
comprehen sible
Plan eten
Abfall bewirtschaftung
moral ischen
Mai j
rig id
rig our
Alban ien
vert ik
proz esse
Geb ühren
Vorsitzen der
fried liche
kompliz ierte
block iert
ignor iert
compat ibility
defic iencies
genü gen
employe e
span ische
interven ieren
destro ying
Unabhäng ig
Kü ste
Exper ts
stip ulates
Mü he
Stu fe
Kenn a
geeigne ten
Vier tel
tool s
angest rebt
belong s
consolid ate
Ap pell
Fünf jahres
benachteil igt
Mc Kenna
conce pts
hom es
wettbewerbs fähig
surv ival
kurzfrist ig
Ank lage
prohib ited
exter ne
Akt ual
gerichte te
journal ist
erad ication
shift ing
Eigent ums
bann ing
flow s
Wur tz
Wur zel
Mich el
tie fer
beur teilt
makro ökonomischen
mee ts
Straft at
Wass ers
Jed och
Rap kay
biometr ic
constitu ency
Ermittl ungen
wom an
faß ten
Gel dern
cofin ancing
umge kehrt
Angehör igen
Deriv ate
Krie ges
swift ly
Wün sche
prejud ice
sensib len
qualit ativ
Gal ic
Dell Alba
vorbehalt los
empt y
relev ance
Dien sten
IM F
scar ce
befind lichen
Gor sel
fift y
überflüss ig
geänder ten
Hit ler
Phän omen
camp s
emot ional
Veröffentlich ung
Beif all
Unterdrück ung
Afghan istan
kommiss ar
Autor ität
senten ced
Aufschw ung
Beobacht ungsstelle
Langu ages
Wednes day
prev ail
Declar ation
ilem ma
Goll nisch
Izqu ier
Roc ard
UCIT S
inte llig
unprecedent ed
Mittwo ch
Überwind ung
Jegg le
1 20
8 9
B ritt
D oppel
E M
E ach
E tap
G od
H aben
N et
O S
O der
P ir
P ilot
S A
S j
T urning
V ot
V AT
a he
a est
b and
b rä
b ahnen
c ra
d rought
f ie
f ly
h ie
h itherto
i leg
l as
l isted
n ein
p act
r uns
s at
t il
t um
t tern
u c
ö pft
en comp
en counter
in deb
an gesetzt
an nex
un like
un verständlich
it ze
al isierung
re habilitation
st ed
ro te
ro chen
ent stehenden
ent scheidet
be merkt
ge ld
ge wirkt
te uer
de fer
ur b
we ile
sch är
zu wider
zu gewiesen
zu fügen
ic ing
ver nehmen
ver geben
ver häng
ver sammlung
ver binden
ies e
ed t
ten ance
ra chte
ra gend
ne o
ist le
pro lif
ir responsible
res se
auf einander
für sorge
ce ll
ce ut
all ot
est änd
Ver gessen
if ik
ag ger
dem nach
os ing
ex cit
ex ert
ex isted
vor igen
vor gegangen
vor sichtig
ste ckt
Be antwort
qu id
The or
We b
ze igte
An reg
An ti
An gabe
err ichten
fa kt
sa al
Aus kunft
Aus merzung
reg imes
Sch ande
leg ten
Er be
dar gestellt
fü llen
fü hlt
tra ve
ob serve
bes cheiden
pr on
her bei
unter m
unter halten
unter scheidet
Ent täu
mo de
är er
ult imate
hin reichend
dis advantage
dis grace
eit ern
ün del
conc er
Reg ister
Reg ulations
che aper
kon kurr
cons ists
hand le
under min
sol ch
dec iding
mehr mals
geb ühr
Kon zep
Kon kret
ins ide
sche u
produ zenten
chn ungs
emp fangen
gleich wohl
gu ided
respon ses
ständ igkeit
rat io
belie ved
tun a
tun e
Umwelt bereich
Umwelt schäden
Rechts vorschrift
real ised
set te
Nach richten
requ iring
Ges tern
hol ders
bereit stellen
ausge wä
ho t
press ing
Group s
rec ip
zahl reicher
reform ed
tens ions
Kr iegen
Teil s
klar es
statt fand
acc um
All gemein
sign s
ys is
Best rebungen
gew achsen
mention ing
Sozial modell
einge treten
cor respond
erk enn
var i
eigen er
institution en
verständ nis
zusammen hängen
ru ft
Wo llen
fäh iger
Gleich heit
hau l
Mehr heits
democr ats
beding te
wic kelt
wärt ig
Nor m
UN IC
Bar on
transpar enten
Rück über
liberal en
einz iger
schre cken
ev ol
Gemeinschafts initiativen
Flug gesellschaften
parliament arians
pass ion
erklär ung
play ers
fair en
Wahl periode
poll uted
betra chte
kom bin
dist ress
Gegen wärtig
she ep
Invest ition
verein baren
stre bt
zusätz licher
verl iert
Prinzip s
stu died
würd ige
bank rupt
San ter
rein en
determin ing
Per u
assess ing
stress ing
foc using
bear s
irgend wann
model s
21 st
Israel is
interess ieren
tar if
critic ise
Schif fen
manufact ure
remo ving
incorpor ation
heraus stellen
Entwurf s
bevor stehende
bezogen en
substant ive
six th
schle chten
return ed
mass iv
vernünft iger
Kl ass
Beschl usses
Entschließungsantrag s
beru h
gering sten
El tern
effizient en
arch ie
schätz e
öst edt
zufrieden stellen
log ic
orient ierte
Einw ände
Kur den
Sto ffen
appoint ing
Alban er
Alban ia
Vorbereit ungen
optim istic
Cypr iot
rep lied
Produkt pir
defend ing
ausführ te
Zw angs
GA TT
Grü ne
worth while
Kat al
hop ing
hop ed
Bezug s
Mitglieds ländern
bra chte
beträcht liche
umfang reichen
satisf y
fas er
drast ically
Weiter entwicklung
adjust ment
breite ten
gewiss ermaßen
Kre is
erweiter ten
italien ische
Any one
Zif fern
conta cts
illustr ate
isol ated
zuläss igen
obligator ischen
geist igen
Ernähr ung
Schwä chen
doppel ten
seas on
Gewä ssern
dän ische
lif ted
antibiot ic
hypo crisy
Wortmeld ungen
Generalsekretär s
autonom y
asses sed
korrig iert
begünst igt
Südo steuropa
Embar go
Sachverständ igen
)] .
standardis ed
Ök osystem
scen ario
gä be
argu ed
Diox in
sudden ly
mangeln de
privile ged
Bon de
Tunis ia
angestreb ten
verknü pft
nutrit ion
Jahrzehn ten
Alternat iven
föder alen
Verstö ße
Tragö die
Umstruktur ierung
univers ally
Präm ien
Gros sette
Dal ai
Überschwemm ungen
offic ers
benefic iaries
palästinens ischen
Sim ilar
Tar if
Ereign issen
Meinungsverschieden heiten
neut r
Klon en
Kürz ungen
Autonom ie
inno cent
Kör ner
anwesen den
outer most
Eröff nung
Dev isen
overwhel ming
Jeden falls
Auth ority
Immigr anten
Präzedenz fall
Sj östedt
indeb ted
allot ted
Beantwort ung
2 12
2 80
B ig
C lin
C olle
C EN
C roat
C ambod
D ür
D est
E hr
I WF
J ur
K e
K h
L ip
M ur
M ug
N ass
N ichts
O ost
O EC
P h
R i
R ein
R uf
R unde
S T
S am
S org
T atsäch
T exte
V ere
V et
V ieh
W ater
W ende
Z in
b org
c at
c old
d il
d ossier
f ix
g ame
g ingen
i ol
j an
l am
l ander
l ifel
m ic
m ort
m ad
n ische
p to
p pi
p feiler
p ilot
r ising
s qu
t schetschen
v ict
w all
w unsch
y sen
z y
er fassen
er schü
er zeugt
in tim
in forme
th alt
on ik
un known
at ant
it es
ie del
re funds
re pair
ar ing
ro b
ro s
le idet
be kommt
be vorzu
be dacht
be kämpft
ge fällt
ge heim
ge werb
to ck
de grad
sch icken
ve terin
zu treffend
ic able
ic ism
ver trä
ver danken
ver län
ver zögert
ver brecher
ol ive
ten der
ab gest
ab hängen
il es
il ung
il ib
con struct
pro min
auf sicht
ha fter
tr ies
ach teil
Ver tagung
Un less
Un ivers
men schen
ag d
ag g
ag s
li p
gr ü
la ys
vor nehmlich
ck ung
Re l
co des
än ger
Be ge
Be ein
Be lastungen
über trag
über leben
über arbeitet
über nimmt
über tragung
sh ed
sh owed
sh oul
An sätze
An zeichen
scha fter
its ky
fe et
ik ament
ik ares
str ive
Sch ritten
Er halt
Er ster
Er hebung
ue ller
tra gt
Vor fälle
inter fere
Ar mee
ens werte
Ab lauf
ple x
lin ing
polit ano
du al
Fra geste
nach teil
pos iti
pl äd
Ein bindung
dis appointment
pre ference
national ity
work force
kon zept
ser ved
teil ten
Um stand
Um lauf
iert es
Ma de
any body
ious ly
uropä ische
fre ier
fre ige
mehr heitlich
geb rochen
Dies em
arbeit e
zw ing
ins on
Menschen würde
Menschen handels
bo y
land fill
Grund rechten
iß en
problem atik
produ ktiv
pon ien
gleich er
ific ial
Maß stä
Sta es
Haus halte
ganz er
art icles
isen berg
besch ä
air line
air space
organ e
recht licher
main tenance
Me ere
Le uten
aid s
voll wert
may be
af for
Or igin
necess ity
Ne ither
Fall s
Tr an
Tr ennung
Mon opole
Regel werk
Verbrauch ers
Haushalts disziplin
offen er
Br ut
commun it
contro lling
Ha ve
wert volle
gew ichte
exist ierenden
Gesch wind
cost ly
Fund ament
begrüß enswert
eigen es
integr ity
integr ierten
colle cted
zusammen fassen
Ch em
eig net
let ters
pens able
fehl er
gratul iere
schutz es
Qu ote
Austr ians
sur plus
mut lich
char ged
char akter
rele van
Bar ak
Dienst es
admin ister
Hier bei
kr ise
kr isen
Wieder ver
gesellschaft liche
Govern ments
vol ks
kom pet
auszu üben
Verfü gbarkeit
erreicht en
emphas ising
abzu geben
abzu schließen
Pe ters
rac ies
found ing
Pal ästinens
encour ages
Außen beziehungen
San ta
klein ere
blo ße
South ern
bl ue
Pre isen
iver sit
sk andal
structure d
Raum es
abge deckt
Rede beitrag
Ro ten
miß achtet
Fern ando
lot te
ürz t
fal se
tele phone
avoid ing
sämt licher
investig ated
mel den
90 er
National ität
intens iver
Stat ist
anders wo
emer ged
Berlin er
Hoff entlich
Brüssel er
mist aken
Stär ke
ersch wert
Entscheidungs findung
ökolog isch
break s
Haft ungs
dep loyment
occur s
exem pl
Meinungs äußerung
Po sten
benach bar
Klar stellung
abol ished
record s
Befür wor
spät estens
vertrau en
Betrugs fälle
occup ation
custom ers
beauf tragt
proble men
Vers auerung
korre kte
Hindern is
spür bar
fuel s
calc ulated
Meeres umwelt
sal mon
illustr ates
thorough ly
Ben achteil
fill ing
kü m
advis ers
transl ated
taxpay er
Schwä che
intoler ance
derog ation
fäll igkeit
bomb ing
dringen de
anticip ate
tank s
Herkunfts land
kür zen
Säu ber
Verhaltens kodex
schreit et
autonom ous
nör dlichen
vergleich bar
Bab itz
depl or
flood s
hous es
complain ts
Entlast ungsverfahren
Plenar sitzung
Refer endum
Vorgän ger
indirect ly
Gemeinschaftspolitik en
distingu ish
Hunder tt
strä ger
Menschenrecht spolitik
Anpass ungen
ham per
Informationstechn ologie
Posit iv
Asylbewer ber
einschlä gigen
Erd öl
serb ischen
Fil m
Fäl schung
FF H
Na politano
indis pensable
alternat ives
Bur ma
Bern ard
EW G
Kau ppi
Luf traum
bedür ft
confidential ity
jahrel ang
Vo gel
tagt äglich
ernähr ung
Transfer s
pharma ceut
Interpret ation
subscri be
approxim ation
Dat um
Zerstör ung
Chair man
Korre ktur
Indik atoren
wissens bas
ingred ients
Verschlechter ung
unmiß verständlich
Sofor thilfe
Izquier do
Vot um
concer ted
Similar ly
Clin ton
Mug abe
Oost lander
OEC D
Sorg falt
Tatsäch lich
iedel ten
verlän gern
positi ver
5 9
7 9
A part
A llt
D ial
E EC
G ü
H änden
K now
K roat
L ord
L yn
M at
M ach
M ary
M illion
N am
N iger
P or
P as
P feil
R ot
S TO
T ragen
T DI
T schech
W ein
Z entr
a ven
a val
d or
d rag
f ens
g no
g ift
h un
h emm
i po
i ös
k ar
k new
k ampf
k atalog
l us
m ie
n itten
o steuropäischen
p atter
p flanzen
p änen
s onder
s lick
u ge
w achen
w rote
z onen
en forced
er teile
er mitteln
er zeuger
er suche
in sp
in des
in security
ch amber
on te
an schein
un st
un realistisch
it ts
the men
al leg
al ia
re processing
st it
st al
ro les
ro ttung
ent legen
ent nehmen
le hen
be heben
be lastet
ge folgt
ge drängt
ge meldet
ein gest
ein tritt
au x
de pendence
wi dr
we hren
we cken
sch te
zu erhalten
zu künftig
zu stimmt
zu fällig
ver wen
ver gangen
ver gleichen
ver stößt
ver liehen
wh istle
ke ts
con ver
pro secutor
ir r
ir ies
ir ische
um hin
auf gebaut
sp otential
wer ke
Ver fe
Ver gabe
Ver weis
Ver haft
Ver spät
Ver lagerung
Un klar
In c
dem zufolge
ta gen
sen dung
gr and
ex hau
ex posed
ex agger
vor über
Be t
Be ton
iv ität
An ze
fe hle
sa ktionen
str ip
str itt
up p
up hold
Sch r
Er suchen
war nen
able d
ger au
br ut
ens ures
her um
Ab gesehen
unter liegt
et abl
Ent ste
Ent scheiden
Ent lassungen
mo dest
el ess
inc ur
ational isierung
Fra cht
fr ucht
Ein setzung
Ein igungs
Ge fangenen
alle ged
dis appeared
per form
per atur
like wise
conc ur
kon tra
kon ting
og hurt
Coun try
setz te
min imal
Kon s
weiter gehen
cy cle
fl ight
fl achs
sub je
Auf stock
mer its
forder te
wirk ungs
brauch e
cas h
gu idance
zeit lich
order s
respon ded
gest iegen
art ificial
Se ction
geordne te
bring ung
fest gehalten
bis weilen
Min des
resol ute
zwe ier
Al ten
Ste el
Ste uers
real e
real istische
Im pf
Im mun
beg leitet
curr encies
stim ul
ensure d
Verein heitlich
cl as
lang wier
reform ing
plan ungs
äuß ert
akt uell
Verbrauch s
Schutz maßnahmen
star ving
Li ber
zurück gegangen
zurück kehren
To de
gehör igkeit
bel n
contrib ut
cor nerst
pract icable
maß nahme
finanz ierung
Is lam
obje ction
Zukunft s
kle are
hervor ragend
month ly
Sol che
Person ally
transpar enter
Sp itze
prä g
anzu gehen
anzu sprechen
Gener ation
Med ikament
aufge zeigt
creat ive
versch mutz
14 0
akzept able
Den k
liberal ised
län glich
kr imine
wahr haft
Gesetz geber
Bel ange
civil ised
restr iction
Fest setzung
gute m
exp ed
auszu schließen
Dire ktor
equ ilib
tes ted
offer ing
Risik om
Lebensmittel behörde
Sum men
Invest oren
Geschäfts verkehrs
diskut ierten
rad ically
initi ate
dring liche
abzu schaffen
Human ressourcen
indic ating
gesetz te
poor er
chter t
Partner ship
Gericht en
san ction
modern ise
rang ing
continu ous
unabhäng iger
acce ler
chst grenzen
refle ction
offens icht
Sep pänen
attem pted
constit utions
eing reifen
author ising
schle chte
veh icle
prof ile
zä hl
Werte gemeinschaft
Red nern
erhö h
speed y
threat ens
death s
National ismus
198 8
recognis ing
Element en
along side
orient iert
Einw anderungs
Nord ir
Kur zum
adv ise
adv ised
moral ische
höch stens
optim al
wonder ful
vert ical
Verbr enn
nöt igen
Stre ben
Sa fety
grundsätz lichen
Che chen
Ad d
Ad option
depend ing
sonst ige
ausführ licher
wit ch
IC C
announ cement
Italien s
Eing reifen
appar at
stor age
Willen s
dro hen
ren ational
beabsicht igen
comply ing
räum t
Kommissionspräsident en
lives tock
submit ting
mid dle
bestand en
Meinungs freiheit
Arbeitszeit gestaltung
proportion ate
adapt ation
offiz ielle
reiter ated
Straf verfolgung
Umwel thaftung
Nu klear
Presse freiheit
Pflanzen fe
Konsult ations
envis age
Auft reten
simpl ified
Vorsorgeprinzip s
Vorbe ugung
mobil isieren
Trans it
glück licherweise
depart ment
symbol ic
kohär ente
Beiträ gen
hom osex
slow ly
isol ation
kurzfrist igen
distort ion
distort ions
Verlust e
liber ty
Gew inne
bese tzten
beruf liche
Landwirtschafts ausschuß
Urspr ung
anspruchs vollen
Bab itsky
compl iment
Sachverständ iger
aspe kte
verdeut lichen
Imp uls
Imp ulse
heik len
desper ately
accommod ate
hosp ital
severe ly
Polit ical
gesto ßen
Grundprinzip ien
Herzego win
philosoph y
confer ences
Früh jahr
vigor ous
Merk male
suspic ion
infringe ment
Cas aca
herange zogen
getrenn te
kä me
Erkennt nisse
zukunft s
corpor ate
miser y
Certain ly
Agent ur
analy sed
Phil osoph
ermächt igungen
Emission shö
eradic ate
finger pr
grem ien
Verarbeit ungs
recru it
Stür me
gentechn isch
Armuts bekämpfung
manager ial
reput ation
convic tion
aufrecht zuerhalten
Umschicht ung
jeopard ise
wis dom
resc ue
Anleg er
emphat ically
schnellst möglich
cleans ing
Baron ess
Croat ia
Vere hr
Beein trächt
Made ira
zwing end
relevan ten
Kroat ien
STO P
anschein end
Aufstock ung
Vereinheitlich ung
equilib rium
Emissionshö chstgrenzen
0 18
5 24
A 2
A dr
A lar
A BB
B ra
B ese
C ad
C ong
C ivil
C rimin
D G
D s
D up
E t
F eind
G ast
H y
H im
H ür
H ud
J ud
K K
K ub
K lau
K asch
K ambod
L ücken
M un
O mb
P utin
R assen
S ud
T ues
U kra
W ien
W hether
W HO
a waiting
c ite
d read
d oppelt
e igh
f abr
i ably
j unge
k op
k äu
l abor
m ache
m achten
n est
p hr
s la
s ine
s inken
t ur
t auch
w unden
ä le
en vo
en det
en rich
er er
er zeugung
er hielt
in j
ch ief
es p
an ische
an setzen
an while
an ca
is al
un dern
at ro
or i
re public
re gend
re actions
st ir
st if
ar do
ar ises
ent ity
ent senden
ent sorgt
le hne
ge fahren
ge handelt
to u
ein genommen
de vi
de hnung
ur teilen
se es
ll i
ll or
for schung
ver ification
ver haftet
omm t
em in
lich em
da chten
ut ants
con dem
con fron
auf nahme
tr i
Ver markt
Ver trieben
Ver wirr
if iable
Un til
Un iversit
ag ung
ag ents
In fe
aus nah
dem agog
ind if
ive aus
li hood
os met
vor gebracht
Re ich
Re chnungs
ad or
co incineration
Be wert
ben ga
sh ot
qu ie
An ge
An dern
An statt
An sehen
ungs ausschusses
err er
err ors
do ors
igen den
wie viel
ann immt
wor ben
ap ar
ap able
ap ers
lo op
schaft s
par ents
Die jenigen
out lines
Aus dehnung
Sch ein
Sch atten
ger t
ger ät
inter regional
Ar z
unter laufen
unter streicht
mor gigen
inc apable
Fr ont
nach weis
pl at
Ein halt
Sie g
igh ter
Ge wissen
hin fällig
Au fr
dis pose
dis posed
dis play
national ism
work er
ör ungen
age ing
ear marked
Reg ions
ok es
ange legt
sol le
sup por
geb rachte
ak ters
Unter zeichnung
new ly
gesch eit
So wohl
ded icated
Grund werte
oper ates
sub vention
mer z
produ ces
att ent
pa ß
emp find
emp funden
emp fie
emp fehle
lä cher
gemein t
oc racies
question able
gest ure
ues a
loy al
besch re
besch ließt
disc rep
Min ute
Besch leun
zwe imal
ri ver
Wie benga
Umwelt katastrophe
transp osed
Im mer
Me ß
Me anwhile
Le vel
Le iden
Mar fil
Dem zufolge
Ges che
bre eding
industr iellen
Her bst
ausge gangen
ausge glichen
press ive
ret ten
cl im
Arbeits lose
zahl ungen
Kr is
Teil ung
Mon tre
Stand ort
acc us
Haushalts vor
invest itionen
speak s
stär kt
markt es
zurück gehen
12 84
kün st
back s
comple tion
arbeiten den
Fisch fang
sum m
appropri ation
obje ktive
Man che
Qu äst
hervor zu
hervor gerufen
express es
inform al
Nor mal
Verwalt ungsverfahren
draft sman
Dienst ag
prä vent
dest abil
ko oper
gra ve
allgem einem
pop ul
pop ular
erb racht
geschlossen en
Res ult
Amer ikanern
wahr genommen
umfassen der
gemeinschaft licher
Instrument s
Instrument ar
pass ieren
Je wish
poll utants
dist urb
viol ent
auszu setzen
schlä gen
expect ing
Wach samkeit
abzu bauen
Selbst bestimmung
circ le
found ations
imp liz
Volks wirtschaften
benefit ing
Nahrungs kette
sex uelle
klein es
Nicht ein
Co x
Partner schaften
hung er
nu kleare
ethn ischer
erheb licher
analys iert
innov ations
einheit liches
äl tere
Komprom isse
limit ation
limit ations
Fern ndez
histor ischer
Op port
legitim en
alloc ating
interpre ters
incorpor ating
Augen merk
proceed ing
renew ables
author ise
Spe zial
ec osystem
mel de
beru fen
gering eren
consult ing
aut umn
acqu ire
198 4
198 5
Tier futter
umwelt politischen
separ ately
concentr ated
chem icals
orient ation
orient ieren
schäd lichen
Nord ische
Fun ktionen
emer ge
ca pe
entscheid ung
explo ited
Vorbereit ungs
niedr ige
proz ent
centur ies
ctor ate
Personal politik
Gleichgewicht s
Sonder gipfel
sinnvoll er
Mitarbeit ern
ino sen
Erwä hnung
Brenn stoffe
Übergangs fristen
Freitag s
patent ing
She tland
ergeben den
federal ist
publ ish
ordnungsgemäß en
enjo yed
Inspe ktion
rid ing
pat ents
pat ients
diplom atischen
postpon ing
deleg ations
Verf assungen
russ ische
counterfe it
außen politischen
angekünd igte
Ganz es
Sign ale
exception ally
supposed ly
clean ing
beraten den
attra ctive
Innov ationen
Mand ats
Mart n
retain ed
calc ulation
Zug eständ
kohär ent
erleicht ert
1990 s
domin ated
Abänder ungsantrag
erneu ten
advis ory
schwed ische
Du isenberg
resist ant
permit s
kurzfrist ige
Four tou
dollar s
count less
Sk andal
verantwortungs bewuß
Akt ien
Mot or
beseit igt
pap ers
tank er
Prop os
shame ful
quar ter
consc ious
Fäh igkeiten
fäl schung
Schnell hardt
dur ation
voranzu bringen
Weit ere
Straft aten
Tem peratur
pflanz lichen
ersta unt
Grö ßen
SC R
persu ade
Inner es
Inner halb
Ausgleich s
redund ancies
Kranken hä
desper ate
privile ge
detaill ierte
verfüg baren
Mißverständ nis
exec ution
compla int
justif iable
Oper ationen
Herzego vina
drug s
irak ische
Subst anzen
Dikt atur
Telekommun ikation
catastrop he
unequivoc ally
Rob inson
drit tens
alban ischen
newsp apers
Staatsangehör igen
fasc ist
prosec ution
gesonder te
gig ant
summar ise
Mod alitäten
awar ding
ergeb nis
wass ers
Könn ten
entschuld igen
Behaupt ung
intern ally
Fü lle
Ausbild ungs
pertain ing
Fischereise ktor
Dolmet scher
bewe gt
Fal sch
anon ym
Spezif ik
Gefähr dung
beschl usses
Hauptz iel
Göte borg
Vir us
untergr aben
Konkurr enz
bask ischen
Trink wasser
Besorg nisse
Exe kut
Edu cation
Hav ar
Kennt nisse
appra isal
Risikok apital
Zuständigkeits bereich
aest ors
pron oun
Produktpir aterie
Nass au
veterin ary
Babitz k
Entste hung
Nordir land
ICC AT
Herzegowin a
Philosoph ie
Cong ress
Crimin al
Him mel
Hud ght
Ukra ine
condem ning
ausnah ms
Andern falls
empfie hlt
Beschleun igung
Quäst oren
0 30
6 8
A qu
D AC
D ossiers
F u
F asch
F uster
F usionen
F üßen
F errer
H üter
H ushkits
J ohn
K örper
K ash
L O
N L
N ext
N II
P ur
P op
Q uelle
R ä
R asse
S ein
S eine
V ic
V ien
b ab
b innen
c u
c ards
e kl
e gal
g ner
j u
j ü
k ürlich
l n
l ärm
m us
m ug
m ud
n am
p ul
p ac
p age
p halopath
r and
r ungen
s hap
s hel
t ein
u ber
v ac
v ierte
w ü
y ers
z ypr
Ü bel
ä en
ü m
en em
in tell
ch ard
an ze
an wend
an lage
an gestellt
an passen
an erkennt
is onment
un auf
un clear
un usual
it able
ie in
or te
re ver
re ff
re plies
st ic
st ore
st änden
st yle
ar ischen
ar rest
le v
le hr
as set
ge ared
ung leich
ein schlagen
au b
au g
au to
de llen
de eds
ur er
we ib
ve to
zu halten
zu satz
zu läßt
ver träge
ver länger
ver bergen
ies en
ab sor
ab used
ra rely
il ation
il assung
he gen
ne imit
ir on
res id
res ignation
auf richtig
auf wand
sp reading
sp okes
tr ennen
wer bst
me x
me al
me lt
Ver gemeinschaft
Ver pack
not es
if ul
if fe
aus es
aus reicht
aus wirkt
aus drücken
ta pe
ges unde
vor teil
vor stell
Re den
Re commend
Re präsent
ident ification
ident ifying
Par allel
port fol
co operating
ess im
Be fug
Be griffe
Be griffs
ben ennen
We gen
nen nt
ze hnt
An griffe
Th ree
scha den
ib bean
hen de
out line
str ich
Aus schluß
Aus gangs
Aus sprachen
up date
Sch le
Er ziehung
Er rungen
there of
imm unity
tra ge
Vor entwurf
inter med
pr ang
pr isonment
Ab end
Ab sätze
Ab wicklung
unter stellt
ers atz
du b
du ly
sel n
Ein en
Ein sicht
Ein spruch
Gr ön
Gr upp
dis regard
pre chen
ün den
schl üss
fore front
iz es
ip s
zum er
ank ungen
ank ommt
teil genommen
teil zunehmen
under took
ast on
cr ib
Ja vier
sup pose
get ät
Kon ventionen
änd ig
uch ten
schließ ung
hier mit
agre eing
So llten
bo x
bo te
system atische
Ko hl
Auf teilung
bas ieren
Über schreit
Zeit ungen
zeit igen
human e
ence phalopath
Zu ver
ient en
ganz em
Se g
sicher er
Fre ilassung
govern ed
fest legt
techn ically
isk y
ine qualities
kehr ungen
Al ger
abl aufen
ele ven
ele ph
Bürger rechte
Bürger beauftragten
sozial istischen
Rechts ausschuß
währ ung
Le tzt
Mar k
Finanz instrument
reason ably
Berichterst attung
hol es
hol ung
hol fen
cl auses
Mö glich
plan e
trans ferring
Tr ib
acc orded
zeug nisse
12 5
gehör te
jo ined
concl udes
enth iel
finanz ierten
integr ieren
vis iting
Dar f
Stra fen
Struktur politik
priv at
appropri ately
ep ing
obje ktiv
einzu stellen
Ind ian
Beispiel sweise
inten se
reco ver
Regierungs bildung
hervor rufen
Betr ieben
Programm planung
lauf ende
anzu streben
jud ic
Vertre ters
dien lich
commend able
kr ie
Wasser qualität
Wasser ressourcen
Geld es
Überein kunft
angenommen e
Bel grade
Wahl kreis
Fortsch ritten
vorzu sehen
she ll
Zweit en
Schwe igen
excl ude
Pe oples
found ation
nehm ung
mis understanding
Bo y
gesetz liche
betroffen e
blo ß
eingehen der
Gelegen heiten
Flücht ling
zentral er
address es
herr schaft
mitglie d
Strukturfonds mittel
Strukturfonds verordnung
Freiheit lichen
tradition elle
irgend welche
Rede beiträ
scho ck
funktion ierenden
Protok olle
kontroll ierte
Ho her
Kern anlagen
super v
Chr is
Beschäftigungs möglichkeiten
Kampf es
Ang olan
staff ing
eingesch lagen
bilater aler
Econom y
ec olog
consult ations
vereinbar ungen
jur istisch
Gesundheits fürsorge
intens iven
Deut schen
enable d
bill igt
Kar l
Fahr zeugen
afr ikanische
Sto ff
Zur ück
Inst anzen
später en
voraus gesetzt
voraus setzt
observ ance
explo iting
optim um
kräft ig
bein ahe
prefer ential
koh ärenz
Sa at
associ ate
Ad resse
verbind ungen
Terr n
vertre t
deliver ing
stor m
geograph ische
excess ively
harm less
class es
Rechnungshof s
Rechnungshof es
Insel regionen
Alters versorgungs
bound aries
perman ently
secure d
Bro vina
jetz ige
Car ibbean
hil ft
niemand en
Umwel tz
Weiter führung
iö sen
rid iculous
Ter mine
migr ants
vertrau ens
Konsult ationen
endor sed
Sitz ungs
cance lling
cance lled
nachzu kommen
ED D
46 8
mobil ise
Vers ion
uche lei
günst iger
conce al
Versicher ung
ugg ling
vieler lei
kohär enten
Lang zeit
Glück wunsch
modell s
Aid s
Schuld igen
Verb ände
Generaldire ktionen
Bedürf nissen
Parität ische
genie ßt
Yes terday
forese en
inevit able
Einwanderung spolitik
anticip ated
deliber ately
tank ers
Prop aganda
schwä chen
Stahl industrie
engag ieren
motiv ated
Fas er
rassist ische
infe cted
valid ity
EURO DAC
Trag weite
kür zung
zivil en
vorn herein
demograph ischen
Nacht flüge
shaus halts
Europar at
disappear ance
theoret isch
Bla ir
scandal ous
Investitions bank
Plenar saal
gä ste
enforce able
anhalten de
kontinuier lich
Krie ge
Mult is
nament lich
biolog ischen
risik en
Schad stoffe
weitreichen den
dissemin ation
Conserv ative
engl ische
erfreu lich
widen ing
Telekommun ikations
mod us
thet ic
brid ge
perpetr ated
enthusi ast
devast ating
legum inosen
partial ly
erstre cken
justit iellen
transpor ted
prece dence
mittelfrist ig
Elektriz itäts
Differenz en
Opt ionen
unum gän
Pet itions
sacr ific
Grundrecht scharta
nar row
tort ure
aufer legt
ifun ktion
manif est
magn ific
Erläuter ungen
ituation en
häuf iger
verwal tet
perce ived
dischar ges
erstaun lich
Gült igkeit
bewaff neten
Scha fen
arbitr ary
Entfern ung
unverzicht bar
Schätz ungen
acid ification
deepen ing
Britt any
fakt isch
Enttäu schung
Körner leguminosen
Mur cia
Brut to
küm mert
Niger ia
eingest uft
Entscheiden d
Kasch mir
Omb udsman
Sud an
Tues day
dread ful
Vertrieben en
Verwirr ung
Arz neimit
Montre al
Haushaltsvor entwurf
summ ary
Hudght on
Kash mir
Vien na
intell igence
werbst ät
prang ern
2 40
6 3
6 13
B al
B alt
B ret
B uesa
C am
C hen
C ast
C anada
D M
D un
D um
E qual
F arm
G il
G az
H is
I ma
I deal
J an
K S
K anada
L ink
L ichte
L ücke
M uch
M achen
M asch
O t
P an
P fund
S n
S ä
S and
S ynerg
T äter
V el
X u
b rachten
b lieben
d ir
d able
d liche
d ying
g ien
g ulf
h ingen
i ke
k ost
n ames
o cau
r ic
r isen
r ichte
r iot
s n
s ynerg
t ig
t ied
u is
u do
u ert
u fel
v ation
v ort
v able
w inn
w üß
w ahre
z og
ö tet
en äen
er be
in ity
es cape
an ter
an chen
an cho
is er
is ierungen
un klar
un nötig
ie gel
or gen
re me
re placing
st ür
ro lling
ent ieren
ent stand
le ts
be will
be läuft
be herrschen
be handelten
ge k
ge op
ge danken
ge griffen
ge gründet
ge antwortet
ein gangs
and als
and auern
de tra
de vote
de gress
de hnen
om et
ur teile
se ats
se udo
am mer
we i
we ge
we iger
sch ichten
im balance
im balances
im prisonment
zu gang
zu gegeben
ver miß
ver zögern
ab sent
gen ce
he ll
he lic
pro ben
res idents
auf geb
auf wend
auf stellen
sp in
sp lans
tr am
ort s
wer ken
op ted
ach es
Ver g
Ver nicht
Ver schuld
ul a
if ikation
ag ent
In haft
In toler
aus schließ
aus geben
aus macht
aus sage
aus schlag
dem ocracies
ind ul
ind igen
li a
li quid
gr asp
Re gen
ad m
ste he
co ws
co operative
Be fried
über sehen
über trieben
ben i
ma p
sh ipo
qu elle
qu asi
will kürlich
We ih
An son
Th ors
scha de
ib r
do w
ann ten
fa ktor
ern sten
ern annt
fe e
par ame
ik s
rä ger
Pro v
man cher
Aus stattung
Wir tschaften
Sch o
Sch rift
Er reichen
wo her
war tet
ac compl
inter action
bes ides
Ar ch
Ber end
unter zogen
unter nehmer
weit est
Ent weder
Ent sendung
coun ts
coun ting
Parlament spräsident
dis regarded
dis abled
ill es
od ds
ör ung
ör ter
ide ut
schl üsse
erst reckt
Das selbe
gel s
gel ern
ange geben
Comm ittees
polic ing
Ma il
Ma fal
Ma instreaming
sup pl
sup plies
int ing
min istr
De parte
De ponien
get ötet
Kon solidierung
führ end
führ bar
econ te
gesch l
gesch afft
weiter zu
europä isch
vie t
Zus icher
cy n
hier archy
fo ol
Menschen leben
land es
Auf wand
att itudes
best reit
gleich gültig
cour ses
Europa wahlen
har sh
Zeit ung
gu the
respon sibly
atz en
social ist
lau ten
lau dable
Se en
Con c
less on
less ly
wieder herzustellen
Rahmen programm
legisl ature
recht mäßig
Ste hende
real isieren
Im beni
beg nügen
Mar ko
voll zieht
Fl uß
Fl chard
klär ungen
Her den
Char akters
hä l
ausge weit
ausge legt
press ures
Recht fert
zeich nungen
Ne uer
rec i
Teil nehmer
trans nationalen
trans missible
Hand hab
He uchelei
akt ual
Haushalts linien
serious ness
zun ichte
zü gen
extre men
star ts
defin it
kur se
Welt krieg
To o
To gether
kün fte
mil est
jen es
Gesch mack
Fe ld
Verantwort lichkeiten
down ward
integr ierte
vis its
colle ct
atten ded
Ch i
appe als
direct or
Reform prozeß
Gleich stellungs
ikan ischer
obje ktiven
understand able
sector al
ged ient
Kom pl
Kom plex
Erweiter ungs
aim ing
absol uten
mut igen
Demokrat ien
objective ly
Sp ionage
ene es
organis ational
Viel mehr
pop ulated
EG KS
län en
.. ..
ev il
Wieder ein
eth ischen
Mil cher
request ing
vol at
Rei hen
dist anz
coordin ating
auszu arbeiten
Sicht weise
recommend s
gelten d
zentr en
Isra els
top ics
Luft qualität
Luft verschmutzung
Pe ter
Miß wirtschaft
mis use
nü tzt
total itarian
Plen art
bl ing
bl atant
fil led
modern ising
Integr ität
sk il
einheit lich
einheit licher
Sicherheits rates
aufzu heben
live d
irgend eine
solidar isch
list ing
Ro jo
discrimin atory
rene wed
Verkehrs un
Erfolg s
offens ive
beschrän kungen
Erfahr ungs
distrib ut
Völker gemeinschaft
immigr ant
potential ly
heraus gestellt
asse mbly
Eisenbahn netz
mess ages
encourage ment
Plenum s
Erzeug nis
veh ement
mensch licher
Asyl politik
claim ing
Prä vention
wissenschaft lich
Gesundheits schutz
Zivil bevölkerung
Wes te
ref using
Wiederauf nahme
Wiederauf bereitung
bill iger
log isch
orient ated
Haider s
wind ow
Sto ck
Inst abilität
vorher gehenden
judge ments
berecht igten
Agricult ural
Tro cken
optim istisch
apprec iated
autom atic
Spiel regeln
ökonom ischer
Voll endung
attempt ing
Sach ver
Bestand teile
stattfinden den
ausgewogen es
Consum ers
unmittel bare
weak er
combin ing
höher er
Chance llor
fried lichen
Mir anda
Kontin u
ignor ing
ignor ieren
interpret iert
steuer lichen
defic its
stabil en
verbr annt
verurs achten
worr ies
dram atically
dram atischen
verletz en
moder ate
verz ichtet
advoc ated
niemand em
rück en
ehrgeiz igen
Inspe ktionen
elimin ation
mittler weile
rev ise
gegenseit ige
Höchst grenzen
cance l
nütz liche
fand en
ij s
insist ing
thir ds
belong ing
Ele f
vorrang ige
bedeut same
attra ct
endeav ours
Mart nez
calc ulations
anspruch nahme
gebill igten
courage ous
verwe igert
197 3
bedauer licherweise
kil omet
tä glichen
komple xen
touch ed
exc ise
durchge führte
Alt fahrzeuge
gl uten
zweifel n
förder ungs
verschle chtert
fäll igen
sil ent
inhalt liche
lock ed
dringen den
Auseinander setzungen
attend ance
erzeug nissen
beruhen den
ernsthaf ten
Erwäg ungs
Unternehmer geist
punish able
Rechtsrahmen s
schul den
durchschnitt lichen
Wohn sitz
wohn ern
multilater alen
makro ökonomische
verw under
Beschrän kung
Mittelmeerr aums
wies o
Aufsicht s
ratifiz ieren
Sof ort
Ök ola
heik le
Erfordern isse
Unionsbürger schaft
anhalten den
befug nis
admitted ly
pled ges
psych ological
Geschle chts
angestreb te
Kred it
scept ical
verheer enden
übergreifen den
vigor ously
fremdenfeind liche
ausländ ischen
konz ert
Empf änger
unequivoc al
EAG FL
EAG GF
enthusi asm
Pyr enäen
Pyr enees
apolog ise
embra ce
Mehrwert steuer
Bulgar ien
frank ly
deploy ed
alli ance
appl aud
dereg ulation
forecast s
besorgniser regend
inhaft iert
recit als
monat lichen
Haushaltskontroll ausschuß
lorr ies
tau ght
schott ischen
dial ysis
Erwerb s
transatlant ic
Umweltze ichens
Fa una
Kil ome
vorsitzen den
offenkund ig
administrat iven
Wettbewerbsverzerr ungen
Billigflag gen
kanad ischen
knap pen
Rac ism
verabschiede ten
Finger ab
phon es
Schü ler
Erleicht erung
defiz it
Wurzel n
prolif eration
excit ing
Theor ie
Colle ge
Cambod ia
Zin sen
mic ro
abgest imm
grü nen
exempl ary
Beton ung
Anze ige
Kons ument
subje cted
Immun ität
Verehr te
Bese tzung
Dup uis
Kambod scha
eigh teen
Vermarkt ung
Propos al
Größen ordnung
Vic econte
anwend bar
Recommend ation
dub ious
Langzeit arbeits
magnific ent
Ima ge
Vel zen
ocau st
helic op
Anson sten
Mafal da
Handhab ung
kilomet res
A g
A gain
A rea
B or
B ench
C l
D C
E ck
F öderal
H u
H ug
K ernen
K ampagnen
K unst
L iter
L ernen
N E
O ld
O ption
P es
P illar
R ü
R ou
R ail
S ing
S pur
T om
V E
V ac
Z onen
b auf
b ian
b old
d icht
d ische
e ase
f als
f asch
g alt
g old
g üter
h em
h ushkits
l ungen
l uck
m 3
m d
m unter
n iveaus
o x
p it
p fe
r ation
s au
s cour
s ighted
s abotage
t it
t aten
u chte
u dence
v ice
w olle
w undern
z ones
ö ver
ü stet
er achtet
er arbeiteten
er worben
th es
an liegen
an geschlossen
an bieten
an tast
un ite
un ately
un ification
un ambiguous
the me
or ge
re think
re pression
st ation
ar ro
ar tet
le m
be geben
be fragt
be lasten
as ien
ge ziel
ge wohn
ung ünst
ein richten
ein richtungen
te ch
te enth
de ment
de du
de priv
se ch
se uch
se lling
ll a
we igert
zu meist
ic ker
ver setzen
ver laufen
ver läuft
ver hütung
ver schlimmer
ver mutlich
ab st
ab schaffen
ab hängt
em erg
ra wi
da hinter
da iry
ir relevant
um geht
res tra
auf geben
auf bringen
auf geschlossen
auf zustellen
auf gesto
sp lend
sp osition
tr aten
est ag
Ver ordnungs
Ver dacht
Ver seuch
ul ose
if en
In dem
In anspruchnahme
aus zur
aus schließen
aus enden
aus lösen
dem selben
sen kung
li ba
vor ant
vor gezogen
vor dringlich
vor schlägen
ck ten
Re ferenz
ste ten
ste igern
ma cks
pe lle
qu er
ze igten
An lauf
An wohner
ungs systeme
fa ther
ern ing
wor an
wor ded
St ein
St imm
En large
out rage
llen ce
Pro vin
Mit teilungen
Aus lands
Aus breitung
Aus rüst
Wir ken
reg a
bei ro
bei gemessen
lt ank
Er lernen
dar zulegen
war tung
ger ückt
Vor ab
Vor hand
bes iedelten
bes prechen
Ar me
fer nen
ens ur
Ber gen
Ab stand
unter min
unter zeichneten
wa sted
el f
ers ichtlich
sam meln
sta be
nach ts
nach gieb
Bericht es
Ein leitungen
Ein vernehmen
alle mal
dis appointing
pre condition
national es
iz za
ip erson
mar ker
hand ful
inst ig
cau t
lic ences
kommen de
Ma x
Ma th
fol d
geb ührt
ak ultur
Unter richtung
arbeit er
gesch wächt
gesch nitten
weiter ung
utz er
hier her
Än g
So ll
So viet
prov ince
Menschen handel
Menschen verstand
Der artige
For mer
Inter nationale
Auf träge
mer ger
ustr ie
read ily
Zusammen leben
lä u
Über trag
Über setzung
Bere chnung
gemein wohl
Zeit alter
zeit liche
zeit weil
wirtschaft liches
Jahr zehnt
Bereich s
Bereich erung
Zu schläge
Zu weisung
ganz es
Se ch
trag ischen
Fre md
geordne ten
comp are
far mer
want ing
stimm te
Str enge
disc re
io vis
ster weiterung
komm entieren
ri age
Rahmen beschluß
differ s
Nach teile
requ is
wn ers
besser es
sc andals
Finanz ielle
Finanz hilfe
Finanz märkten
stim ulate
fahr zeug
Recht setzung
law yers
öff net
cl es
safe ly
klar gestellt
trans formation
zeug nissen
Br ü
Br ie
zü gliche
defin es
Am ong
Am ado
Sozial partner
Em bry
back ed
Fe ira
erk r
help s
vis ing
ents prochen
Ant iperson
Dar stellung
Dar lehen
schein bar
promo tes
Markt anteil
achieve ments
Liberal e
Liberal ismus
Wor k
trau r
Erweiter ungsprozeß
individ uellen
period ic
Qu aestors
bur ger
mut ually
feel ings
Fort führung
Fort unately
Wh ilst
prevent ative
Ex trem
äd chen
äd oph
del ight
uni verse
applic ants
Fol ter
third ly
transpar ente
success ive
anzu sehen
schwer er
gra ded
gra vier
versch m
ifiz iert
üh ne
liberal ism
exce llence
ev olution
Sub vention
Geld geber
Wettbewerbs regeln
Mo de
keep s
poll uting
particip ated
subsid ised
head way
constru cted
auszu sprechen
auszu drücken
Dam als
met als
Dire kt
tes ten
grenz werte
lement e
Volks gruppen
Außen hilfe
Miß trauen
gesetz geber
nü tzen
Techn ical
hung ern
zeichne te
Nahrungsmittel sicherheit
Informations k
Informations austausch
Vereinbar keit
gre ß
tradition ally
Schwier igkeit
infl ux
mot ives
Zusatz frage
Richtlinien entwurf
größer es
Völker mord
alloc ate
Absicht ser
pursu it
six teen
perfe kt
wirksam es
return ing
Prä ferenz
profit iert
Zivil isten
Tier ernährung
Wahr nehmung
bill ige
sitz t
beein fluß
Einzel nen
concept ion
condemn ation
Inst it
politisch em
Schulden last
optim alen
schn itts
industrial ised
erforderlichen falls
niedr igen
proz essen
bericht erst
Nieder schlag
mä chte
reject ing
Sonder beauftragten
heim gesucht
entgegen zu
Eing ang
Währungs reserven
stor ies
lit ten
unzu länglich
Gest alt
genere lle
steuer liche
einf ließen
reib ung
spolit ischer
Lauf bahn
Schaden s
dict ators
entschlossen e
züg ige
uel s
präz isiert
Beweis last
konsequ ente
Gesam th
prosper ous
denk bar
Ärz ten
relig ion
protest ieren
Kre ise
erweiter te
Mobil isierung
equip ped
schreck liche
Vers äum
Vers öhnung
verm ute
consolid ated
issu ing
coll ap
Konvergenz kriterien
Real itäten
präsent iert
Handeln s
Streit igkeiten
Ausmaß es
Zwischen zeit
weap on
verwe igern
Bil der
Sah rawi
verpflicht ungen
Pens ion
weight ing
genehm igen
debatt iert
größt mögliche
schö nen
diox ide
Fet t
verschle chtern
doppel te
Bewerber länder
Prof ite
Buch stabe
stab ile
geleis teten
Gelt ungs
restor ed
beruf ung
motiv ation
Eigent um
rassist ischen
EURO POL
incident ally
radio active
verzerr en
voranzu kommen
voranzu treiben
durchschnitt lich
beschleun igt
Süden s
endeavour ing
regre ts
expand ing
bürokrat ischen
bürokrat ische
Palestin ians
radik al
radik ale
install ation
Erschein ungen
diskrimin iert
inqu iries
leite te
metho de
weakness es
Spr ung
Angehör ige
hosp itals
distingu ished
Minen räum
komplex e
aqu ac
risik o
engl ischen
Subst anz
tenden cy
newsp aper
gründ liche
Treib haus
legum es
Staatsbürger schaft
Bulgar ia
secur ities
Gewiß heit
assum ing
klag ten
medic ines
Sar dellen
Buiten en
Bot schafter
bekun den
verkün den
Relig ion
advert ising
Aufen thalt
verlag ern
vernachläss igt
Betre iber
Entschuld igung
dismant ling
Deleg ationen
ämm ung
vereinf achen
Sensibil ität
Gas liba
plä ne
konsult iert
Siedl ungs
yard stick
tox ic
berühm ten
Vertr ieb
Lehr er
expla ining
schlüssel ung
vertie fen
Hemm nisse
hect ares
Gemeinsam er
kapaz itäten
imprison ed
verf assungs
allevi ate
wässer ung
remed y
Kompon ente
intellig ent
Etap pe
SA VE
gebühr end
Konzep te
erkenn bar
UNIC EF
Ri beiro
arbeite te
Maßstä be
Peters berg
Positiv liste
Lyn ne
dor thin
Verfe chter
exhau st
Ds ir
Hür den
Mun ich
esp ionage
atro cities
quie t
Kris ens
hervorzu heben
Havar ie
Babitzk ij
Aqu akultur
Hüter in
verlänger t
Cast ro
hingen ommen
wüß te
Vernicht ung
Intoler anz
Befried igung
Plenart agung
Kontinu ität
helicop ters
Rü big
Vac lav
verschlimmer t
aufgesto ckt
splend id
Enlarge ment
gravier end
0 5
4 32
A li
A mo
B i
B orr
C S
C un
C ur
C ard
D re
D ere
D ör
D age
E ce
F uels
G all
G olf
H or
H än
H amb
H AD
K lagen
K allström
L iz
L AF
L aut
L ager
M s
M uß
M ädchen
N on
N ich
N um
N ice
N izza
O steuropas
O sterweiterung
P il
P akt
P KK
R E
R io
S O
S R
S ow
S hu
T sat
V C
V ater
W yn
W andels
a w
a er
a pe
a wa
b ies
b ought
c entr
d up
d ossiers
e ating
e chter
f i
f ile
g ins
i ak
i ating
j ahre
k al
k lagen
l ighten
m om
m ig
p ern
s and
s burg
s oul
t ö
t am
t ant
t one
t ight
u ated
y al
ä ten
ä lä
ä thiop
ä hern
ü ger
er mittelt
in kt
in richtungen
ch se
th om
th altung
es cap
an bau
an schau
an regen
un ified
un nel
un schuld
un vereinbar
un weiger
at ri
the ma
or a
al ts
re fra
re concil
ich wort
st unde
ro ut
le ap
be lt
be legen
be fre
be har
be kennen
be denkt
be wegung
ge zielt
ge weckt
ge kürzt
ge holfen
ein nahmen
ein heim
ein dringlich
ein schränken
te ien
au gen
de uten
den s
ur an
we ichen
zu teil
zu viel
zu stimme
for mity
ver teilen
ver schließen
ver setzt
ver mögen
ver trieben
ver kauft
ed oph
ol der
ter med
ab ide
ab gebaut
em power
ra fen
rop h
he at
so s
so il
so hne
ct r
ne te
ne tzen
ne pot
ne tzung
isch t
con i
pro cure
pro tein
res ume
us ive
us ern
ha ß
sp her
tr uppe
tr inken
wer be
Ver d
Ver netzung
ul ieren
Un sicher
Un gar
ag ten
ag grav
aus gest
aus setzen
aus fallen
dem ic
ta kt
vor weg
vor bild
vor läufig
vor gebrachten
end iox
Par adig
über wältigen
über mäßige
ant ly
We is
ze pts
An n
An hebung
An sprüche
ungs programm
com fort
ib ia
ann um
St art
St ütz
schaft lichen
ik er
ik alien
En zep
Pro stitution
Aus rottung
Sch war
Sch äd
Sch ori
wo von
fü hle
war r
able hnt
Europä ern
ord entlich
Vor reiter
Vor kehrungen
inter rup
sie del
pr icing
ens ysteme
Ber lus
Ab teilung
inc re
sta un
lin qu
lin king
Fr anzös
fr anc
nach weisen
pl ight
pl ätze
Ein berufung
Ge tr
Ge halt
Ge gner
kann ter
ill on
ill ation
national ities
per verse
tre ating
ide o
wur zel
iz isten
ear n
Reg istr
che z
mar gins
kon zip
gel ö
gel der
anz ler
Um verteilung
any way
De ckung
gesch lagen
gesch ätz
gese tze
over haul
over riding
So ares
fl ank
fl ücht
fl uct
Grund wasser
Grund wassers
Inter ims
deut lichen
cur ious
inv itation
best rebt
Zusammen fassung
Über griffe
Über setzungs
äm men
gu iding
point less
stru ction
kl imat
Zu fall
Zu gehörigkeit
question ing
Se kret
view point
Te am
besch affen
public ation
public ity
dan kt
level led
komm erziel
Al p
adop ts
abl er
legisl ate
Umwelt verschmutzung
Bürger s
Rechts ordnung
Da y
beg ann
every day
Me as
ful filling
Politik bereichen
Nach richt
Nach weis
wn ing
besser er
Euro just
Euro zone
Her stellern
posit ives
hol z
ho to
fahr ts
Recht st
reform ieren
kun den
Tr end
before hand
spolitik en
ordin ate
wish ing
redu ziert
invest ing
10 1
10 7
zü chter
gere chter
ika inen
Kolleg ium
Mad ame
agen das
gew andt
Sozial fonds
Sozial istischen
Sozial charta
jen em
einge leiteten
commit ology
ict ions
risk y
back wards
concl uding
cor pus
favour s
Fe der
Fe uer
med ien
Verantwort lichkeit
Lös ungs
approach ing
zusam ment
druck s
ru fe
Dar legungen
för m
Ch iqu
Bes atz
Organ isations
post ing
step ped
priv ileg
grat itude
understand s
Standpunkt es
merk würdig
dau ert
EC SC
Bei legung
Programm planungs
communic ate
Wh atever
gerade zu
short age
Grün d
anzu bieten
Med ia
aufge führten
subst itute
Währ ungen
Rück nahme
Rück führung
liberal e
hinaus geht
gefähr deten
mult ieth
moment um
Res source
vier tel
wahr zunehmen
iner y
challen ged
care er
pass ive
Beitrag s
Wahl recht
Gesellschaft s
particip ants
danger s
enthalten e
Steuer ung
grün de
exp ired
Fischere if
Vertrau lichkeit
Schwe lle
dring licher
stre cken
Lin ien
Pe ijs
Volks vertreter
demonstr ations
elect orate
repe ating
final ised
Techn iken
competit ors
mechan ismus
soon er
bl ies
mittl ere
lö st
Koordin ierungs
doubt less
doubt ful
analys es
Raum ordnung
Sicherheits ber
aufzu fordern
provision al
tradition ell
bed roh
central isation
Verkehrs wesen
White head
interpre ting
Komm ent
immen sen
hinzu gefügt
hinzu zufügen
gän z
return s
Kompromiß antrag
Asyl suchen
Kl asse
aner kannten
Eind ämmung
jur istische
design ation
Friedens abkommen
Christ mas
zufrieden heit
separ ation
pack aging
focus es
garant ien
garant ierten
Frankreich s
orient ed
guard ian
hig end
moral isch
Einzel fall
useful ness
convinc ing
Ku wait
Alle in
Di plom
berecht igung
schn itte
Geb hardt
clo sure
Ad ministr
Sach kenntnis
reject s
ernst es
sonst igen
break down
defend s
pas sage
forget ting
unzu reichende
Verständ igung
block ade
According ly
Ethiop ian
descri ption
embar r
Mitglieds staaten
ehemal iger
entit lement
launch ing
Zyp erns
zer nen
Mor illon
highlight ing
Mexic an
attach es
facilit ating
Ord nungs
Stud enten
elimin ated
mach ung
mach te
mach inery
rev id
breite te
vorange kommen
Akte uren
Kre uz
Beste hen
occasion ally
veget ables
Vorbe halt
angekünd igten
Jugoslawi ens
glück lich
oppos ing
confir ms
Ungleich gewichte
conce iv
horizontal e
hom ogen
advis able
tä gliche
relie ve
schö ne
lap ses
fäll ige
acknowled ges
commod ity
Gew inn
protocol s
entstanden en
breach es
Vizepräsident en
Gelt ung
restor ation
Nutz er
pan el
Fas ern
Wähl ern
zusammenzu fassen
grav ierenden
Armen ia
Gesetzgeb ungsverfahren
Subsidiaritätsprinzip s
Detail s
tie fe
schul en
imper ial
ambigu ity
niederländ ische
strik es
Ratsvor sitzen
Europar ates
Europar ats
expens es
Anwesen den
contam inated
NAF TA
Pat ienten
proportional ity
entreprene urs
reve als
krank heit
Erfordern is
Air bus
Vorgän ge
Kranken haus
Spr ichwort
ermut igen
aren a
befug t
Deriv aten
psych olog
recy ce
Anpass ungs
Eingreif möglichkeit
shock ed
thal ts
teach ing
Conserv atives
corre cted
irak ischen
priorit ise
wechsel n
konz erne
Asylbewer bern
Que ir
Rob les
drit ter
europa weit
medic ine
entrepreneur ial
Elektriz ität
UC LAF
hum ans
anx ious
denoun ce
Aufen thalts
medizin ische
Indones ia
Rechenschaft spflicht
Reser ve
Reser ven
erled igt
prud ential
Konz erne
broadcast ing
mem ory
vorläuf igen
Zusch üsse
Meld ungen
tiefgreifen de
Dienstleistungsaus weis
diss atis
gau ge
kill ing
verze ihen
Oberflächen gewässer
Tit ley
aggress ive
Anhän ger
dictator ship
Rundfun k
Bom ben
unilater al
Reakt ions
moun tain
predecess or
spongi form
skept isch
Einheits währung
gewinn t
Aktual isierung
Rücküber weisung
Dür re
lifel ong
vict ory
Chem ikalien
Hundertt ausende
wissensbas ierten
Mat ikainen
Nam ibia
Pfeil ers
insp ired
alleg ations
Bet ween
gerau mer
kontra produktiv
Verbrauchs steuern
recruit ment
Beeinträcht igung
Klau sel
fabr ic
confron ted
discrep ancies
Zugeständ nisse
jü dischen
vac uum
reff ens
Vergemeinschaft ung
Grupp ierungen
Kohl endiox
enthiel t
judic iary
Boy ne
ecolog ically
Balt ic
Sn chez
ancho vy
detra ct
shipo wners
weitest gehend
Parlamentspräsident in
gelern t
Conc erning
Marko v
häl ter
ausgeweit et
Kompl iment
Elef anten
Hu hne
Kernen ergie
Pes älä
scour ge
tit le
emerg ing
Verseuch ung
Vorhand ens
Antiperson en
beeinfluß t
Gesamth aus
Treibhaus gas
Borr s
Cun ha
Dere g
Dage gen
Ece vit
Hän sch
HAD EP
Shu i
Tsat sos
mom ents
tant amount
unweiger lich
nepot ism
procure ment
Enzep halopath
Berlus coni
kommerziel le
Chiqu ita
0 19
2 16
7 8
A ga
B ä
B le
B ess
B ord
B ünd
B ündel
C r
C ol
C ross
D ritte
E qu
F ast
F ert
H ist
H el
H äft
H oll
K ein
K eine
K äm
K abinet
K ette
L ach
L esen
M P
M i
M oral
M ischung
M aterie
M uster
N ah
O ft
O ffic
P R
P ier
R ate
R end
S ix
S later
T ask
T orf
V G
W ulf
Z ement
Z ert
Z igare
a x
b og
b urn
c um
c li
c led
c igare
d imin
d ritt
f iled
f lying
h id
h est
h är
h nisse
j ün
k au
k reat
k ategor
l ent
l ings
l ene
m än
n y
n öten
o ted
p ig
s witch
t ue
t ong
t ired
z il
Ö ltank
ö glich
ü tzt
er al
er gehen
er langt
er hebt
in tr
in os
in ations
in struct
in coherence
ch ung
ch selt
th ar
on sor
an strebt
is ible
un te
un justified
at mosp
or ies
or ten
or ted
al ike
re generation
re deployment
st ree
ar s
ar ab
ar me
ent be
ent wickl
ent deckt
le br
be wahrt
as sa
ge ar
ge führten
ge knü
ge deckt
ge kauft
ein zunehmen
ein mischen
ein räumt
den omin
ur y
ur ally
ur teil
ing ly
ig ent
ig ere
se uchen
am ts
sch änd
im ages
zu gehört
zu hören
zu trifft
for give
ic ted
icht linie
ver größ
ver schlossen
ver antworten
ver tagen
ab stra
em e
ra re
no is
ber au
ne y
iss ionen
ist unnel
ir anischen
res train
ce lebr
sp ont
sp unkten
sp läne
sp onsor
tr ig
ment ions
des crib
me istern
Ver ze
Ver gehen
Ver knü
ul den
if ice
ag on
In kohärenz
aus en
aus arbeiten
aus laufen
with standing
ind u
ges unken
li ge
la f
ex akt
vor y
vor bei
vor kommen
lie derung
Re isen
Re ttung
end igung
end ums
port ion
co dif
än gst
Be wohner
Be endigung
über mittel
qu a
nen ne
hal ben
An trägen
An schuld
An bieter
ungs programme
ungs fähig
uns inn
uns atis
com for
com plies
err y
00 47
has en
St ufen
St recke
lo hn
je glichen
sind ustrie
Mit t
Aus stellung
Aus wirkung
up s
up dating
Sch eitern
Er freu
Er staun
wo gener
war ded
ac ies
ac company
ord an
Vor beding
Vor wurf
Vor mittag
bes uchen
pr udence
her self
Ab wesen
Ab weich
unter richten
ow ing
mor atorium
vo iced
el and
inc ed
inc umb
nach drück
nach gedacht
ult ural
pres erv
Ein spar
Ge bot
ander ern
Au fl
dis cover
dis proportionate
ill usion
EU s
od d
work place
ieren des
iz en
hand ic
gel dern
ange legen
cau ght
Um setzungs
dr ink
dr ift
ub schr
setz ten
min ing
Kon föderalen
Kon greß
Unter punkt
gesch oben
over due
bo tt
fl agr
produ kten
att form
pa kt
pa edoph
geben de
best rafen
viel falt
alt es
alt ar
Bere chnungen
har bour
har vest
rat ory
Zu frieden
No thing
Fre unden
Con s
qual ifications
Te ufel
fest gesetzt
fest stellte
fest gelegte
bin ation
erg reift
economic s
tun es
serv ants
Al pen
Al ps
recht mäßige
Umwelt bel
Umwelt minister
Bürger krieg
Rechts ausschusses
red it
real isiert
beg ins
Le hre
voll komm
ister ung
legal ity
Sicher lich
budget ing
Ges chen
financial ly
Finanz markt
Fl ut
Fl ucht
di ere
begr iffen
stim ulating
ausge wiesen
ausge wogener
auth ors
Recht mäßigkeit
Ne g
meiner seits
establish es
schr ieben
notwend igerweise
Stand ard
spra xis
Schutz gebiete
Br ücken
sign als
extre mist
ship ping
star kes
Welt wirtschaft
Welt gesundheits
zurück halten
jen ige
aussch üsse
ban on
einzel ner
einzel staatlicher
back ward
inde x
institution eller
Lebens räume
sm uggling
ru led
Ch ildren
itor ial
Fisch bestände
Reform ierung
Struktur an
technolog ischer
SE C
hau se
let ting
einzu reichen
Kom bination
instrument e
force fully
EC H
individ ually
crimin als
Hau tal
entsprechen der
Wh ich
deutlich es
Entwicklungs fonds
Wer bung
uni ver
answer ing
Sp itzen
Pl änen
anzu erkennen
aufge wendet
versch ul
eindeut iger
Verkehr spolitik
Rück tritt
Wirtschafts raum
Wirtschafts jahr
hinaus läuft
beim ißt
Aff äre
län gere
vic inity
Gemeinschafts institutionen
kr aten
Flug gäste
Verpflicht ungs
wahr ung
wahr lich
Emp örung
ator ies
eth yl
umfassen dere
schnell stens
Ur laub
wider setzen
harmon isiert
betra f
Schul ung
dist ant
exp liz
frei willigen
Berichts entwurf
Gegen den
Gegen wart
turn s
spiel raum
excl uding
Lin derung
Selbst verständ
verantwort liche
Volks wirtschaft
Volks republik
Antrag steller
Tag ungen
comprom ising
gesetz geb
Post äm
wesentlich es
tell s
blo ßen
research ers
erziel te
prakt ik
suggest ing
bl att
assess ments
live lihood
irgend wie
irgend einem
sinn los
Daten schutz
Verkehrs minister
advan ces
legitim ately
Environment al
Ho heits
Tour isten
normal e
Kern kraft
Eisenbahn verkehr
Schl üsse
Schl achtung
Kommissionsmitglie ds
col our
Untersuch ungsausschuß
Wert papier
emiss ionen
contra cting
Nun mehr
kraft wagen
cross ing
Friedens prozesses
capac ities
Beg leitung
Tier me
Wes ten
Konflikt lösung
rahmen s
garant ierte
bill ions
schäd liche
quant it
quant ifiz
remember ed
Plan ungs
obtain ing
Kar tell
Mos cow
wrong ly
condemn s
ior i
ierter e
berecht igte
observ atory
weltweit e
höch ster
Tro jan
optim ism
jüng ster
Stre cken
Geb ühr
abwe ichen
ökolog ischer
lag ern
heart felt
supplement ed
element ar
Preis stabilität
hor se
verbind lichen
typ ical
Versch mutz
announ ce
complex ity
Haft pflicht
Schweden s
Meth od
relationship s
Lärm schutz
veränder ungen
ES VG
embar ked
begrün dete
zugrunde liegenden
Flexibil itäts
hoff nungs
reib ungen
Mindest maß
Wohl stands
verbr ennung
Verfahrens weise
Arbeitszeit richtlinie
Bro t
dram atisch
dram atische
Redner in
advoc ating
präz isieren
adapt ing
Ebenso wenig
Fün ften
meaning ful
Modell s
jem als
dete cted
mach ine
stip ulate
coast line
See verkehr
Ter rain
Tun nel
prem ise
nachzu weisen
envis ages
custom er
Aktions programms
Geber n
Kandidaten länder
getr ieben
Ap par
roh ungen
vorrang igen
Fünf tens
Effe kt
evident ly
Güter verkehr
versicher ung
auton omen
Komitologie verfahren
evalu ations
isol ieren
197 7
wettbewerbs fähige
split terung
corrup t
Bundes republik
terror ist
TS I
irregular ity
Vorsitz es
zweifel sohne
Legisl ative
gap s
react ors
liber t
Handlungs fähigkeit
preser ving
honest y
beruf lichen
gewün schten
consc ient
consc ience
Armen ien
punish ment
Bill igung
complement ary
flä che
dokument e
010 5
slaughter ed
durchschnitt liche
extrem ism
drop ped
Weit erb
Wechsel kurs
Kriegs verbrecher
distin ct
Pat ents
match ed
Migr ations
vertrag s
gericht shof
scen es
aufgeworfen en
vigil ance
lobby ing
verhält nis
verhält nisse
Refer endums
redund ant
faß te
Mißverständ nisse
Lärmbe lastung
detriment al
Rad io
unabding bare
Hunder te
recy cled
einseit ig
Eingreif truppe
Kred ite
verknü pfen
president ial
princip ally
feder ation
Demonstr ation
Informationstechn ologien
maxim ale
reibungs losen
Lie fer
Posit ives
settle ments
perpetr ators
decreas e
decreas ed
epidem i
getrenn ten
explos ions
Fif th
Kan äle
devast ated
nomin al
secur ing
compr ising
Schienen verkehr
entrepreneur ship
UC K
kolle ktive
chr ist
bemerk enswert
verbleiben den
shor ter
niedriger en
Buiten weg
pp ich
vary ing
prüf ungen
Indones ien
freiwill ig
reveal ed
Mün chen
zit ieren
bedenk lich
council s
vorbeugen de
Persön lichkeiten
erled igen
gesprä che
Stil legung
Beihil fere
hochrang igen
katastrophal en
ausdrück liche
Ren ationalisierung
Ankünd igungen
völl ige
Spre cher
greif end
annehm bare
conve y
überwie gen
incred ible
angere gt
reluct ance
holi day
negle ct
Lag erung
vill age
stretch ed
contem pl
ausgesch öpft
Flag ge
smoo th
wöch entliche
Verun rein
geschä fte
Pir ker
cell ulose
undermin ed
accum ulated
cat ches
mort ality
aufsicht s
Frageste ller
freige lassen
communit isation
Geschwind igkeit
Palästinens er
benachbar ten
Befürwor ter
deplor able
Gü tern
verwen deten
Verhaft ung
Unklar heiten
zweier lei
Impf stoff
cornerst one
Medikament e
verschmutz ungen
inj ured
Aufr uf
gescheit ert
lächer lich
Gesche hnisse
accus ations
Opport unities
Spezifik ationen
ekl at
portfol io
trage dies
Verschuld ung
ausschließ liche
suppl iers
Neuer ungen
Sofort maßnahmen
Hug hes
fals ification
depriv ation
vorant reiben
caut ious
Math ies
Amo co
Sow je
mig ratory
rout ine
befre it
uran ium
spher es
Unsicher heiten
incre ments
gänz lich
Aga inst
Zigare tten
hid den
stree ts
vergröß ern
Anschuld igungen
unsatis factory
Vorbeding ung
Abwesen heit
incumb ent
ubschr auber
Weltgesundheits organisation
0 4
1 30
2 50
5 b
8 85
A par
B ü
B und
B ir
B ak
B rem
B omb
B islang
C R
C e
C au
C istern
D ak
D orf
D aul
E ar
F iori
G lä
G ulf
G las
H ague
H ubschrauber
I l
I ber
J ames
K L
L ü
L it
L ou
N ap
N ally
O bst
O slo
Q uellen
R em
R ang
R ight
R ücksicht
S ob
S og
S AD
T hal
V ill
V ende
W at
W al
W all
W inter
Z ana
b ub
c in
c atalog
d well
f iel
f urn
f assungen
g y
g is
g yp
j ac
k oll
l u
l or
l är
l igence
m sten
n om
n ice
n av
n irgendwo
o ts
p ill
p lied
p ull
r s
r ank
s ouverän
s ahen
t tember
t ighter
u pro
u ckt
w alten
w ahn
y la
z yn
Ä m
ö sen
ö pfen
ü se
en ced
er achten
er schreck
in vo
in land
in effective
in adequ
in fiz
in consisten
in admissible
in aug
ch star
ch amp
on a
on wards
on tage
an stellen
an fang
an ches
an laufen
is o
is ier
un belie
un sicherheit
un angemessen
un fähig
un nötige
un bestreit
it ären
or ig
or ums
al itions
re build
st il
st ers
ar ante
ro llen
ent ers
ent setz
ent sorgen
ent sorgung
le ug
be gehen
be zieh
be aut
be freien
be ugen
be kennt
as en
ge will
ge lin
ge denken
ung lück
ein zum
ein schließen
ein zugreifen
te urer
die t
au r
de ple
ll ers
am ing
we m
we hr
im ply
ve t
zu schuß
for st
for ty
for wards
for bid
ver al
ver faßt
ver arbeitet
ver frü
ver helfen
ver breiten
ver doppel
ver fäl
ver sichere
ver wirr
ol es
ol as
ab träglich
ra y
no where
il legally
he ikel
ct ious
ür zung
ne ts
wir t
ist ically
ist isches
con form
con vers
pro secut
ir k
ir rational
id al
ier n
auf trag
auf gegeben
auf gabe
auf zeigen
auf werfen
sp ur
sp ann
tr ium
wer f
op fer
op pression
des ert
me id
Ver w
Ver nun
Ver suche
Ver wässerung
Ver ona
ul ts
ul ierungen
kt ives
ag te
In halte
In folge
mit tragen
aus führen
aus bauen
ta wa
ges top
ex pon
ex akte
vor ge
vor kommt
vor gegebenen
ck ed
Re is
ad ds
co tt
Be hinderung
über mäßig
über mäßigen
ben annt
ma hnen
ma instream
pe line
An bauf
ungs system
ungs los
Th om
err ungen
scha det
ann ähern
fa ire
00 15
00 40
fe ll
hat red
par amount
out dated
Pro gno
Mit bürgern
man kind
Aus länder
Aus laufen
Aus gestaltung
up held
up dated
Sch wach
Er träge
Er lauben
Er werbstät
Er wartung
dar k
wo hin
fü gt
Vor komm
Vor zug
Vor schrift
inter view
bes prochen
bes itzer
br icht
br inge
fer ent
fin nische
her ds
Ab hilfe
unter sagt
unter richtet
mo ves
coun ted
sta ates
är z
part ment
Fra geb
sel ess
ult ane
pl ing
Ge hör
Ge iste
Ge fällig
ass ment
ass uring
ass isted
ass umed
ill ance
tre es
od izes
schl ug
ear ned
kon serv
who ever
hand werk
tim ing
ank ünd
ange gangen
ange zeigt
ange baut
bet onte
lic ted
ließ e
setz e
mehr heit
geb end
Kon stru
Kon junkt
ak uum
führ er
Unter brech
gesch äft
weiter geführt
cy k
present ly
over lap
over looked
ffe kt
fl ü
trä gern
For ce
eben e
sub mission
Ko dex
Ko alition
Ko alitions
produ z
produ kt
produ ziert
produ kts
cur b
them atic
wend ungen
Zusammen kunft
gleich zeit
Über schuß
alt ungen
besonder em
wel coming
vern ichtet
know ing
Land minen
Entwicklung spartner
gest artet
art ig
last ed
qual ify
add itions
erg abe
besch uld
Parlaments abgeordne
Community s
hn ten
zwe cken
zwe cks
meas uring
ätz en
tern wirtschaft
ri vers
unserer seits
Rahmen beschlusses
Umwelt ausschusses
Umwelt verträ
sozial em
Rechts systeme
transp osing
main land
set ests
Politik ern
Le yla
Mar shall
Nach mittag
voll zieh
Dem ontage
vers äumen
legal e
legal en
may ors
Or ten
bre ton
Finanz hilfen
Finanz verwaltung
gener ating
Des gleichen
Gen en
Her de
But ter
Afr ikaner
bereit schaft
Recht setzungs
Ne ug
Ne ues
cl ash
Mö chte
reform iert
sim ultane
trans mitted
Tr ust
prom iß
spr ung
spr ingen
ordin arily
protection ism
Schutz gebiet
Br ücke
Br anchen
10 4
10 8
unterstütz ten
sign ature
gere icht
consum ing
folgen der
Li thu
pend ently
Am nest
zurück ziehen
wert vollen
To ten
crit ically
kün ften
gew alts
Sozial ausschuß
Bed auer
Fe ucht
inde pendently
verständ igen
verständ liche
19 80
vi ation
zusammen hängt
carr ies
Durch schnitt
Ch urch
wach s
Gleich es
ged auert
einzu schränken
Kom p
democr at
global ised
sei ther
prec ision
pflicht en
EC U
Tagesordnung spunkt
Qu orums
Fort bestand
lauf end
Person als
Binnen grenzen
rele asing
Form ulierungen
konkre tere
success es
abhäng igen
dort igen
anzu schließen
dest ination
schwer lich
rece ives
fel der
akzept iere
gewähr ten
Pol and
Wirtschafts sektor
liberal ise
liberal ising
hinaus laufen
Entscheidung sträger
cover age
special ist
milit ar
vier zig
congratul ated
Wettbewerbs bedingungen
ator ische
eth ics
umfassen deren
Tür en
Gesetz en
Bel grad
erklär ten
Je an
fair er
Wahl beob
Wahl kampf
origin ating
vol unte
kom promiß
viol ate
auszu bauen
auszu statten
conflic ting
aud iovis
stra in
Gegen zug
neg ligence
Leit er
atis iert
Verfü tter
verein t
grenz t
tour ists
cir cles
fort geführt
18 0
Ju an
Vertrags änderungen
Energie ein
Energie politik
stu fe
stu fen
Miß management
pers one
uner läß
würd iger
bank ing
conne ctions
gesetz lich
sex es
hes itation
plain ly
Handel spolitik
Per iode
blo cks
Bas ically
Bas istunnel
Hö chstar
ktr um
zentral isierten
Menschenrechts lage
fil es
NA T
humanit ärer
erne ute
bedau ert
abge ändert
abge wickelt
Sicherheits standards
Sicherheits rats
specif ies
Wel ches
discrimin ated
inciner ated
histor isch
hinter lassen
comment ing
Handels verkehr
review ing
Völker recht
Völker rechts
heraus greifen
Do yle
Kern aufgaben
Kern stück
bezogen e
benef ited
gän gig
Schl acht
Beschäftigungs strategie
Mittelme ers
Wert schätzung
eil en
unver ändert
unver meid
entschieden e
stud ents
proport ions
Minderheiten sprachen
nä ck
betre ibt
gesundheit lichen
wissenschaft licher
198 7
exerc ising
benöt igten
Konflikt verhütung
elektron ischer
chem ische
unge hindert
sitz ungen
Bö hm
Kar ib
summit s
Kur ds
DA PH
afr anca
Mos kau
Thank s
Landwir t
Aktionsp lans
Argument ation
militär ischer
verme idung
Geb äu
Entscheidungs prozessen
clo ck
lag er
ergriffen en
rep atri
Aud it
Verhältnis mäßigkeit
Wissenschaft lichen
bol ster
Versch wendung
Eing liederung
Anal ysen
Beamten statut
sprü chen
veran schau
extra ordinarily
unternommen en
ignor es
ignor ance
interpret ations
aktiv itäten
schwerwiegen der
Är msten
Übergangs zeitraum
sorg ungs
ES A
konstru ktiv
Zweck mäßigkeit
Flexibil isierung
Hä user
Schwer met
Mor gen
ausreichen der
ausreichen den
Po os
Po int
She a
Krisen management
Neu auf
vit ally
decis ively
confirm ation
speziell es
vig our
üb liche
cou ples
Straf gesetz
Straf gerichtshof
conduct ing
frag te
mach bar
Befür chtung
restric ting
schw achen
schw ache
Wachstums rate
proje kt
prem ium
prem ises
anspr ü
Verf assungs
relig iösen
toler ate
beunru higend
simpl ification
imag in
Nachbar staaten
Kandidaten ländern
sha dow
wealth y
Eig entlich
card ini
bedeut samen
Fünf zehn
Ungleich gewicht
Zustand e
Mc Nally
depart ure
Zug leich
ira z
präsent ieren
potent iell
Streit kräfte
pi dem
trend s
trib unal
illustr ation
ivers ary
wirtschaftlich em
beantra ge
Hilfs maßnahmen
voran schreitet
197 9
Futter mitteln
Pens ions
anc ient
büro s
conven ing
Verb und
warn ed
reserv ation
stät igkeiten
roo ted
strafrecht liche
register ed
Schwä chsten
Durchführungs befugnisse
Sk la
bomb ard
pict ures
trop ischen
anticip ation
loc ally
barr ier
Gerichts barkeit
Buch führung
Stahl beihilfen
Eigent ümer
Hab sburg
rassist ischer
shar p
gebühren de
Gu arante
Territor iums
hypo critical
black mail
Infl ations
Kooperations abkommen
afford able
Verhaltens weisen
dur fte
Weit ergabe
strik ten
begünst igten
liter ally
Verfasser in
biometr ischen
Fach leute
standardis ation
Emissions grenzwerte
diskrimin ierung
direkte m
argu ing
confu se
vorgetragen en
Erfordern issen
Cha os
belg ische
wom öglich
lift ing
shop ping
Urheber recht
Kapaz ität
verfüg bar
Mess rs
Pie cyk
phas es
phas ing
phas ed
ermut igt
cha os
book s
surve illance
Wün schen
nament liche
zweif le
israel ische
Oper ation
Geschle chter
027 4
Tunis ian
scept icism
Antibiot ikares
Investment fonds
Naz i
fur cht
verheer ende
übergreifen de
marginal ised
Ill usion
Merk mal
nutrit ional
fruit ful
epidem ic
Fif teen
Commun ist
transpor te
repräsent iert
lobens wert
Erkennt nissen
prece ded
Opt im
awar ded
tighten ing
bem ühungen
befried igend
registr iert
klass ischen
Verantwortungs bewußtsein
Könn te
owner ship
verlag ert
fragment ed
Sal afranca
recit al
ansäss igen
vereinf acht
jeopardis ing
Mus cardini
abseh barer
prud ent
Fraktions vorsitzenden
plä diere
betrieb s
Lö hne
soft ware
vacc ine
zo llen
ereig net
Konting ente
NO x
Val ent
erreich te
web site
schä tzt
Unglück s
Ankünd igung
gleichberecht igte
außergewöhn lichen
Polize ik
Initiativ recht
Leistungs fähigkeit
Son n
persec ution
contraven e
Assist enten
beam te
Behinder ten
Heil igen
certific ate
kinder pornograph
distr icts
deem ed
versp ä
Regul ierungs
Europaabgeordne ten
kommissar in
hie ß
zuwider laufen
verhäng nis
Anreg ungen
disgrace ful
distress ing
tarif fs
Katal og
Dest abil
Kh mer
Vet ternwirtschaft
bevorzu gt
agg reg
Bege isterung
nachteil ig
Tran saktionen
blue fin
Dial yse
Pas sagen
Tschech ischen
incur red
Alten er
Verbrenn ungs
zukunfts weisen
Cad iz
Universit ät
Ange klagten
apar theid
attent ive
clim atic
Instrumentar ium
Pur vis
mug gel
iein halb
rever sed
resid ues
Verpack ung
Grön er
zumer ken
getät igt
Altersversorgungs systeme
Ot tawa
Synerg ie
Verg nügen
indigen ous
Departe ments
guthe ißen
Rechtfert igung
milest one
Bench marking
Old tim
sau bere
dement sprechend
Äng ste
discre tion
Brü der
berichterst atter
collap se
Geltungs dauer
aquac ulture
Card iff
Wyn n
refra in
Getr än
Registr ierung
konzip iert
fluct uations
Sekret ariat
Vorhandens ein
Gesamthaus halt
Dereg ulierung
Offic ial
Verknü pfung
comfor table
Erfreu licherweise
flagr ant
Zufrieden heit
Cons ider
Selbstverständ lichkeit
Method ik
Apar theid
Cistern a
Dak ar
Lit auen
Rem ember
Sob ald
Thal ys
Vill iers
catalog ue
ttember g
inconsisten cies
bezieh ungsweise
gewill t
einzum ischen
verfrü ht
verdoppel n
trium ph
Vernun ft
gestop pt
Anbauf lä
Gefällig keits
Konjunkt ur
Umweltverträ glichkeit
Lithu ania
Amnest y
Höchstar beits
DAPH NE
Guarante e
Antibiotikares istenz
6 6
7 3
7 6
A gency
A viation
B 7
B M
B P
B ow
B ack
C us
C FP
C athol
C ultural
D P
D imens
D ilemma
E pidem
F ur
F ac
G edu
H ut
H um
I ce
I sol
J ung
J os
K ammer
L en
L an
L ok
L DC
M assa
N ar
N ob
O hren
R ö
R od
R over
R hetor
S y
S ke
S achen
S üß
T al
U p
U fer
X X
Z ut
Z üge
b lieb
d les
d ilemma
e la
e lap
f to
[...]
