#version: 0.2
e n
e r
i n
Ġ d
Ġ t
c h
Ġ a
o n
Ġt h
e s
i s
u n
Ġ w
i t
Ġ s
a t
i e
Ġth e
o r
r e
a n
i ch
Ġ b
i on
Ġ in
Ġ o
Ġ m
a l
Ġ f
a r
r o
t e
Ġ e
l e
en t
Ġ p
Ġ h
Ġ n
Ġa n
Ġ c
g e
un g
Ã ¼
Ġ un
Ã ¤
Ġo f
Ġt o
s t
Ġd ie
Ġd er
Ġ v
o m
a s
Ġb e
l l
u r
in g
Ġan d
Ġ E
Ġ is
u s
e d
i r
Ġun d
i g
Ã Ł
Ġ z
Ġe in
r a
Ġ A
Ġ P
e m
i c
Ġ S
Ġ g
i m
u t
Ġ M
e it
ich t
i es
e l
Ġ re
om m
o l
d er
a m
s ch
t en
Ġ B
at ion
u l
t er
ro p
d en
l ich
v e
i l
b er
c t
Ġth at
h r
Ġ I
Ġz u
e t
Ġw h
g en
i d
Ġ K
Ã ¶
Ã¼ r
Ġa u
Ġ l
Ġd a
is ch
Ġ R
Ġ k
er e
u rop
Ġ F
Ġd en
Ġf or
o t
Ġ V
is s
Ġh a
l y
Ġ C
u m
Ġ on
Ġw ir
Ġ G
e in
r es
Ġw e
ĠE urop
i er
Ġ ge
Ġa l
T h
Ġd ies
d e
Ġs o
o s
Ġ im
or t
omm iss
Ġ U
f f
Ġda ÃŁ
Ġc on
Ġth is
b en
c e
v er
ommiss ion
Ġv er
Ġ H
es t
Ġv on
Ġ it
m en
Ġp ro
Ġf Ã¼r
Ġis t
Ġa re
f t
Ġ er
an d
a ch
Ġs t
k t
m ent
Ġau f
Ġ W
Ġa s
Ġn icht
i ll
Ġd es
ul d
it h
Ġn ot
ĠV er
a b
Ġ D
Ġd as
o uld
Ġ L
Ġwh ich
isch en
Ġd e
Ġn e
o w
Ġw ith
ĠU n
es s
o p
i k
u st
Ġha ve
p p
t s
ung en
h er
Ġw er
in d
l a
Ġal s
t r
Ġ j
Ġein e
ĠEurop e
i ve
at e
i v
id ent
Ġ es
f or
Ġ Z
Ġwer den
Ġs e
am ent
i al
s p
Ġ T
Ġd em
Ã¤ n
a k
ĠP ar
Ġe x
en d
Ã¼ ber
ĠR e
Ġ le
i f
Ġm it
Ġc o
a y
it y
q u
an n
Ġ ich
an t
Ġ r
l ie
Ġa ll
Th e
Ġs u
Ġw ill
ĠS t
n en
n e
Ġv or
Ġ y
i b
s te
un d
s en
Ġ -
Ġau ch
h al
c k
a h
Ġun s
ung s
ĠPar l
a us
h t
w e
Ġs ich
u ÃŁ
ĠC ommission
er r
u g
Ġb y
ig en
o ch
Ġ N
0 0
Ġa b
ĠUn ion
ĠEurope an
Ġs h
Ġ 1
h en
Ġ Ã¼ber
sch a
ion s
p e
ĠI n
Ġm e
b e
ĠA n
Ġ res
Ġh as
a in
en s
g es
er n
ar t
ie l
p ort
te d
Ġa t
ĠK ommission
Ġa us
scha ft
a d
Ġ um
r Ã¤
ol it
u f
i en
u re
Ġ or
er s
Ġwir d
ĠE n
Ġd o
Ġs ind
t z
Ġw ie
et z
m e
ĠF ra
a hr
u ch
u p
Ġh at
Ġw as
it te
Ġs ch
is t
ch te
o ur
or d
ll en
Ġc om
h eit
ĠP ro
Ġw ould
en n
Ġals o
g r
k eit
I ch
Ġ i
Ġha ben
isch e
ĠS ch
ĠB e
D ie
ĠA us
Ġz ur
I n
Ġth ere
Ġ J
er en
ĠEurop Ã¤
lich en
Ġre g
Ġd ar
ro m
b eit
ar d
al l
e ct
z e
u e
is e
Ġm Ã¶
9 9
Ġ Ã
Ġsh ould
W e
s e
es e
Ġm an
o us
g t
ĠA r
ĠV or
ĠB er
Ġs ie
r an
at es
Ġ ent
i ge
der n
em ber
ĠP res
rÃ¤ s
Ġh e
ĠE r
Ġs ein
at en
Ġd i
Ġo ur
o d
Ġin ter
ation s
er t
Ġw or
Ġm ust
es ch
o u
Ġ 2
rÃ¤s ident
Ġa g
ĠEn t
Ġa m
Ġf a
Ã¶ n
ch t
i p
Ġ en
Ġ qu
ĠA b
Ġa d
ation al
ĠM r
ur ch
t her
d u
u d
c ial
Ã¤ r
ĠPres ident
m s
Ã¼ s
Ġf rom
i ament
ic al
Ġein er
ĠParl ament
o un
or e
ab le
Ġdies e
Ġb ut
Ġ us
t h
Ġun ter
b le
ul t
ic k
ak e
Ġbe i
it ion
Ġp art
omm en
a ge
Ġbe en
o ut
Ġp rop
an z
Ġa pp
r it
Ġn ach
g ra
Ġc omm
ĠP rÃ¤sident
ig h
Ġ ch
W ir
Ġco un
an g
for m
a st
ĠBer icht
Ã¼ hr
v el
ct ion
Ġk Ã¶n
Ġcom p
Ġs a
o k
Ã¼ n
Ġy ou
Ġdies er
Ġg o
r u
ar y
c on
om e
Ġc an
ĠH err
ĠParl iament
ut ion
ĠM it
u te
Ġp o
Ġa c
im m
ĠM ember
ĠmÃ¶ chte
Ã¼s sen
Ã¤ t
el t
Ġd is
lich e
ch en
Ġbe t
Ġo b
ol le
Ġcoun tr
u b
i z
Ġit s
Ġein en
I t
Ġm Ã¼ssen
Ġs te
Ã¶ r
an k
ĠG r
m p
Ġp os
ĠE U
ik e
st a
re at
ĠEuropÃ¤ ischen
Ġm uÃŁ
as s
Ġd urch
o c
Ġre port
g lie
c ess
Ġn och
is h
ier en
Ġp r
g er
Ġm ore
ĠG e
Ġg ro
c il
ier ung
e ar
Ġprop os
Th is
o g
l in
Ġl ike
Ġin c
M r
Ġk ann
Ġso ll
h l
Ġm ein
z u
Ġg en
el y
Ġp olit
Ġcon c
Ġal le
ig ht
ra g
Ġf in
Ġz w
m er
f en
al ly
Ġs pe
Ġm a
n ah
Ġth ese
Ġne ed
Ġ O
p t
ol ic
Ġn ur
ĠMit glie
ĠRe g
Ġzu m
Ġb er
st en
gra m
y ste
Ġdies em
an ce
ĠS ie
o ll
Ġim p
H err
Ġj ed
os e
for e
h e
Ġcon s
ĠkÃ¶n nen
l o
res s
ig keit
kt ion
Ġp re
Ã¼ ck
g lich
Ġw ur
Ġi h
Ġo ther
ment s
a ÃŁ
im e
Ġk ein
ĠE in
r ie
g an
us s
ĠC oun
t schaft
Ġbe c
w er
Ġw enn
Ġb es
ĠCoun cil
Ġa ber
Ġcon t
sch en
olit ik
c ed
Ġver y
Ġp olic
Ġ ra
Ġn o
D as
E s
a p
i der
Ġo der
Ġwh o
h men
Ġthe ir
ĠC omm
ff en
ĠSt ates
Ġon e
j ect
Ġin t
s am
ĠMitglie d
w ick
Ġs p
ier t
ar k
itte l
w o
s icht
Ġt e
Ġim port
at ive
s ib
re ich
Ġw eit
Ġthe y
Ġwh at
Ġg es
a u
r at
aus e
k e
a g
Ġp e
ent ion
Ġ up
Ġwor k
em ent
l ic
lie ÃŁ
l ung
Ġo ut
ĠAr beit
Ã¤ hr
id e
pp ort
Ġex p
i ous
Ġw ar
st it
vel op
Ġ1 99
Ġcountr ies
Ġse hr
00 0
a re
er v
urop Ã¤
Ġge gen
Ġab out
on e
am men
ĠJ ahr
in k
Ġm y
ĠMitglied sta
Ġe ff
re ct
le ich
ĠÃ Ħ
r i
Ġh in
Ġle g
us ammen
ug h
Ġi hr
Ġw o
Ġ if
men d
f Ã¼hr
at ed
te il
er st
Ġm o
ĠK on
ut z
Ġy ear
igh ts
n der
at ter
ch e
l Ã¤
ĠM en
Ã¤n d
Ġ (
Ã¼ tz
Ġne w
in t
Ġon ly
ĠD e
Ġe uropÃ¤
ic e
c y
n ung
Ġein em
ĠVor sch
Ġis s
Ġde c
Ġdies es
Ġan y
Ġde velop
it u
on der
Ġh ier
a uf
b ar
ig n
it ies
il ity
r ing
ĠUn ter
con om
as e
D ies
as sen
in e
Ġuns er
on g
Ġin d
f e
m ein
le ar
etz t
Ġo p
e ver
f ahr
ĠR at
Ã¤n der
Ġpropos al
hal b
Ġbec ause
op le
Ġt ime
Ġe v
ĠMitgliedsta aten
l an
Ġconc ern
it Ã¤t
ch n
ar beit
iv en
c es
ĠMen schen
w end
Ġme hr
te t
Ġpart ic
Ġag re
Ġimport ant
r en
ir st
Ġw icht
Ġf e
ĠK olle
Ġpolic y
ĠÃĦ nder
u en
ig t
i ÃŁ
Ġs ol
ter n
ib t
ble m
ĠGr und
t re
Ġp er
ĠEnt wick
Ġt ran
w ir
Ġt ra
yste m
sch e
ah l
Ġn ational
Ġsu b
Ġfa ct
Ġber eit
Ġinter n
ge b
f l
Ġqu est
Ġa ct
il d
Ġd am
ll t
Ġj ust
is m
ul ar
l ar
un ity
um an
Ġag ain
Ġpe ople
x t
Ġv ie
Ġs ome
tr Ã¤
l os
m al
al t
Ġthere fore
Ġwur de
ĠU m
Ġpro v
Ġe conom
n er
i den
itte e
it e
Ġk on
ĠC h
i a
itu ation
f r
w or
Ġin v
un kt
Ġm ake
hal ten
z ial
ĠVer b
l le
Ġt ake
Ġsu pport
ĠFra ge
ie d
ing s
ĠW ir
ĠG em
pe ct
D er
Ġs ay
res ent
l and
ur es
iv es
i re
Ġn ow
k ommen
o te
f ol
Ġih re
sch lieÃŁ
Ġ 3
Ġdi ff
st Ã¼tz
ch ts
Ġdi rect
Ġint o
nah men
er ung
ver n
ow ever
ľ ber
Ġw ay
Ġde b
ĠGem ein
ĠR icht
la g
Ġin s
am p
a ck
p on
ge l
Ġre c
ĠW e
ĠZ usammen
if ic
re i
n ow
Ġc lear
an s
le gen
o v
ra uch
e k
ig ung
Ġsu ch
k en
m it
is ation
um ent
f Ã¼r
Ġpartic ular
Ġr ights
Ġac c
am e
Ã¤ ch
Ġs on
Ġv iel
ĠM aÃŁ
ĠL e
ge t
Ġbe ing
it i
or s
ĠAr t
Ġpro du
Ġge w
ĠZ eit
Ġre l
r y
ĠT e
le d
Ġma de
ĠEurop a
ĠEuropÃ¤ ische
ol og
h a
Ġwh en
ĠÃ ľber
t y
ne hmen
Ġh uman
we en
sib le
is ion
ur al
Ġg r
w ie
u al
ig er
Ġjed och
Ġbet ween
Ġb as
Ġre f
Ġt ak
Ġdies en
at z
Ġm ark
Ġa mend
ĠA uf
Ġg ibt
Ġth an
Ġf irst
for der
h Ã¶r
Ġf re
Ġreg ard
u es
Ġof f
z ie
an ge
Ġdis c
ĠÃĦnder ungs
form ation
z eit
h and
ere ich
ĠH aus
Ġson dern
Ġd ann
Ġb est
Ġo ver
Ġe mp
ich er
Ġm ich
Ġk now
Ġgro ÃŁ
Ġad d
le g
h n
t w
Ġthe m
stit ution
Ġdam it
Ġst r
Ġkein e
st r
b st
Ġso cial
Ġpolit ical
Ġth ink
Ġein es
Ġden n
we ise
Ġw el
Ġw ere
at er
Ġp la
o b
iss en
ĠAus sch
t ro
er ation
ce pt
hal t
ĠB ereich
Ġa r
Ġth ose
w eit
Ġund er
ert ain
Ġre p
g in
lin ie
i ff
is ten
er d
Ġcons ider
Ġzw ischen
Ġquest ion
ĠL and
ĠI h
is ed
et t
Ġand eren
ĠHerr n
Ġ Th
Ġres pon
Ġg anz
Ġpo int
esch Ã¤
Ġmark et
en z
ĠEntwick lung
ord nung
ĠeuropÃ¤ ischen
d ay
Ġein z
ir on
w n
ach t
ĠB ed
Ġwith in
ĠFra u
ub lic
Ġas s
Ġbereit s
s s
el bst
Ġre qu
Ġhe ute
Ġg reat
p r
Ġintern ational
v iron
Ġ end
at s
viron ment
el s
Ġpro gram
Ġst at
Ġiss ue
Ġre m
ch ten
Ġwh ere
ion en
l d
Ġf und
ra gen
Ġn at
Ġ ro
Ġco ur
Ġge mein
is en
f all
s el
ic ult
Ġha be
ge ord
Ġuns ere
ate g
ĠSt a
in c
ĠF or
ĠB Ã¼r
Ġw Ã¼r
at ing
ĠG es
re ad
Ġf est
geord ne
in is
Ã¤ l
u ro
le ment
w elt
ĠCommission er
la gen
gen d
Ġman y
ĠS e
Ġso wie
i ent
Ġw ant
ion al
ĠS te
re chen
Ġdevelop ment
f in
Ġc ertain
Ġdo es
v ed
en e
p ro
ent r
ĠComm ittee
Ġwe il
Ã¤n dern
eschÃ¤ ft
m ittel
Ġf ar
is k
Ġbe lie
ach en
Ġyear s
Ġge ht
lo y
Ġh o
U n
i le
Ġr ight
is l
st Ã¤nd
Ġl a
s etz
f eren
ul ation
Ġbes te
Ġh and
ver y
a c
n is
Ġ 4
ĠParlament s
ent lich
Ġor der
Ġc ann
ĠIn ter
h in
am en
Ġcann ot
ke hr
ere in
Ġweit er
icher heit
ar kt
ĠAb geordne
w ard
op e
en den
ĠS tr
v ention
u ll
Ġh ere
ĠMaÃŁ nahmen
Ġfin an
ĠComm unity
a ct
ben s
ĠRe chts
Ġb is
Ġs ystem
Ġd ra
Ġdirect ive
l es
ĠK o
Ġdeb ate
A n
Ġc ould
Ġeff ect
ot h
ĠVorsch lag
ĠF in
ĠC on
Ġm atter
fahr en
Ġh er
Th ere
Ġapp ro
Ġres ol
Ġ 5
ud get
Ġl ie
sch ie
ges ch
ge hen
Ġpro te
Ġeconom ic
ĠRicht linie
Ġwicht ig
v ing
Ġwie der
ĠGemein schaft
Ġme as
h ne
it z
is p
Ġev en
ĠM ittel
vern ment
k l
ommiss ar
Ġvie w
Ġen vironment
f Ã¼
Ġad op
Ġsoll ten
ĠG ro
ll ung
or te
Ã¤ tz
Ġunser er
Ġwir k
ah men
Ġdar auf
st imm
inc ip
Ġpr incip
ge ben
Ġy our
Ġinc l
read y
Ġa ut
Ġas k
Ġle vel
et h
Ġbelie ve
Ġs ame
Ġto o
ĠR ahmen
Ġal ready
Ġte chn
v or
ĠKolle gen
k on
Ġt wo
Ġden en
Ġleg isl
Ġcour se
ĠK ommissar
Ġagain st
o ugh
r icht
nah me
f Ã¤
Ġagre ement
Ġmo st
Ġwe ll
Ġm ir
d s
Ġ ens
Ġg er
it iz
Ã¶ glich
i ber
Ġh al
ut ions
Ã¤ ÃŁ
Ġm on
Ġe tw
Ġg u
trÃ¤ ge
ĠUm welt
ĠS o
Ġda fÃ¼r
ĠWir tschaft
Ġsa gen
iss e
Ġso zial
Ġim mer
ĠGe b
Ġha d
Ġsoll te
Ġd och
Ġgo od
ĠS p
ff e
re chte
Ġp ar
Ġs ituation
Ġse e
Ġle tz
k te
Ġz we
Ġdisc uss
A s
ĠBÃ¼r ger
Ġth en
Ġe very
Ġspe c
Ġp ublic
Ġv ote
i an
er al
Ġpro cess
Ġgemein sam
c ted
u er
Ġinc re
iti ative
Ġpos sible
Ġf o
Ġb in
ess en
Ġs elbst
or y
Ġalle m
a de
Ġl o
ĠFra ktion
sche id
Ġv om
b es
isch er
ers on
onder e
ĠZ iel
is ierung
Ġunter stÃ¼tz
Ġtran sp
Ġa id
Ġc itiz
Ġg leich
Ġcon f
Ġs c
Ġan ge
Ġm uch
ĠP olitik
ĠMr s
Ġre al
st er
Ġh el
Ġex amp
Ġmein e
im in
s atz
Ã¤ re
l ish
t rag
Ġn um
Ġt er
or ity
ent ly
Ġo wn
ic t
er g
Ġto day
Ġm ay
Ġcountr y
ĠTh em
Ġs er
Ġb ring
Ġp resent
ok rat
con d
h il
Ġsa id
w ay
in n
it ed
ar ge
Ġp ut
hal ts
Ġab le
Ġb udget
Ġcomm on
Ġst ill
p unkt
w ort
as on
Th at
ĠH in
Ġc ur
rit t
S ie
Ġf ra
Ġc ase
Ġh igh
ĠM e
la ge
W enn
isp iel
Ġs erv
re e
Ġus e
ch ie
al k
Ã¼ ÃŁ
Ġj etzt
Ġh ope
Ġpro blem
a ges
Ã¤ m
Ġg esch
Ġare a
re d
Ġfinan cial
st ru
Ġh ow
Ã¼r lich
Ġver b
ĠIh nen
ĠPro gram
Ġob ject
v es
Ġf ut
iber al
t ing
re it
ĠH a
f ul
Ġcont in
Ġihr er
Ġw en
ĠFin anz
Ã¶ s
Ġ2 000
Ġtak en
Ġein ige
gan gen
Ġfut ure
ant rag
Ġth ro
ĠE uro
W h
Ġe le
ak ing
Ġwur den
erst atter
Ġ Ã¶
Ġres pect
Ġpos ition
Ã¤l t
op eration
Ã¶glich keit
l uÃŁ
Ġh is
Ġnum ber
Ġc ar
Ġre ason
ab ility
be i
Ġmeas ures
ĠM ein
a il
Ġexamp le
ver s
Ġwo llen
Ġcitiz ens
Ġda zu
ab e
Ġl ast
Ġinter est
ru ck
Ġpos it
b at
H owever
Ġa chie
Ġbe z
ĠL Ã¤nder
Ġwh y
ant wort
Ġb oth
Ã¶ l
Ã¼hr en
z us
Ġat t
ĠwÃ¼r de
s uch
ĠBericht erstatter
tr ib
wor k
orte ur
2 000
Ġ est
pp orteur
loy ment
Ġf ind
Ġp ra
schie den
kl Ã¤r
Ġ199 9
ical ly
Ġo hne
ĠPro blem
ble ms
ĠmÃ¶ glich
Ġare as
B ut
Ġa ction
ĠF l
ur ing
Ġamend ments
ze ug
i o
it Ã¤
ĠS icherheit
Ġsch on
gen ommen
te llt
Ġne uen
Ġra pporteur
D a
Ġgro up
Ġinv ol
Ġin formation
Ġaus ge
wo hl
p h
bes ondere
om p
ten d
Ġcomp et
Ġthro ugh
Ġn un
ĠM on
ĠO r
ĠD em
Ġne g
ĠH er
ges e
f ung
ent ial
ic es
Ġbe gr
wer b
Ġens ure
F ra
ĠGro up
Ġaut h
heit en
f ra
der ung
reich en
Ġth ank
oun t
ĠJahr en
Dies e
Ġge t
ĠV erein
kt ur
ous e
ar m
Ġop in
le men
Ġst and
lich er
ĠÃĦnderungs an
Ġor gan
Ġpre v
I f
Ġs om
ier ungs
inis ter
p olitik
in ce
Ġne cess
Ġpro ced
ste llen
ĠÃ ĸ
Ġpla ce
it al
ĠA fr
S o
ur ther
Ġl ong
ab lish
g est
ĠA u
Ġt r
D es
r imin
ĠGeb ie
e kt
ze ich
imm t
Ġme ans
et her
d em
Ġma j
Ġne ue
Ġ2 00
Ġmein er
Ġdiff er
Ġins besondere
o st
Ġtran s
Ġt un
el n
ĠFra gen
te gr
ĠkÃ¶n n
Ġein mal
Ġfor m
Ġleg al
ĠK os
Ġm ain
in der
ĠAb stimm
ett be
Ġetw as
Ġdem oc
re t
Ġent sp
ow n
ĠKos ov
B e
Ã¶ ÃŁ
entr al
a ffen
im men
ĠB eit
Ġs et
Ġest ablish
ettbe werb
Ġall en
ĠEnt scheid
ass ung
un den
ĠEnt schlieÃŁ
wir tschaft
r Ã¼
Ġw issen
Ġg iven
Ġw Ã¤re
ĠT reat
Ġpro blems
Ġf ull
w Ã¤
Ġs im
Ġand ere
Ġg la
Ġparticular ly
ĠTe il
Ġsich er
a ir
de ut
los sen
lich keit
fall s
Ġco operation
oll ow
f ten
ĠH and
Ġqu al
Ã¤ uÃŁ
Ġg est
ĠHaus halts
Ã¤n g
Ġwor ld
Ġla w
Ġ 6
Ġb esch
Ġ ur
ĠArbeit s
l ungs
Ġg ut
Ġnot wend
Ġr at
ĠPro ble
ĠAussch uÃŁ
c ur
ĠF all
z ip
Ġd ank
Ġbe fore
a ff
ig ten
Ġm achen
Ġk e
Ġresol ution
gr und
Ġwir tschaft
Ġincl ud
or ities
ĠZ u
ge le
Ġg ive
Ġwith out
ĠKosov o
el f
Ġopin ion
Ġprogram me
t ra
Ġall ow
Ġsein e
f ter
Ġh owever
Ġse ct
b al
un ft
I m
c ing
Ġimp lement
or gen
ĠM Ã¶glichkeit
ĠN amen
Ġind ust
ĠSt and
m Ã¤ÃŁ
ten s
a gt
Ġnecess ary
Ã¤ mp
Ġrequ ire
ĠH ouse
pp en
m an
i um
k unft
Ã¶l k
icht s
Ġconcern ed
Ġbe tr
sp ro
h ang
n isse
at ely
Ġf ollow
ann t
ĠVerb rauch
Ġprincip le
Ġimp ro
ĠMein ung
al th
Ġwor den
Ġter ms
Ġzw ar
uss es
ĠStr u
Ġre du
Ġk lar
ab il
Ġiss ues
Ġprote ction
ism us
Ġwh ether
Ġreg ional
Ġnat Ã¼rlich
Ġcur r
Ġ 8
Ġexp ress
Ġpro m
f er
ĠMember s
ib le
Ġser ious
Ġdiffer ent
ill ion
ĠRe cht
ort ug
y s
Ġw es
Ġw ish
1 99
ĠSch utz
ord in
sp olitik
ĠF re
sib ility
str ument
Ġzwe i
g a
st an
Ġde al
fÃ¼hr t
ĠZusammen arbeit
h o
ge mein
Ġvie le
Ġs ign
ir d
ĠI ch
Ġproposal s
fl icht
om en
Ġbe k
Ġk omm
Ġk ommen
ug ht
Ġ %
Ġm in
ament al
t al
v on
v our
le x
Ġp res
ul es
Ġex tre
hal f
ent s
l us
ĠDe bat
Ġbe half
ll schaft
ĠA l
er k
is ions
Ã¼ b
ĠUnter stÃ¼tz
Ġinv est
feren z
ĠW ettbewerb
g leich
Ġs eit
Ġ 7
it ions
Ġrep resent
Ġa v
ah re
ĠIn tern
an te
Ġge b
Ġcons um
Ġdec ision
ut ung
ste llung
Ġd Ã¼r
we isen
Ġac cept
E in
Ġge l
ĠUnterstÃ¼tz ung
ik el
ĠW elt
w alt
Ġv oll
ĠZusammen hang
E r
Ã¼n d
ĠAbgeordne ten
c ome
Ġge f
Ġprodu ct
Ġbeste ht
st and
Ġ Q
or g
Ġpo in
ĠSta aten
Ġcom e
gra ph
gin nen
Ġge ben
ben e
f it
ĠB et
Ġdar f
Ġn Ã¤m
Ġbe d
ra ft
if ied
ĠReg ierung
m arkt
u ge
fÃ¼hr ung
ĠnÃ¤m lich
Ġcont ro
ach e
ik a
Ġste hen
Ġpro ject
Ġdar Ã¼ber
Ġpropos ed
r Ã¤n
in nen
gr icult
Ġzur Ã¼ck
Ġer forder
Ġdiff icult
Fra u
ĠProble me
etz en
ĠMenschen rechte
Ġlo ok
ĠÃĦnderungsan trÃ¤ge
W ie
id ed
ĠVorsch lÃ¤
ol k
Ġau ÃŁ
Ġj a
Ġwirk lich
l ick
el d
ier ten
ĠAbstimm ung
se qu
age ment
Ġwho le
Ġt a
Ġd el
as ed
Ġstr ateg
ĠThem a
Ġf ol
ĠG er
kt or
Ġpolit ischen
Ġfe w
iff t
Ġgla u
it or
Ġs ince
Ġl ang
Ġde ut
ĠUnter nehmen
a ce
r if
Ġ 9
ĠD ie
Ġsu pp
199 9
Ġe ing
Ġne xt
ze pt
Ã¼ck sicht
Ġm ention
ĠR ates
ien st
Ġbes onder
Ġbetr ifft
W as
h ol
Ġb ess
ĠPrÃ¤sident in
stit utions
ent lichen
ed ing
ĠS ituation
Ġcomm it
Des halb
ĠSo zial
ge w
ĠB est
Ġcon trib
Ġf urther
Ġse cond
Ġcomm un
lo bal
ĠDebat te
o vernment
Ġc rit
lie gen
ĠN o
Ġhel p
Ġso c
Ġch ild
ĠTreat y
Ġin de
up t
ĠVerbrauch er
ga ben
in zip
Ġda von
Ġreg ulation
Ġletz ten
m es
u ally
en ce
Ġe ben
ĠL Ã¤ndern
ĠArt ikel
Ã¼n ft
Ġgr Ã¶ÃŁ
Ġlegisl ation
Ġspec ific
ie le
ur s
hal l
ad am
Ġsim p
Ġda her
Ġr isk
Ġqu ite
Ã¤r k
rif ten
Ġw ord
Ġp l
Ġihr en
ĠBed e
Ġme et
Ġv al
ra che
Ġbas is
Ġsein er
ĠBede utung
Ġc re
Ġsub ject
ĠP unkt
Ġ ide
or n
Ġre cht
fol g
en de
ie ty
Ġp lan
Ġre form
Ġo pport
if e
Ġco st
Ġzw eit
zie h
al s
ĠJ ahre
Ġ The
ver kehr
Ġeinz el
o int
Ġin stitutions
ĠA m
Ġ ir
Ġb rauch
ra cht
ĠM ill
p ar
Ġd one
ĠAn sicht
Ġsch w
Ġfa vour
f et
g ress
h m
iv il
Ã¤ch st
Ġemp loyment
Ġbegr Ã¼ÃŁ
Ġs hall
Wh at
Ġ .
ĠÃĦnderungs antrag
0 1
ĠÃ¶ ff
O n
Ġ Ã¤uÃŁ
ra chten
Ġgegen Ã¼ber
ie der
Ġvor gesch
ward s
Ġb ack
ĠVer antwort
Ġpra ct
wend ung
Ġenvironment al
Ġadop ted
in es
ur z
ĠM a
Ġclear ly
am il
und heit
e p
f te
sp r
w ert
at t
Ġe igen
ĠF und
me work
yste ms
ĠH il
on ds
ier te
Ġgo ing
ĠB eschÃ¤ft
pe cial
Ġges agt
Ġst ru
ĠL Ã¶s
Ġappro ach
Ġfo od
il t
ot her
iv ely
wir k
Ġta x
Ġcon d
Ġacc ount
er ien
le icht
ic le
ĠB esch
ot i
pro chen
fet y
Ġa w
un e
Ġs ens
Ġab s
Ġbest imm
F or
l iament
it t
Ġan ges
ur n
Ġstat t
ar ante
ich te
Ġe qu
Ġkon k
Ġs m
ar ter
Ġst ate
ic a
ze ÃŁ
Ġextre m
i ar
t ain
Ġver schieden
Ġr icht
A ber
g re
ĠA mend
em p
sch ied
Ġdes halb
Ġres our
ge ment
Ġreg ions
Ã¤hr end
ĠunterstÃ¼tz en
cur ity
l ungen
Ġc ap
Ġuns eren
ĠLe bens
g lichen
Ġbez ug
is ing
Ġc olle
der t
ĠIn formation
e ich
h Ã¤lt
at ives
Ġagre e
al e
ĠIn stitution
Ġfin anz
Ġwork ing
Ġrat her
Ġres ult
Ġvorgesch lagen
u ft
ard s
Ġgu arante
Ġneg oti
Ġv ar
Ġre v
etz ung
eth ing
Ġfra mework
d ruck
h ip
Ġt alk
ĠKon tro
u de
Ġ Ã¼b
an der
Ġc all
ĠD isk
Ġr ules
ĠSt ate
gese hen
Ġl im
way s
Ġ ess
Ġm il
Ġste llen
A ll
Ġa ir
Ġsa fety
Ġste ht
v ement
Ġd own
ro du
Ġde fin
m iss
Ġp ow
Ġl assen
s weise
Ġin tegr
le i
Ġund erst
ies en
ĠB es
ĠUn ited
rie den
Ġadd ition
Ġsom ething
Ġcontro l
Ġc r
ĠG en
Ġ1 5
vor sch
f ach
Ġsoc iety
A l
ĠVer trag
tre ten
Ġglau be
Ġa fter
Ġf Ã¼hren
ĠV olk
Ġes pecial
Ġ1 9
ĠAn ge
ĠEU R
re cht
ĠT ages
Ġad v
Ġess ential
Ġespecial ly
is ts
re ffen
st o
m aÃŁ
ĠF e
k Ã¤mp
Ġpr i
ĠPro du
M ein
Ġh Ã¤t
Ġge hÃ¶r
Ġspe ak
h Ã¤ng
un Ã¤chst
Ġer st
Ġro le
Ġb ro
Ġand er
ĠT ran
Ġits elf
am t
Ġsu c
Ġbet ter
Ġprogram mes
l ing
Ġp ay
Ġso llen
Ġm illion
Ġbe w
ĠA ust
ĠRe chte
ĠSt ra
gend a
setz ung
E R
l er
re ten
ff air
Ġum f
M adam
Ġpro gress
ab ly
ik an
Ġex ist
Ġreg ul
ĠOr gan
ĠkÃ¶nn te
ĠB r
Ġcomm ittee
ĠKolle ginnen
gele gt
Ġe ach
Ġto wards
ed om
rop ri
Ġgen eral
ĠeuropÃ¤ ische
Ġsozial en
Ġein ge
ek te
Ġcompet ition
f ort
ĠRe form
are d
Ġresour ces
w ed
ter m
ĠF isch
Ġdar an
Ġac cess
Ġb al
ĠZ ust
ĠStru ktur
Ġpoin ts
S E
if y
Ġgo vernment
ĠWe ise
Ġl arge
iv id
Ġ1 2
Ġhe alth
Ġus ed
lin ien
erd ings
Ġrespon sibility
E urop
at h
Ġan s
ĠEr geb
ĠM arkt
Ġposit ive
d i
ĠEurop as
ĠFra uen
Ġpo st
ĠgroÃŁ en
ĠdÃ¼r fen
N ach
as es
Ġre ad
ĠVer ordnung
ĠN ach
ens ion
Ġpolic ies
Ġop er
Ġproced ure
p end
Ġd uring
re g
Ġc l
Ġder en
ĠZu kunft
Ġc or
Ġgo vern
Ġprov ide
arm on
ĠVorschlÃ¤ ge
o gen
Ġg ent
Ġj e
ĠReg ionen
igkeit en
Ġa gricult
aus sch
Ġindust ry
ĠP r
Ġj ob
fÃ¤ h
Ġe l
Ġz e
ges tellt
ĠL age
Ġall gemein
Ġdi re
ĠStand punkt
M it
z w
rie d
ĠAussch usses
i od
m Ã¶
is es
Ġw omen
ĠM inister
os ition
Ġserv ices
Ġsect or
ver stÃ¤nd
all en
Ġch ange
Ġges am
feren ce
Ġlie gt
Ġder zeit
ial og
Ġpr iv
one y
sche iden
Ġintern al
Ġfund amental
r igen
Ġnational en
Ġextrem ely
Ġgent lemen
w Ã¤r
Ġin itiative
ĠU ms
ste hen
ad ies
Ġsm all
iv ing
art a
Ġtransp ort
Ġnotwend ig
ge ther
Ġeconom y
ffair s
T O
Ġw ater
Ġstru ct
v Ã¶lk
Ġin ner
Ġcomp an
ĠL iberal
Ġle t
Ġeff ort
Un d
Ġw Ã¤hrend
Ġg lobal
ol d
sp rache
legen heit
Ġacc ord
kÃ¤mp fung
s id
om ent
Ġer sten
Ġconcern s
g ar
Ġre ally
Ġl ess
Ġfor ward
Ġ199 8
Ġdar in
ktion en
Ġein igen
ic ial
im es
Ġge m
Ġnicht s
Ġse em
ĠRe gel
Ġber Ã¼cksicht
Ġso wohl
z iel
Ġp erson
Ġda bei
ĠBe i
Ġste p
ĠReg ierungs
Ġwel come
g l
p flicht
z Ã¼
at iven
Ġle ast
Ġapp ropri
Ġtra de
Ġho ffe
Ġpre c
Ġunderst and
ĠTages ordnung
Ġc ult
Ġst ren
Ġ- ,
Ġind ivid
weit erung
a um
Ġth ree
Ġm oney
ĠE bene
ĠR ed
Th ese
ass er
Ġper iod
un de
erv or
Ġvar ious
b lick
s Ã¤tz
Ġa im
ier ungen
Ġwer de
sp ect
ĠT ur
ĠEntwick lungs
Ġdemoc rat
Ġd id
ĠBe ispiel
Ġcomp le
i ation
r on
Ġa k
Ġm aking
ar en
ĠR olle
Ġon ce
kt iv
el le
sch utz
ĠR ights
Ġim m
Ġauf ge
Ġsu ff
itÃ¤ ten
re ch
ĠPro j
sicht lich
ĠP l
Ġst art
Ġgro w
Ġimport ance
Ġcontin ue
Ġb ene
Ġof fen
Ġse i
Ġen lar
th ough
Ġneed s
Ġint rodu
ĠEntschlieÃŁ ung
Ġh ervor
Ġz usammen
Ġle ad
erd em
Ġd rei
ra um
Ġachie ve
Ġabs ol
Ġk urz
Ġinterest s
mer k
Ġfe el
Ġgew Ã¤hr
ĠIh re
Ġbe f
Ġl oc
enn t
ĠArt icle
ĠAu ff
ĠHil fe
Ġ 000
ll er
Ġquest ions
Ġb u
ar n
ĠZ us
iden cy
Ġkomm t
une hmen
Ġbe ispiel
ĠI hr
Ġbeste hen
ster reich
ge d
ic ient
o ted
ĠP at
Ġ1 0
Ġentsp rechen
Ġal ways
Ġse curity
ĠEn erg
ĠVerantwort ung
Ġcond itions
ĠZ ahl
ĠIn d
Ġact iv
Ġorgan is
uf en
ĠDem okrat
ĠAust ri
e an
v en
Ġd et
Ġm ot
scha ften
ĠEr weiterung
in ess
wÃ¤r t
Ġb en
Ġm ember
Ġan other
ĠVer fahren
Ġsh ort
ĠAus sprache
ĠUms etzung
Ġinner halb
ĠS ystem
ĠB em
Ġk ind
ese llschaft
Ġop en
Ġbrauch en
ĠLÃ¶s ung
b au
um en
Ġrem ain
Ġbesonder s
ĠInstitution en
Ġad m
Ġpolit ische
ĠWe g
Ġwel che
ĠFor m
Ġd ort
te xt
Ġh Ã¶
ll ig
eit s
ot ing
ĠBe vÃ¶lk
Ġ2 0
Ġger ade
D ar
The y
b eding
k omm
Ġto gether
ĠB innen
ĠW ort
Ġmon th
Ġauth orities
Ġn or
ĠF ran
ute t
Ġwar en
Ġdank en
Ġak zept
ĠK inder
Ġall er
Ġgen au
Ġdeut lich
Ġdem and
th ing
Ġinvol ved
Ġinclud ing
f onds
o ck
Ġo c
ĠF ort
ĠVer walt
ild ung
ĠMe hr
ĠEntscheid ung
ĠIntern et
Ġin form
ĠP ortug
ĠL is
Ġwas te
Ġsch affen
Ġref er
An d
kon ferenz
ĠB el
Ġk le
ver fahren
ĠPro di
ĠJahr es
Ġsol che
Ġbeispiel sweise
ess e
sp rÃ¤sident
Ġfre edom
Ġhal te
Ġin stitution
Ġn Ã¤ch
Ġg ilt
iden ce
Ġeinzel nen
g abe
Ġas pect
ĠD urch
ĠAus druck
Ġapp lic
ĠMill ionen
Ġan t
Ġl adies
Ġbec ome
Ġrel ations
ĠgroÃŁ e
inis tr
A uch
F in
o graph
w ar
un kte
ct ions
Ġprop er
Ġobject ives
Ġaw are
Ġth ird
ĠA sp
Ġde f
ĠPar te
ĠGe gen
ĠTran sp
ĠU N
Ġbring en
us iness
ĠH e
ap s
Ġdra ft
ĠÃ¼b rigen
Ġme an
Ġtechn olog
Ġindivid ual
Ġan n
Ġen erg
mal s
Ġcertain ly
ĠP erson
Ġvor gesehen
iel d
ĠÃ¤uÃŁ erst
Ġsuc cess
re chts
Ġm ed
Ġc reat
ic ation
Ġy et
Ġstat ement
A b
g ang
h Ã¶
z ahl
Ġbas ed
Ġgreat er
Ġhand elt
Ġmaj ority
Ġproject s
a v
Ġn on
Ġre le
Ġpe ace
r Ã¼ck
ber eich
ere cht
Ġdar um
Ġih nen
Ġcurr ent
r itte
es en
il y
Ġle d
Ġincre ase
hil fen
Ġent scheiden
ĠGebie t
Ġo pp
Ã¤ hl
el ess
Ġdo c
E ine
S e
z uf
as ing
ur f
ĠWirtschaft s
Ġre ce
Ġer reichen
Ġdem okrat
Ġrec og
Ġobject ive
Ġproduct s
Ġre ach
Ġer halten
ip f
Ġhin aus
Ġamend ment
zeit ig
setz en
fra ge
Ġle a
if iz
ge gen
and id
ust rie
we is
iÃŁ b
Ġdoc ument
M an
Ġein deut
Ġprev ent
Ġt able
enz en
Ġfund s
Ġhal ten
Ġgroup s
ĠBinnen markt
Ġt y
ch an
Ġin strument
Ġm ind
as k
ĠF rei
Ġmaj or
A us
ir m
id ar
Ġdes sen
ĠVer hand
ĠVer kehr
if en
ĠRegierungs konferenz
Ġenlar gement
ro w
ĠS eit
ff entlich
hil fe
Ġadm inistr
um mit
Ġer n
Ġall es
Ġup on
ĠGes etz
Ġadop t
Ġatt ention
g ung
sch ein
Ġex ce
Ġword s
f ern
Ġb o
Ġf un
der s
ĠZ iele
Ġvor liegen
Ġmention ed
Ġopport unity
i x
en ted
ĠG re
Ġex c
Ã¶r derung
Ġqual ity
le tz
Ġof ten
Ġer ne
Ġer ste
Ġconc lus
Ġeben falls
y l
Ġv i
Ġbe im
Ġbe gin
ing le
ĠD ienst
Ġman agement
ĠGr Ã¼n
ĠCh arta
Ġcomple te
Ġb usiness
ĠVer tre
Ġdec isions
Ġtak ing
hn t
ĠKo sten
ĠauÃŁ er
z ogen
Ġm od
al le
ra cy
ĠU S
Ġob l
Ġgr und
h ing
ge lung
bens o
Ġchild ren
Ġgem acht
on ger
ĠS itz
Ġg ar
Ġl iberal
ult ur
ĠAbgeordne te
ĠAfr ica
Ġc los
ter s
ĠD i
Ġsch ne
mit t
F irst
l ess
Ġin n
Ġp ass
Ġge geben
Ġweit ere
Ġcre ate
Fin ally
ĠE rachten
ĠF ol
ein ander
Ġhe iÃŁ
ĠEr klÃ¤r
Un s
ĠErachten s
Ġt reat
it s
Ġs ingle
Ġl ack
ĠR Ã¼ck
Ġent wick
ĠGemein sam
Ġadd ress
Ġz ahl
Ġha ppen
ak es
ĠGes undheit
ĠGemeinschaft s
Ġwen iger
Ġav ail
Ġbess er
Ġf ight
le ist
ĠN e
h ere
Ġm ult
Ġspe cial
ap er
Ġwo hl
Ġimplement ation
W ith
er b
ĠE mp
Ġden ke
Ġer mÃ¶
ĠIn itiative
Ġbei den
Ġfin den
ĠCon vention
Ġmatter s
b our
Ġp le
ĠBe kÃ¤mpfung
ĠCh arter
ĠDisk uss
A uf
st erd
isch es
Ġ1 1
Ġreg ion
Ġact ually
zie hen
Ġgemeinsam en
sterd am
in a
in ing
Ġe ig
Ã¤ d
ĠI s
ĠF Ã¤
Ġha ving
Ġwe iÃŁ
gr at
ific ation
ĠHin blick
Ġserv ice
itÃ¤ ts
Ġfollow ing
Ġbene fit
Y ou
ah n
Ġsh ow
ĠHerr en
ĠSte llung
Ġeffect ive
Ġsimp ly
Ġloc al
A t
Ġ ,
Ġc ases
Ġz us
Ġwe ek
ges etzt
oc ol
ĠwÃ¼r den
ĠAm sterdam
re icht
ĠM ed
Ġfor ce
ers eits
aÃŁ t
gangen en
Ġverschieden en
c o
g ern
w ach
Ġm oment
Ġhin sichtlich
utz en
ats Ã¤ch
ĠAmend ment
Ġdemocrat ic
A F
C O
n ess
ig in
op er
Ġhat te
Ã¤r en
Ġdis p
Ġcont ain
pr Ã¼
Ġinternational en
Be i
b on
in ed
Ġa genda
ro ss
ĠA ffairs
ber eit
Ġcon grat
ĠRe p
ĠEn de
Ġother s
p er
z en
Ġp ast
ed er
he b
wirk ungen
h aps
Ġa ff
ation en
ĠBe hÃ¶r
Ġviel leicht
Ġcongrat ul
at ast
Ġm orgen
ĠE x
Ġver sch
ĠVer tra
ĠAb kommen
Ġsp rechen
Ġcompan ies
0 2
Ġp op
os ed
ab hÃ¤ng
ĠAn wendung
Ã¼n f
ĠReg ion
Ġjed er
Ġpla y
Ġeigen en
l Ã¤ndern
Ġne hmen
ĠSch luÃŁ
Ġapp ly
Ġerforder lich
a i
Ġt ask
at ur
ĠK rit
Ġver s
Ġver such
ĠVer pflicht
our t
Ġmein es
Ġwicht ige
ĠGrund lage
ĠVerein igten
Ġcolle ag
ĠAuff assung
is ik
al ity
ent en
ĠN ot
ĠArbeit sp
Ġgegen wÃ¤rt
alt ung
Ġwirtschaft lichen
ĠWettbewerb s
atast rop
v est
omm end
Ġste llt
Ġprev ious
aff ung
f ang
o ten
w urf
Ġh on
Ġv Ã¶
Ġwh ile
Ġch allen
ĠLand wirtschaft
Ġgu id
ĠProgram m
n et
o de
Ġm ight
rit ten
Ġpar liament
st ens
ĠS ol
Ġauf grund
ne h
v oll
Ġm en
Ġan genommen
ann ten
ĠSt abil
Ġte il
ĠInter esse
rimin al
Ġmember s
er ous
Ġt ry
ĠM ar
ĠT Ã¼r
Ġall erdings
Ġlegisl ative
Ġrecog n
ie llen
Ġp ers
Ġein fach
ĠA mer
pp e
fe hl
ĠVerb ess
Ġans wer
H ier
R e
a gen
ĠM itte
ĠG eld
ĠW ieder
ĠAus wirkungen
Ġmon itor
st immen
Ġbe hand
ĠG leich
Ġsein en
Ġte xt
ĠBeit rag
Ġth ings
ĠM il
Ġsu g
Ġkein en
ĠProgram me
Ġt atsÃ¤ch
Ġc are
am b
Ġrespon sible
c om
le is
Ġdo ing
ĠSch affung
Ġpre p
ha ft
Ġweiter hin
im um
Ġer inn
Ġor igin
ĠBed ing
zieh ungen
ĠBeschÃ¤ft igung
Ġmil it
verstÃ¤nd lich
u le
Ġc ivil
Ã¼ d
st um
ut es
Ġal though
Ġen c
Ġavail able
i ver
Ġsch lieÃŁ
schlieÃŁ end
ĠW ahl
Ġj ud
Ġsch wer
Ġregard ing
ateg ie
Ġguarante e
v ious
Ġt err
or row
Ġin tend
ic an
Ġl ife
Ġso gar
Ġcon text
Ġ1 4
Ġviel en
forder t
Ġrequ est
Ġprincip les
Ġwen ig
Ġs ur
te llen
st ant
Ġer wÃ¤
ĠW asser
la st
ĠZ we
Ġag o
Ġjed en
lex ib
Ġpow er
h end
k ten
ĠW och
ĠJ ust
chn olog
Ġrec ommend
spr uch
ĠInformation en
ĠB alk
id es
Ġdis k
Ġra il
Ġfull y
Ġ ident
Ġs it
at or
ĠC ourt
Ġ1 3
Ġmein en
Ġpartic ip
Ġfre e
Ġass ist
Ġsozial e
Ġnegoti ations
ĠDemokrat ie
a kt
c en
l assen
m b
z ug
un ter
or gan
ig es
Ġst ark
al led
ro und
ĠI tal
Ġk Ã¼nft
ĠG eschÃ¤ft
ĠG esellschaft
ĠW Ã¤hr
iv ed
Ġsu re
Ġincre asing
ĠFort sch
ĠheiÃŁ t
j en
s erv
el ves
ĠF est
iss ab
ĠD amen
ĠSch ul
Ġih m
halt ung
sel ves
ĠCon ference
issab on
b an
d ition
Ġpo ll
Ġihre m
ĠInter essen
Ġstand ards
Ġsign ific
F Ã¼r
Ġs ystems
al en
Ġe uro
Ġh armon
ĠRe i
ĠSch w
Ġsub sid
Ġagreement s
Ġinde ed
Ġkle in
it ive
re te
Ã¶ t
ĠH o
out h
Da her
ĠMehr heit
ĠvÃ¶ llig
d rÃ¼ck
Ġf our
Ġf amil
Ġl onger
Ġge hen
Ġne ver
imm ung
ĠÃ¶ff entlichen
ĠnÃ¤ch sten
neh mer
Ġthe ms
Ġh ist
ĠF r
Ġst ates
Ġcom es
age d
Ġstr ong
Ġbek annt
Ġgovern ments
Ġthems elves
l Ã¤nder
Ġit em
ĠL issabon
Ġconcern ing
Ġke ep
m ut
Ġd ang
Ġto m
ĠF rieden
Ġco ver
qu e
rit ts
wor ten
fol gen
Ġ3 0
tw ort
fin den
Ġgemeinsam e
aussch uÃŁ
Ġeffort s
Ġgrow th
Ġmonth s
Ġbe it
Ġg ute
ĠF Ã¶rderung
Ġst ress
ind est
we g
Ġres tr
Ġrec ent
Ġbis her
Ġprote ct
ĠBevÃ¶lk erung
ĠLis bon
Ġenerg y
us e
ra el
ĠU r
Ġst Ã¤rk
ĠL uft
eren ce
Ġour selves
Ġfar m
Ġdra w
Ġconsum er
Ġschw ier
in ation
Ġd ist
Ġw ahr
ĠB SE
Ġse hen
ĠPar ty
Ġco ordin
ĠAn twort
lÃ¤ tz
fr ist
ĠÃľber ein
Ġ200 1
Ġappropri ate
M y
f ragen
an den
Ġo pt
ur teil
Ġer klÃ¤r
me hr
Ġunter schied
ĠÃĸ sterreich
Ġgef Ã¤hr
en ken
Ġw ider
Ġn ie
el ines
ĠG ipf
Ġnot hing
Ġj oint
Ġent halten
Ġges tellt
ĠhÃ¤t te
Ġagricult ural
Ġemp h
ĠSo cial
Ġvi ol
R E
T o
Ġp ress
ĠG overnment
Ġ5 0
Ġconf lic
ĠQ u
Ġstrateg y
L AF
lie d
ĠVor aus
ĠKommissar in
ho f
Al s
Ġregul ations
Ġtom orrow
m den
le it
ent liche
od y
stan ces
ĠgehÃ¶r t
jen igen
n ers
u gen
an u
ÃŁ en
trÃ¤ gen
Ġdemoc racy
Ã¼s se
Ġdevelop ing
fort un
ĠRei he
g overnment
te id
Ġv e
ĠZ ug
in ge
ro tz
ĠR isik
Ġen ough
Ġweit eren
Ġide a
merk sam
Ġguid elines
D och
i ft
ich tet
ĠBericht s
Ġsa g
Ġcont ra
ĠKontro lle
ĠBeding ungen
ĠGeschÃ¤ft s
government al
u c
v ant
an ts
Ġun t
Ġv oted
Ġund ert
ĠA s
Ġsol ution
ĠGrund rechte
ĠTe xt
Ġverb ess
Ġcurr ently
Ġcommun ication
itt le
H e
ver b
iel en
Ġoff icial
Ġwirk sam
ĠFisch ere
or ted
Ġm akes
Ġf Ã¼nf
ro ffen
Ġe ar
ĠS icht
Ġl ittle
ĠL eit
Ġex pect
Ġrel ation
leg ation
sel f
ĠunterstÃ¼tz t
z unehmen
ch es
is her
at is
Ġe th
Ġv ier
ĠE s
ĠK ultur
de utet
ĠU hr
imm ungen
ater ial
Ġdiscuss ion
cond ly
Ġreason s
Ġobl ig
ĠTÃ¼r ke
c kt
Ġd ring
ĠA uÃŁ
ff ice
rie g
ke y
Ġev ent
Ġtechn ical
stan den
Ġcost s
l ies
Ġc aus
ĠA ktion
Ġer reicht
Ġent er
Ġam ong
Ġdis ast
Ġke y
Ġseem s
b ur
or ge
ing en
ĠE C
Ġz ie
ĠVer fÃ¼
gram m
zus tellen
ĠBei hilfen
o ver
an ges
ir c
ig ungs
ub t
vorsch riften
o ve
or m
Ġe benso
Ġan al
Ġc ent
Ġda y
Ġfor e
Ġsh e
Ġsh are
Ġexp erien
Ġar beit
Ġdisk ut
ĠTÃ¼rke i
) )
w Ã¼r
ĠK omp
Ġcon v
ĠW or
Ġres ul
ĠVor s
bar en
Ġhuman it
Ġc irc
ll ent
Ġl ink
forder ungen
ĠHer aus
ĠQ ual
Ġabsol ute
Se condly
Ġtable d
o y
Ġd ue
ch er
an gen
Ġf Ã¶r
ic s
ĠK l
ot t
ĠIn vest
ĠReg ierungen
ĠLebens mittel
ĠSitz ung
ĠArbeitsp lÃ¤tz
g liche
at iv
Ġb il
Ġbe deut
ĠGe fahr
Ġkon n
Ġfind et
ĠkÃ¶nn ten
Ġjob s
Ġactiv ities
h es
Ġh im
Ġl Ã¤nd
Ġver n
Ġver treten
enn ung
ĠBe ziehungen
sta at
ĠVerhand lungen
Ġern st
Ġan im
Ġl ab
Ġl ine
Ġde p
ust ain
Ġexce llent
Ġemph as
Ã¼ cht
ĠPro zeÃŁ
Ġam b
Ġfa ir
Ġreport s
Ġstren gt
Ġt urn
ll ing
A D
L et
Ġp ur
Ġbe deutet
Ġre t
Ġer war
ĠT ats
ĠPar t
ĠKommission s
ĠEr zeug
ĠPrÃ¤sident schaft
ri or
ĠVorsch riften
Ġact ions
rei ben
ĠTur key
b est
g Ã¤n
il ung
Ġer fÃ¼
Ġpart ies
Ġbet on
ĠRat sprÃ¤sident
Ġwicht igen
Ġconsum ers
Ġbu ild
a pp
ĠA gr
ĠI t
ĠPres idency
Ġfo und
fÃ¤h igkeit
ĠBehÃ¶r den
. )
p rÃ¤
Ġof t
ĠR aum
ĠG esch
Ġver w
Ġob vious
ĠO LAF
Ġper haps
Ġbas ic
Ġschne ll
ĠNot wend
Ġhon our
Ġ This
Ġf all
ar f
icht en
ĠK ap
Ġcon sequ
ĠN ahr
Ġqu ick
yste me
Ġind em
ĠAuf gabe
Ġeig entlich
u ese
Ġs ett
we il
arbeit en
mit ted
Ġgesam ten
ĠPortug uese
. .
A uÃŁ
Ġm Ã¼ÃŁ
ig lich
am it
ĠW er
ĠW ach
Ġse ek
ĠJ anu
Ġpart ners
Dies er
Ġproced ures
h nen
s icherheit
z entr
Ġb it
Ġm er
ĠP unkte
ce ed
schaft lichen
Ġunser em
Ġprov ided
ĠSta ats
ull y
kon tro
stru ct
Ġmain tain
Ġcrit er
ĠberÃ¼cksicht igt
Ġzus Ã¤tz
Z weit
Ġd isch
Ġf ield
ĠP rior
ĠPro t
Ġen g
oc rat
ĠBerichterstatter in
ĠEnerg ie
ĠGemeinsam en
ent ions
ĠA ut
Ġst ud
Ġdem on
gr u
Ã¼s sel
ĠVolk s
ĠNotwend igkeit
p lan
at ors
ĠP al
ĠM in
Ġge e
os s
Ġver st
Ġse en
Ġch anges
Ġneed ed
Ġ199 7
led ge
Ġincl ude
an an
Ġf l
Ġp ot
Ġz unÃ¤chst
sp rechen
Ġ2 5
Ġmein em
maÃŁ nahmen
Ġled iglich
ĠVerbess erung
Ġenc our
ĠNahr ungs
f ully
Ġs ustain
at ory
Ġf ish
Ġn et
Ġder art
Ġver fÃ¼
Ġse ver
ĠAustri a
ĠAuÃŁ en
l t
p id
Ġp ortug
ĠA ss
Ã¼r z
se hen
du c
Ġgen er
ring en
Ġimpro ve
Ġcommit ment
Ġricht ig
Ġoc c
Ġsignific ant
AuÃŁ erdem
Ġportug ies
a ut
m ost
n ing
ĠP re
ste ll
ungs antrag
ĠAn trag
Ġhat ten
Ġwork ers
ĠPr inzip
Ġeindeut ig
i ffen
Ġv oting
im me
ĠW h
Ġent ire
ank en
Ġra ised
Ġsol chen
richt ung
Ġbestimm te
atis f
Zweit ens
y p
ĠD ok
Ã¤n de
ck en
gr iff
Ġagre ed
gre ifen
Ġunt il
Ġf ive
Ġask ed
ĠDiskuss ion
fortun ately
O ur
s on
Ġc lar
Ã¼ h
ith er
Ġprodu ction
Ġconf idence
i vers
Ġb zw
Ġbe ant
ĠA t
ort h
ĠD as
Ġch ocol
ĠÃĦnder ung
Ġprov isions
ĠBereich en
Ġetw a
ĠOrgan isation
umen te
komm ens
Ġpur p
a at
on d
Ġto tal
ĠN r
Ġcomp rom
ĠGe w
Ġcontin u
Ġele ct
Ġtr ue
Ġcongratul ate
Ġpop ulation
bur g
ĠAgr ar
S t
b are
Ġin iti
Ġe as
uÃŁ t
Ã¼hr t
Ġgro und
land s
ĠSte uer
Ġprep ared
P ar
as ch
Ġg ra
Ġfa il
lin e
Ġcar ried
Ġval ues
ĠVerfÃ¼ gung
Ġm acht
Ġver hin
ĠD ank
ĠIn form
ĠSch ritt
Ġsein em
ok ol
Ġfin al
ĠThem en
ĠMÃ¶glichkeit en
Ġexpress ed
Ġmeet ing
ĠErklÃ¤r ung
ĠIs rael
w Ã¼n
in ne
Ġb re
ĠS ub
Ġcon ne
fol gt
Ġgleich zeitig
Ġachie ved
ĠFre mden
Ġgel ten
Ġchocol ate
Ġn am
ĠM E
Ġre in
Ġver gangenen
la ÃŁ
Ġvor gelegt
Ġpo or
legen heiten
ĠHaus halt
Ġass ess
Ġter m
Ġcar ry
lemen ted
Ġsens e
Ġanges ichts
Ġumf assen
Ġaspect s
i ze
y n
Ġb or
al ten
ge leg
Ġv is
ĠT ag
Ã¤t igkeit
ĠKon fl
Ġestablish ed
Ġty pe
ĠWach stum
s ide
Ġre pe
Ġl ange
Ġres ear
Ġih n
arbeit ung
fÃ¤ lle
Ġget an
ĠEntscheid ungen
Ġresul ts
O ne
b y
f ert
p or
Ġth ing
it im
Ġm ar
Ġe ither
Ġbe g
Ġein gehen
ĠI ra
Ġl ow
ien ste
Ġdurch ge
ĠRicht ung
Ġcontrib ution
lei ben
ĠPl en
leis tet
Ġanal ys
Ġdisch arge
Ġresear ch
P ro
en nen
al itÃ¤t
te m
te mp
Ġp a
Ġbe fÃ¼r
op p
Ġsch ein
pr inzip
Ġlang u
gew iesen
ĠParte i
E AD
g o
ĠS erb
ĠM inder
op h
Ġex tend
zu legen
ĠReg ional
utz ung
Ġunser es
geb racht
Ã¤ÃŁ t
Ġwes entlich
ĠErgeb nis
ffentlich keit
ĠMitte ilung
Ġsag te
EAD ER
b ildung
f re
iel le
ran g
Ġher aus
stru ktur
Ġthrough out
Ġzweit e
N T
e llen
ĠP ost
ind ung
Ġres t
Ġbet roffen
Ġwo bei
ren ch
ha upt
ĠFor sch
ĠÃĸ ffentlichkeit
Ġmot ion
r ug
Ġf ran
Ġso on
Ġver l
Ġfa st
geb ung
leg ung
ĠSe ktor
ĠFl Ã¼cht
ialog ue
Ġaccord ing
Ġsug gest
Ġstrengt hen
on s
Ġw Ã¼n
ie w
Ġb leiben
Ġto ur
ĠB rit
Ġl and
est s
pe ten
ink i
arbeit et
ĠMenschen rechts
ĠCh ina
els inki
Ġnat ure
gese llschaft
Ġrequire d
Ġcap ital
ĠEmp fehl
Ġcriter ia
D amit
Z um
g ument
Ġst age
for men
Ġle ider
conom ic
Ġfund ing
ĠFl ug
Ġfol gen
ĠAnge legenheit
Ġgrund legen
ĠDi rect
p ite
w es
at ic
Ġb itte
Ġf rÃ¼
Ġge fÃ¼hrt
Ġex am
ste llt
reich e
schlieÃŁ lich
ĠgroÃŁ er
Ġmarket s
Ġrem ind
ĠDem ocrat
zeich ne
Ab schlieÃŁend
Ġnet work
Ġs etzen
ich en
ĠC o
ĠG ru
ĠH uman
ĠH elsinki
Ġst immen
ĠD er
Ġhe ut
Ġfe hl
Ġtransp aren
Ġpra kt
Ġpriv ate
ĠSeit e
ĠtatsÃ¤ch lich
ĠNahrungs mittel
c r
Ġ Y
or en
Ġh och
Ġbe teil
ig te
ĠM al
ĠF rench
ce p
ĠW TO
ĠN or
ĠEnt last
Ġmo dern
Ġemp loy
Ġlim it
Ġexist ing
0 3
b ahn
k ung
Ġun emp
ste ad
Ġcom b
ĠSch okol
Ġdec ided
ĠVertrag s
ĠInform ations
V or
Ġd est
Ġd ialogue
Ġe duc
Ġc la
sch luÃŁ
os la
ĠH Ã¶
ug osla
ĠAn t
ĠMitglie der
mit glie
Ġallgemein en
Ġsever al
U m
i op
Ġv erein
el ten
Ġwh ose
ĠV Ã¶lk
Ġver g
ĠRe gelung
Ġfa cil
Ġimp lemented
Ġtra gen
Ġlie gen
g u
Ġb eschÃ¤ft
ĠA ll
ĠP osition
Ġl i
Ġwe gen
ĠL in
Ġsch em
ĠStr ategie
wed en
ĠFrei heit
C P
S ch
Ġf oc
ar ing
im s
omm un
ĠL EADER
th iop
Ġapp e
Ġch e
Ġhin weisen
fol ge
Ġoff er
Ġro ad
ĠKo ordin
ĠBeit ritts
Ġbal ance
ĠVertre ter
Ġquick ly
K P
Z u
Ġs atisf
ĠS ummit
ff t
Ġer ziel
Ġer heb
ĠD ialog
Ġex cept
rie f
Ġsay ing
ĠLe ben
ĠKo h
ĠVerein bar
Ġdel ay
ĠbegrÃ¼ÃŁ e
pend ent
Ġcor rect
Ġassist ance
ĠTats ache
i ere
i ate
un ities
Ġs orgen
Ġc andid
Ġbe ha
ĠS ache
Ġzu stÃ¤nd
id ing
Ġk omp
ĠN os
ges amt
Ġdo ubt
ĠZeit punkt
Ġevery one
Ġpres ented
ĠBest immungen
ĠFe hl
Ġread ing
gl Ã¼ck
ĠGrÃ¼n den
m ore
Ã¼ lt
Ġun abhÃ¤ng
ĠK amp
ĠIn tegr
Ġref uge
setz ungen
Ġlevel s
ĠbegrÃ¼ÃŁ en
Ġanges prochen
Ġtalk ing
NT ER
es ted
ie ten
al u
lich es
ĠK raft
ver ty
Ġer ster
ĠEn g
Ġsa fe
Ġpo verty
Ġbet reffen
iven ess
ĠBÃ¼r gern
Ġur g
RE G
NTER REG
d ict
Ġd at
ĠP ra
ĠM Ã¤r
ĠR om
ungs an
ĠGe legenheit
Ġinc or
Ġjed em
gesch lossen
Ġwirtschaft liche
ĠGer ichts
ennt nis
uc lear
i ans
Ġa kt
Ġin st
Ġl Ã¤ÃŁt
Ġle ft
ĠAn satz
uf ig
ger ungen
ĠEin fÃ¼hrung
Ġprom ote
Ġpract ice
wÃ¼r d
Ġs l
Ġo ld
Ġp h
Ġh old
ĠS inne
gen cy
Ġde term
iel t
ĠMitgliedsta at
Ġprov ision
ĠSp an
abe i
Ġrequire ments
ikan ischen
Ġinn ov
Ġple ased
ĠVertra uen
n ommen
o z
r ation
t ent
Ġf ig
end it
we gen
ĠIn strument
ist ischen
ult ure
Ġch o
Ġmo ve
gel n
ĠProj ekte
Ġarbeit en
c ies
n issen
w an
ge hend
ĠF amil
um e
Ġst aat
gr iffen
Ġra c
Ġsol idar
Ġbudget ary
Ġfra ud
ĠBesch luÃŁ
Ġsuff er
Ġtransparen cy
) :
is on
ar ian
le gt
Ġc ru
ĠS an
im ension
ol ution
Ġfor dern
ĠL es
Ġy es
ist ic
Ġtra dition
Ġbesch lossen
ĠGer man
ĠBem erk
Ġcomplete ly
ĠZug ang
D enn
a graph
z Ã¶s
Ġth ough
le ben
ĠA CP
Ġre con
ĠB as
Ġr ural
olic y
teil en
Ġfol gt
ĠAnge legenheiten
Ġpri ority
Ġbro ad
ĠRed e
First ly
ĠStellung nahme
Ġaff ect
Ġfore ign
ĠKomp rom
A TO
a z
p f
u ted
ar enz
ĠA KP
end ing
ne hm
Ġhe ad
Ġ2 1
Ġgen ommen
he ben
Ã¤nder t
ĠStruktur fonds
Ġel se
Ġfoc us
b ru
h ung
is ely
ĠE isen
ĠP aper
ĠI r
Ġk o
ĠJ u
Ġconc l
Ġkein er
Ġges prochen
ĠArbeit nehmer
ĠDe c
lan gen
Ġjust ice
Ġange m
Ġbestimm ten
ĠLeit linien
b t
k o
is iert
ie ht
le ct
Ġauf genommen
Ã¤n ger
Ġapp lied
Ġpre par
velop ment
ĠVerwalt ung
chan is
Ġc riminal
ic les
Ġse x
Ġ1 8
Ġra pid
Ġno te
wend et
los igkeit
Ġref erence
ĠGro ÃŁ
Ġinclud ed
Ġrepresent atives
ĠFe bru
a it
an ced
Ġb lo
Ġc entral
Ġun beding
ut ter
ĠI NTERREG
Ġpr Ã¼
ĠGrund satz
Ġregard s
stru ction
ĠPat ten
ĠDienst leist
Ġsit ting
ĠSchw ier
G en
a den
u ff
Ġs an
Ġo ught
Ġto p
st re
Ġbe vor
ĠS Ã¼d
ĠK Ã¶n
ĠR es
Ġfor t
Ġpro fit
Ġer folg
Ġme isten
ien en
au er
Ġind ic
Ġappro ved
Ġspec if
Ġindust r
zieh ung
Ġbew uÃŁt
ĠermÃ¶ glichen
Ġcolleag ues
Ġabsolute ly
Ġcomprom ise
Ġdat a
d ing
o in
en ces
Ġb le
Ġbe h
ĠP olicy
hr te
Ã¶ sen
ĠD inge
ĠN atur
Ġpart y
ha ben
Ġend lich
ĠInter governmental
Ġvoll stÃ¤nd
Ġimm ed
Ġsuff icient
Ġrele vant
ĠUS A
e hen
t ragen
or r
Ġb l
Ġbe l
Ġha pp
ĠW o
Ġr ene
ĠN ATO
Ġab ove
ens icht
Ġunter b
Ġalle in
eth od
Ġval ue
Ġakzept ieren
ĠTransp arenz
Ġfarm ers
Ġhonour able
Ġnam ely
Ġverg essen
E N
d urch
m m
y r
Ġh ard
ĠS outh
ct ural
Ġl ight
Ġst ability
ĠVer s
ĠD aten
Ġdurch aus
ĠKon t
Ġprodu c
ĠSte lle
ĠRechts vorschriften
Ġir gend
ĠPart ner
o f
Ġt imes
is is
te ll
Ġc ut
ut er
Ġl ist
Ġab ge
ure d
Ġinter ess
Ġexp la
trÃ¤ cht
Ġconsider ation
pr il
Ġevery thing
Ġhel d
Ġhigh l
Ġverb unden
Ġcrit ic
ĠLiberal isierung
sÃ¤tz e
Ġorganis ations
ĠhÃ¶ ch
ĠPerson en
organ isation
Ġhist or
Ġeth n
Ġs us
Ġc ause
sch reit
ĠK rieg
ier s
ĠH altung
Ġco her
ĠN ationen
ition en
Ġob wohl
sta aten
Ġass oc
ĠStru ctural
Ġcr isis
Ġapplic ation
Ġvorliegen den
ĠDok ument
it err
ĠK r
Ġst Ã¤nd
tern al
Er stens
orn ograph
ĠGen eral
ĠhÃ¤t ten
Ġprec isely
ĠBel g
g ungen
Ġf isher
Ġein heit
ra chen
ĠA pril
ein d
ĠT at
Ġle isten
ĠEr folg
ĠAb satz
Ã¤r m
th eless
zeich net
Ġredu ce
Ġmod el
Ġconne ction
Ġunbeding t
O ffice
h em
p re
er c
un der
Ġver antwort
her n
Ġr un
Ġ1 6
ĠÃ¼ber haupt
Ġat temp
ĠAr mut
Ġknow ledge
Ġrespon se
Ġincre ased
ĠDurch fÃ¼hrung
ĠSchluÃŁ fol
Ġerinn ern
hes ion
ĠWh ite
iterr an
i kt
or al
ĠP e
ĠEr fahr
Ġapp ear
Ġpropos e
Ġform ul
ĠHand els
spro zeÃŁ
Ġinvest ment
Ġav o
ĠErgeb nisse
ĠZus atz
Ġfran zÃ¶s
Ġble ibt
O s
w and
Ġm is
Ġf lexib
Ġp ension
Ġv ict
ut en
ĠmÃ¶ chten
Ġob serv
Ġrel ating
Ġ4 0
Ġsc ient
Ġwes entlichen
ĠProdu kt
ĠZust immung
Europ ean
rech end
ĠVerpflicht ungen
p art
u ber
Ã¼ gen
Ġge mÃ¤ÃŁ
Ġam ount
Ġcomm unity
Ġcoun ter
Ġdis trib
wo gen
Ġins gesamt
ĠSicherheit s
Ġsect ors
Ġplan s
Ġzweit en
Ġrev iew
Ġpers Ã¶n
drÃ¼ck lich
Ġconflic t
Par liament
I P
er weise
ĠG ed
Ġver ab
Ġst ar
ess ion
ok oll
ĠRicht linien
Ġover all
Ġgleich en
Ġauth ority
Ġgeb racht
ĠInd ustrie
ĠAsp ekte
Ã¼h ungen
tem ber
ĠLes ung
Ġspecif ically
d ienst
r aten
Ġbe glÃ¼ck
Ġl ok
Ġk rit
ĠW ider
Ġex tent
be zÃ¼
Ġcomm ent
Ġimp act
ag ing
Ġmo vement
Ġtra ining
Ġrec ently
Ġdisc rimin
ĠAfr ika
2 00
F urther
m inister
Ġt im
Ġb i
Ġun ac
Ġg erecht
ĠVer gangen
uf act
Ġman ufact
Ġhe ard
wer k
Ġleg itim
Ġtra ff
schlieÃŁ en
Ġander er
Ġstruct ural
Ġrece ived
Ġbehand elt
Ġdang erous
Ġiniti atives
ĠVÃ¶lk er
Ġcandid ate
Ġcru cial
ĠSchwier igkeiten
ĠbeglÃ¼ck wÃ¼n
ĠVergangen heit
O f
b et
m ark
Ġc red
Ã¶ ff
ab el
ĠD ritt
la uf
la ufen
Ġr ate
gr enz
Ġcomm ents
Ġspe zie
Ġany thing
Ġdiscuss ions
Mein e
Ġconclus ions
ĠFol gen
ĠGipf el
ĠfÃ¶r dern
ĠArbeitsplÃ¤tz e
ĠSchokol ade
ĠKoordin ierung
ĠprÃ¼ fen
Ġin fl
Ġin spect
Ġm ethod
ar ent
te en
le isten
Ġun e
Ġein zu
ra chte
Ġge fordert
ĠVer sch
ĠAb sicht
igh ted
Ġma x
ĠO p
ĠDe velopment
Ġtak es
Ġconsider ed
mittel n
Ġimpro vement
Ġpract ical
Ġpow ers
Ġintegr ation
ĠberÃ¼cksicht igen
Ġcult ure
ĠgewÃ¤hr leisten
i or
l ik
Ġt ar
Ġt rotz
ra ch
il leg
ĠK om
ĠR ass
ĠR uss
ĠG ar
Ġge tro
qu ate
ĠAn st
ĠBe teil
Ġdam age
Ġkon zentr
Ġgesam te
Ġimm ig
Ġcoordin ation
geleg ten
ĠIntegr ation
Ġincor por
iterran ean
D abei
er ve
Ġw eder
Ġs y
at Ã¼rlich
te ile
ĠE ast
our cen
Ġgen et
Ġte ll
ĠÃĦnder ungen
ĠWe iÃŁb
Ġwieder hol
Ã¤m t
zus etzen
ĠAu gen
Ġkonk rete
miss ions
Ġje weil
Ġdring end
Ġcirc um
Ġeduc ation
Ġunac cept
B er
f s
Ġto t
st ra
ĠK atastrop
if el
Ġinter vention
ĠEnt wurf
Ġus ing
Ġhin gewiesen
ken nen
Ġgesch affen
Ġdank e
ĠFund s
Ġfun ktion
ĠEntlast ung
Ġunemp loyment
ĠKÃ¶n ig
Ġgetro ffen
W hen
o ung
v ision
at ten
Ġp urs
Ġc alled
Ġun ver
Ġv an
sch t
Ġse c
Ġle ben
Ġr ule
Dies es
wert ung
Ġdet ail
bour g
Ġmilit ary
ĠVors itz
Ġpurp ose
f ect
u x
Ġm ass
Ġp en
Ã¼ t
Ġv ere
et ary
ĠK ern
ist ische
Ġnach halt
Ġac cep
ĠeuropÃ¤ ischer
hand lung
ĠFor derung
Ġwichtig sten
Ġgest immt
Ġrefer red
Ġmonitor ing
ĠQual itÃ¤t
Ġbit ten
Ġbeh ind
ensicht lich
ĠWeiÃŁb uch
is ieren
ar s
st att
ĠM an
ĠAus fÃ¼hr
ĠVor gehen
Ã¼n st
Ġbec om
Ġausge zeichne
ĠAmend ments
Europ e
Ġdire ction
Ġnor mal
Ġversuch en
Ġrene w
a ction
o od
Ġ illeg
es te
Ġs um
ĠI I
ĠVer teid
ĠEn vironment
Ġzum indest
Ġcont ent
cy c
zie ht
Ġselbst verstÃ¤ndlich
Ġcult ural
ĠWÃ¤hr ung
Ġpoll ution
Ġpot ential
w h
ie f
Ġg iving
ĠB ank
Ġso und
Ġdes pite
Ġy oung
ĠBe am
ze ugen
Ġent schieden
Ġqu ot
fÃ¼hr en
Ã¤nder ungen
Ġgood s
ffe cted
ĠHin sicht
ĠFinanz ierung
ĠÃĦnderungsan trÃ¤gen
Ġopport unities
ĠFund amental
ĠBem Ã¼hungen
ĠEisen bahn
Ġunaccept able
p tember
Ã¤ ter
Ġzu stimmen
ĠK enntnis
ind ustrie
ĠAn nahme
ĠSch iff
Ġch ar
Ġspe e
ĠSe ptember
ĠMon aten
Ġauth or
ĠTransp ort
Ġcreat ed
Ġliberal isation
Ġverhin dern
O M
p l
Ġa round
Ġa ffected
Ġs inn
ter day
Ġl ive
Ġst aff
Ġ1 7
anz en
ĠGr enzen
Ġhin ter
Ġsub stant
ĠLe g
ĠAuf gaben
Ġserious ly
Ġfinanz iellen
beding ungen
Ġcreat ing
Ġreach ed
Ġverbess ern
Ġret urn
Ġconsequ ences
Ġverst Ã¤r
Ġsustain able
Ġocc as
ĠPlen um
ĠKamp f
l iz
Ġin e
Ġe ver
Ġp at
ll os
den ken
Ġcon stit
ĠT ra
ĠT our
Ġex act
Ġvor sch
Ġra d
Ġexp endit
ĠDe z
ĠBereich e
org ung
Ġpl ann
verkehr s
Ġkonk reten
ĠZust Ã¤nd
Ġze igt
ĠKrit erien
ĠFortsch ritte
ĠKomprom iÃŁ
a fr
i que
n ern
w ise
z el
ch s
ch ter
Ġs Ã¤mt
re hen
Ġc e
ĠI de
Ġal most
Ġall oc
ib e
uch t
Ġbesch rÃ¤n
Ġinvest ig
Ġrisk s
Ġequ al
Ġcl ose
ĠFÃ¤ llen
Ġchallen ge
ĠGeschÃ¤fts ordnung
Ġexperien ce
Ġsolidar ity
ĠKÃ¶nig reich
N atÃ¼rlich
h Ã¤n
Ġo il
Ġp ort
Ġn uclear
Ġun er
Ġdie jenigen
ver gen
Ġle arn
cht ung
Ġjed es
ĠAuf merksam
stitution al
ĠHa upt
ĠGebie te
ĠBet rug
Ġagricult ure
Ġinstrument s
Ġconclus ion
ĠWoch e
Ġve h
Ġbil ater
ĠlÃ¤nd lichen
Ġschein t
ĠAusfÃ¼hr ungen
Ġexpendit ure
ĠAufmerksam keit
A L
f rei
h anden
w el
Ġm aterial
Ġh uge
ir es
hr ist
Ġso ur
Ġver d
ĠW issen
sp e
pe kt
ze hn
Ġsie ht
ieren den
ri fft
fahr ens
Ġmeas ure
ree ce
Ġentsprechen den
Ġexc lus
Further more
Ġtot ally
F R
ie t
ĠS c
ĠS elbst
hr en
Ġda durch
Ġfa ce
oun ts
teil ung
ĠKolle ge
ĠIntern ational
Ġvern Ã¼nft
ĠKommissions mitglie
Q u
Ġa way
an a
Ġf Ã¼hrt
Ġz entral
ĠM Ã¤n
ĠB udget
ĠF alle
Ġver stehen
Ġpro ceed
Ġcom ing
Ġcomm er
teil t
ĠKon ferenz
ho ben
Ġ19 8
Ġpri orities
Ġaccord ance
ĠRegel n
Ġproduc ers
on nen
un ktion
Ġw oll
Ġs ix
at ik
ĠP rÃ¤
Ġor d
Ġfest stellen
Ġeffect s
There fore
Ġele kt
Ġlim ited
ĠStra ÃŁ
ĠPat ent
ĠschlieÃŁ lich
Ġintend ed
Ġrefuge es
) .
a f
j ahr
Ġt ack
Ġm ess
em b
ĠB arn
Ġl iving
Ġver k
est ion
Ġpro b
Ġst ated
ĠW ert
ĠAn g
ens ions
Ġreg ret
Ġent hÃ¤lt
esch rÃ¤n
Ġapp lies
fen ce
rie ben
Ã¼tz en
ĠUnter such
olog ical
Fra ktion
ĠHand el
Ġsupp orted
Ġeing es
orn ing
Ġcr ime
ĠAs yl
pf lich
ĠRass ismus
I s
s o
Ġm et
ro k
ul f
ach ten
Ġex tens
Ġsu p
sen s
ungs verfahren
ĠPro z
Ġpos sibility
cil iation
wir ken
Ġdiscuss ed
ĠRegel ungen
Ġann ual
ĠBalk an
kontro lle
ĠProt okoll
z if
Ġth us
Ġth reat
ĠM iÃŁ
Ġde ath
for ms
Ġco hesion
Ġnoch mals
Ġcons ult
lÃ¤ ÃŁ
Ġbest Ã¤t
sto ffe
Ġbro ught
ĠFran ce
zuf Ã¼hren
ĠVerkehr s
Ġerne ut
Ġentwick eln
oph ob
Ġli ability
Ġcircum stances
f assung
w enden
z Ã¶
Ġf al
Ġn utzen
Ġc ross
ĠP er
il ar
ab kommen
Ġde v
our n
iti ativen
Ġfre ue
ateg or
ĠBeschÃ¤ft igungs
Ġaddition al
iÃŁb rauch
Ġmen sch
Ġzie hen
Ġerwar ten
ĠMinder heiten
Ġheut igen
O b
P E
n ungs
w here
Ġ Ã¤
Ġd ut
an ze
om at
ĠE ind
Ġwe ak
ĠVer wendung
ĠVer mitt
Ġne uer
ure au
ran k
Ġmy self
Ġeff icient
ri ft
ĠLand es
Ġlie be
ĠmÃ¶glich st
ĠauÃŁ erdem
ĠgegenwÃ¤rt ig
Ġrestr ict
ĠFischere i
Ġtour ism
G C
p olit
t ik
x is
en ophob
in dern
Ġm orning
Ġun ge
ĠG M
Ġst op
ĠVer hÃ¤lt
Ġsch l
ous ly
Ġgo es
ub lik
Ġste ts
Ġsp ok
bar keit
Ġdirect ives
pro du
Ġthank s
Ġdemokrat ischen
ĠKap ital
V er
n ungen
ch ange
Ġb rief
Ġv ital
il itÃ¤t
ĠG ra
Ġso gen
Ġcon dem
Ġer hÃ¶
Ġdes ign
me er
ue llen
ĠGr ie
Ġconsider able
ĠSte llen
ĠFraktion en
Ġcur ren
Ġallow ed
att le
miss ion
Ġproper ly
Ġklein en
N un
f eind
o ul
s eit
w ill
Ġ x
Ġun an
Ġre ag
ĠI GC
Ġl ot
Ġda ys
Ġpro t
ĠZ ivil
ĠT Ã¤tigkeit
Ġgen u
Ġte le
Ġout side
ĠGes amt
Ġfest gelegt
Ġsc ope
ĠMe x
ĠBesch l
Ġaccess ion
Ġinstitution al
Ġbeit ragen
Ġdisast er
D A
Ġf lo
ent wick
Ġh ome
us ion
ul y
Ġex erc
Ġhe ar
au ern
Ġ199 6
lan gt
ĠÃľber gang
ĠGebie ten
Ġgut en
Ġpres idency
Ġcap ac
yl um
ode ll
ĠstÃ¤rk er
ĠWer te
Ġdemon str
Ġdurchge fÃ¼hrt
G leich
M ore
Ġd ate
un kten
ar ily
te l
Ġe mer
Ġein iger
ĠP PE
Ġre ject
der ungen
am ber
Ġdies bezÃ¼
Ġpro f
Ġst ra
ĠVer trÃ¤ge
pe cted
ze uge
Ġac ross
wer te
Ġmo b
ĠWir k
ĠÃľber wach
Ġresol utions
Ġpar agraph
Ġvorgeschlagen en
Ġben Ã¶t
ĠSol idar
ĠJust iz
Ġsett ing
ĠLin ie
ĠGerichts hof
Ġyes terday
ĠSchluÃŁfol gerungen
a ktor
Ġb illion
ĠE l
ĠA chtung
ic ien
il ities
Ġzu g
Ġver pflich
and s
la re
tr ary
ĠT ier
Ġsh own
ress ion
Ġeff ekt
tern ative
ek ten
Ġoff ensichtlich
Ġconf irm
ĠPolitik en
zus ch
zeug t
Ġentsp rechend
ĠgehÃ¶r en
ĠProj ekt
ĠFran k
Ġadministr ative
Ġelekt ron
b ed
o ol
Ġd r
Ġs elf
Ġb rit
ĠP rÃ¼
ĠP flicht
ĠM io
et s
Ġfor ms
ot es
ĠG ene
ĠG reece
Ġal ong
Ġas ylum
ĠD ies
ib ility
ĠÃ¼ber w
Ġ2 4
Ġen able
Ġpr ice
Ġinc in
Ġeff iz
Ġprodu ce
ĠZeit raum
Ġredu ction
Ġmin imum
gru ppen
Ġdiscrimin ation
ĠGrie chen
L assen
b el
y ing
Ġ Ã¤ndern
Ġt en
Ġv ol
ra hmen
id ay
Ġge wor
Ġj en
Ġj ur
Ġse par
ok raten
lieÃŁ en
Ġdevelop ed
Ġdeb t
ĠTe chnolog
Ġsom it
Ġmil k
Mein er
ĠIhr er
Ġfish ing
ĠForsch ung
ĠBrit ish
ĠJu gend
Ġx enophob
Ġc amp
Ġre forms
ĠK ommun
de ed
Ġwicht iger
forder ung
Ġimplement ing
Ġentsprechen de
Ġbusiness es
ĠkÃ¼nft ig
Ġrac ism
ĠAnst ren
b Ã¼r
e ben
g Ã¼lt
m Ã¶glichkeit
al es
Ġf ragen
ig ungen
ĠB ildung
Ġer greifen
ĠD a
la ub
for dern
Ã¤n den
Ġex port
ud ge
Ġfin ally
Ġihr es
ĠDe ut
Ġstr ict
Ġstat us
Ġrem ark
Ġnat ural
Ġadministr ation
ĠGesetz gebung
Ġbeton en
Ġobvious ly
ĠKonfl ikt
N ow
k raft
l ier
in s
it ors
ie ll
ĠP lan
ĠB ar
ĠR ess
Ġex ternal
ges undheit
Ġsch ool
Ġspe aking
str Ã¶
Ġeinz ige
Ġho ffen
ac io
ĠEntschlieÃŁ ungsantrag
ĠTreat ies
Ġlang frist
ĠGesundheit s
Ġundert ak
Ġofficial s
Ġpartners hip
ĠPal acio
Ġverpflich tet
A N
H O
H ow
s um
Ġh Ã¤
ge mÃ¤ÃŁ
ĠA ktiv
ĠP ol
Ġcon trary
Ġvor handen
ĠN iel
Ġ1 00
Ġsp ir
Ġho hen
Ġright ly
Ġger ing
Ġreal ity
Ġdifficult ies
Ġoc cur
Ġmed ium
Ġtry ing
Ġurg ent
Ġunan im
3 0
ie ben
Ġein be
Ġg ab
ĠW ahr
ĠD ruck
ess es
ĠN ational
ĠSch l
Ġdar stellt
Ã¤r enz
Ġwar um
ren z
Ġrem ember
ĠHa ider
Ġnotwend igen
Ġspeak ers
ĠWieder auf
Ġcaus ed
ĠInvest itionen
ĠPrior itÃ¤ten
Ġsan ctions
Ġaccep ted
Ġprob ably
h nung
i j
z ub
Ġw elt
Ġs ent
re c
Ġan wes
sch lossen
Ã¶ st
ĠR and
ĠW ill
ik en
Ġco de
qu is
Ġdar stellen
Ġqu ant
Ġob tain
Ġbes ten
Ġdirect ly
Ġgr ant
Ġestablish ing
Ġparliament ary
Ġlab our
ĠSolidar itÃ¤t
l Ã¼ck
o den
is ter
un dert
Ġs ort
Ġin stead
le isch
Ã¼ glich
Ġg anze
ĠB Ã¶
ĠV iel
Ġne u
Ġcom bat
ĠBe f
ĠAb schluÃŁ
Ġber u
Ġkon tro
ire d
gel t
Ġganz en
Ġview s
Ġbez Ã¼glich
Uns ere
ĠJust ice
ĠDirect ive
Ġche ck
ĠFrank reich
ĠAnstren gungen
V on
d om
f rieden
i ance
Ġ ung
Ġ ign
Ġt reffen
on t
Ġs ummit
ie tet
Ġin tens
Ġe her
ach tet
Ġex change
Ġvor her
ĠN ations
be hÃ¶r
Ġfirst ly
Ġfest gestellt
Ġeffect ively
Ġdiscuss ing
Ġeing ere
Ã¤rk ung
Ġcre ation
Ġpost al
Ġtechnolog y
Ġfun ction
ĠermÃ¶ gl
ĠMed iterranean
Ġrecogn ise
Ġavo id
b ringen
m in
Ġb od
ent scheid
Ġh err
Ã¤ us
Ġg ere
Ġg ern
Ġg ran
am m
Ġda gegen
ĠF ern
op ol
ĠIn halt
ger ung
reich end
rat ed
itu de
ĠGes prÃ¤
reit en
Ġbestehen den
Ġparticip ation
Ġangem essen
Ġcapac ity
ĠermÃ¶gl icht
a ve
m et
r ong
y ond
z ul
Ġ ill
it ation
Ġs ide
re p
re ck
Ġto ok
Ġge kommen
ĠH armon
Ġj Ã¼n
ĠN ov
Ġum gesetzt
Ġprop ort
ass ungen
Ġper fect
ĠMaÃŁ e
Ġgew esen
acht ung
Ġuse ful
org nis
Ġbess ere
ĠAustri an
Ġerne uer
alle l
ĠerfÃ¼ llen
ĠME P
Ġanalys is
I F
s ystem
w esen
y se
in den
it er
ĠA genda
ĠP ublic
ul s
Ġk ulture
Ġver urteil
Ġde alt
Ġj Ã¤hr
ĠÃ¼ber nehmen
ĠAus bildung
Mr s
ri end
Ġele ctions
Ġstand ard
Ġwish es
Ġinde pendent
ĠDisk rimin
ĠMar ch
Ġkonn te
Ġexact ly
ĠÃ¤ hn
2 0
g ere
k rÃ¤
m Ã¼
p ret
Ġw rong
it ious
it ives
at ure
ar der
Ġan zu
Ã¤ her
ĠE conomic
us ed
im ate
sch w
ĠK u
ĠK ar
Ġsch le
ran ge
Ġen orm
Ġunter nehmen
Ġexp lan
lÃ¤ gt
ĠDe legation
Ġdec lar
kon om
ĠArbeits losigkeit
Ġcommit ments
ife llos
ĠStra f
Ġbal d
Ġdire kt
ĠAsp ekt
ĠBalk ans
Ġpress ure
Ġhumanit arian
ĠmÃ¼ÃŁ te
Ġscient ific
Ġcondem n
ĠNiel son
ĠNov ember
R B
b ank
v is
Ġbe yond
Ġz ul
Ġl og
In deed
ĠBer ichte
rit tens
ĠEin satz
fall en
Ġsicher lich
gew icht
Ġsimp le
Ġdocument s
ĠWoch en
ĠfrÃ¼ her
Ġcurren cy
Ġwelt weit
Ġbod ies
h aus
Ġn immt
Ġbe kommen
ĠS orge
Ġzu frieden
ĠF ahr
ier ter
Ġge Ã¤uÃŁ
Ġde ep
ind et
ĠSt ud
ĠAus gaben
ĠAb fall
ud ed
Ġbet rachte
pt ion
uss els
Ġev alu
ĠSta at
Ġens uring
Ġhal f
Ġtransp arent
Ġsim ilar
Ġ8 0
Ġcommun ities
ĠFol ge
Ġfamil y
ĠÃľberein kommen
Ġrepe at
ĠMÃ¤r z
Ġmess age
ĠEind ruck
RB AN
D o
D em
E C
Z unÃ¤chst
b s
er ungen
Ġw orth
re land
Ġm iss
Ġbe ar
sch n
Ġge leistet
Th ank
ĠRe chn
ste ller
eren ces
ĠBer lin
Ġpr im
Ġgen annten
Ġma g
Ġint ention
Ġ199 5
utz t
Ġact ual
Ġrequ ires
ĠAfr ican
abil itÃ¤t
ĠMill iar
aussch usses
ĠParte ien
andid aten
Ġsafe gu
Ġfisher ies
Ġvict ims
ĠbeglÃ¼ckwÃ¼n schen
IF E
e g
u ern
z ust
ch nung
Ġw ait
Ġp ack
Ġl Ã¶sen
ĠVer halten
Ġne ar
Ã¤n e
Ġsh ip
be ziehung
ĠEr ika
Ã¶r en
Ġpolic e
Ġsp Ã¤ter
olog y
ĠLand wir
ĠAbgeordne ter
schie de
eth eless
Ġ200 2
Ã¤mp fen
Ġpoin ted
iar ity
All erdings
Uns er
ĠSchul den
ĠIra q
ĠSan ktionen
ĠVerteid igung
Ġgewor den
C ommission
c ut
l ant
r ennung
Ġa de
it ial
Ġe hr
Ã¼ g
ur den
ĠI m
ĠI reland
sp ar
Ġvor aus
ĠVor bereit
Ġ2 3
Ġcomp rehen
Ġconc entr
Ġimp os
ĠEin haltung
ĠEin zel
au en
Ġfe ll
Ġsub mitted
Ġpar ts
ĠBr Ã¼ssel
Ġdemand s
mitt ag
ĠZwe ifel
ĠPra xis
Ġveh icles
E n
m aking
s etzt
er ungs
Ġd iv
Ġb anan
Ġin itial
Ġbe ein
ut h
ĠM os
Ġre d
Ġal one
Ġver ste
Ġde ad
ĠN icht
ist isch
sib ilities
ĠCh amber
Ġ3 7
Ġar gument
Ġgemein schaftlichen
Ġgesch ehen
abe lling
Ġposit iv
Ġaccept able
ĠVorschlÃ¤ gen
Ġ9 0
Ġcommit ted
ĠBr ussels
ĠVerwalt ungs
Ġchallen ges
Ġschwer wie
Ġkonzentr ieren
ĠjÃ¼n g
S ince
o llen
o ught
Ġw onder
Ġs age
Ġun fortunately
Ġv otes
Ġg rat
omm er
Ġcon cept
Ġver folgen
ĠVer Ã¤nderungen
op les
sp er
ges etz
ĠSch we
Ġdis app
ĠEin beziehung
Ġdevelop ments
Ġviel mehr
ĠAuf nahme
str umente
Ġur ge
spr Ã¼n
letz t
Ġversuch t
ĠSol ana
Ġdiskut ieren
Ġanim al
Ġassess ment
Ġpa id
ourn al
udge ts
Q U
ich erung
Ġb ill
Ġb ad
Ġf irm
Ġg re
ct ive
Ġde fence
ĠRe formen
ann er
lie gt
ĠSt at
ĠÃ¼ber zeugt
Ġ2 8
Ġapp rec
Ġgen ug
Ġbes ondere
au ft
ĠJahr h
Ġop eration
ĠUm fang
Ġfinan cing
ĠOr t
Ġlook ing
ĠGegen teil
Ġgar ant
Ġzahl reiche
ĠWor ld
Ġanim als
ĠJanu ary
ĠDemocrat s
ĠHarmon isierung
QU AL
i led
r ic
Ã ľber
Ġs itu
Ġb ody
Ġh our
Ã¤ fen
Ġand ers
ĠM acht
Ġfor ces
ĠU RBAN
ĠW orte
ĠT od
Ġno ise
wor tet
ĠBed enken
Ġinternational e
Ġdra wn
ĠMittel n
Ġreason able
Ġorgan isation
sid iar
Ġlea ve
Ġsubsid iarity
Ġschwier ig
ĠAktion sp
ĠHeraus forderungen
Ġportugies ischen
ĠSub sidiar
5 0
S ome
V O
h re
k olog
in ced
Ġd ise
Ġth ought
re ff
Ġm ut
ent wurf
Ġp rÃ¤
Ã¤ ss
ĠA ktionen
ĠK inn
Ġk l
ĠF onds
ver se
Ġde legation
sp ekt
Ġr ise
Ġres erv
ese hen
ĠMaÃŁ nahme
Ġemp f
Da zu
Ġentsp richt
wÃ¤ ss
mÃ¤ÃŁ ig
Ġerforder lichen
Ġadv ant
Ġactiv ity
Dar Ã¼ber
Ġdef end
Ġcolleag ue
ĠZwe ck
Ġear lier
ĠSÃ¼d afr
ĠBeteil igung
ĠKinn ock
W er
a ign
j ust
j Ã¤hr
v al
z ed
Ġn ah
Ġn ennen
Ġbe in
Ġbe ginnen
ur y
Ġg ives
ĠL IFE
ien ce
Ã¶r t
Ġsp ielen
Ġev ents
Ġper spect
ĠFor derungen
Ġhel fen
ĠMon t
Ġneg ative
Ġur sprÃ¼n
Ġimpro ving
01 0
prÃ¼ ft
ĠerwÃ¤ hnt
Ġamb itious
Ġfig ures
Ġjeweil igen
ĠRechn ungs
a cy
c el
e hm
f iz
g ing
at ch
Ġin fra
Ġe t
us h
Ġz unehmen
ĠA gricult
im ent
ĠM ay
et imes
Th ird
ĠU K
ĠL ux
Ġle icht
we ist
ĠIn itiativen
Ġum welt
Ġges etzt
ĠKon s
Ġprov iding
ĠHa arder
Ġtrans ition
Ġregional en
Ġdeal ing
Ġsuccess ful
com ing
He ute
Ġkonn ten
Ġmer ely
Ġtraff ic
ĠOp fer
ĠMilliar den
i ately
k Ã¼nd
s k
ch st
re ign
al er
Ġf Ã¤
Ġn ied
Ġan erk
Ġc le
om in
Ġg esehen
ĠB l
ly ing
ĠD en
Ġwith d
ive au
ident s
ak a
Ġvor legen
oll ar
ĠRat s
Ġact ive
hÃ¶r en
ĠHaus es
leg ungen
ĠMittel meer
Ġqual ifiz
Ġderzeit igen
Ġremain s
Ġrece ive
ĠVerpflicht ung
Re g
Ġharmon isation
Ġear ly
Ġconv inced
Ġnetwork s
ĠKoh Ã¤renz
ĠDec ember
Ġcoher ence
L ast
e f
en ary
er es
in ter
un sch
Ġs k
Ġl ater
Ġk aum
ĠF unktion
Ġer k
Ġde pend
ze igt
Ġhe art
Ġexp lo
ĠVerb indung
Ġoff ice
Ġgesch lossen
gest immt
zeich nen
Ġmain ly
Ġ6 0
Ġpl enary
ĠPr iv
Ġstruct ures
ĠauÃŁer ord
ĠHeraus forderung
ĠVolks gesundheit
Ġlangu age
Ġindustr ial
Ġimmed iately
Ġpurs u
cyc ling
Ġcamp aign
ĠRess ourcen
Ġkontro ll
Commission er
S elbst
j e
w art
Ġw id
Ġf la
Ġf ear
Ġn ame
ĠS y
ĠS inn
ul ierung
Ġl auf
Ġer weit
ĠPrÃ¤sident en
Ġcons ist
Ġkein es
ĠEin sch
fl uÃŁ
Ġprov ides
Ġway s
Un ter
ĠSp iel
Ġhigh ly
ĠÃ¶ kolog
grund lage
Ġstrateg ic
ĠPortug al
ĠPerson al
Ġgrund sÃ¤tz
ĠFamil ien
Ġspee ch
Ġeinges etzt
ĠAktiv itÃ¤ten
ĠLux em
t o
en der
Ġa ge
Ġe c
Ġe lement
Ġbe mÃ¼
ĠE reign
sch uld
ber icht
ot s
ĠG VO
Ġge k
Ġcon du
ver standen
Ġer griffen
Ġj oin
sp rÃ¼
ĠN ieder
Ġaus fÃ¼hr
ord ing
Ġpolit isch
Ġsol utions
ĠGrund sÃ¤tze
Ġadd itives
Ġausge wogen
Ġkommen den
Ġperson al
ĠIhr en
Ġbegin ning
ĠJanu ar
Ġmanufact ur
grenz ung
ĠDez ember
Ġfell ow
Ġs end
Ġm oral
Ġun ivers
om b
ĠE QUAL
ĠS ach
ul ated
ĠR ules
Ġfor mer
ĠC he
ĠC entral
Ġver m
ĠAn fang
rÃ¤ ge
ĠGr unde
Ġspe ed
Ġra ise
Ġson st
Ġref lect
isten ce
Ġstatt finden
Ġze hn
Ġlet ter
Ġtreat ment
ĠRep ublik
ĠStabil itÃ¤ts
ĠerklÃ¤r t
ĠGesch ichte
Ġencour age
Gen eral
Ġmax imum
ĠZustÃ¤nd igkeit
Ġspir it
Ġanwes end
Ġcomprehen s
a ution
c c
r ig
y pr
un ch
Ġw an
Ġw ach
Ġm anner
te i
Ġh ig
Ġbe ige
eit her
et te
ĠV oll
ff iz
ĠH ause
Ġdes cr
Ġdi vers
hl en
Ġrep la
Ġrespon d
Ġend gÃ¼lt
Ġadop ting
Ġinvol ving
Ġtrans fer
spro gramm
Ġcontrib ute
Ġstep s
Ġintrodu ced
ĠSeit en
Ġaddress ed
ĠRep ublic
ĠStabil itÃ¤t
Ġbeteil igt
ĠVereinbar ung
ĠGar ant
Ġbecom ing
Ġrenew able
Ġsinn voll
Ġsubstant ial
Ġcommer cial
L e
Ġw Ã¤ren
Ġin ten
Ġf rei
ur d
ed eral
ĠA ud
Ġg ain
ĠB lick
Ġl ik
ĠF Ã¼hr
ĠG lobal
Ġer schein
ab sicht
ĠL ud
for d
ĠN etz
ĠÃ¼ber ein
Ġent gegen
spro gram
Ġkomm e
Ġabsol ut
ĠKrit ik
Ġmilit Ã¤r
Ġcover ed
ĠerklÃ¤r en
ĠverfÃ¼ gen
yn am
bÃ¼r ger
ĠhÃ¤ ufig
Ġinfra struct
Ġhig her
D rittens
N ever
Ġb ig
Ġun mittel
Ã¤ st
ll schaften
ĠE tik
Ġzu dem
ĠK aka
res pon
rÃ¤ gt
gr Ã¼nd
Ġch ance
Ġcomp lex
Ã¼n den
ish ed
Ġfin de
sam m
Ġmehr ere
Ġknow n
Ġgesch ieht
Ġcar s
zeug ung
Ġgest alten
aff t
Ġmin orities
ĠBest and
ĠKontro llen
ĠTur k
Ġinform ed
Ġann oun
Ġweek s
ĠAmer ican
Third ly
A lle
A fter
V iel
b or
o x
Ġd ienen
Ġf ulf
ar ak
Ġe m
der e
Ġfor th
ĠL om
Ġne igh
ĠT err
ann te
aus ch
ĠN utzung
ern er
Ġch arter
Ġsa gt
ĠMit arbeit
Ġges tern
lieÃŁ lich
ha fte
gin n
Ġhand eln
Ġask ing
Ġgleich e
ĠmÃ¶glich erweise
Ġsom etimes
Ġredu cing
ĠAl ban
Ġdel iver
Ġfinanz ielle
Ġdefin ition
Ġlea ders
Ġdut y
Ġeffiz ient
Ġsitu ations
Ġwan ted
Ġneigh bour
a pt
m and
v a
z lich
Ġt arge
Ġb ar
Ġf allen
Ã¤ den
as bourg
ĠE ing
ic ations
ĠS onder
im ately
ĠK at
um s
Ġge ograph
ben d
Ġst imme
iv al
ĠBe handlung
ĠVor haben
Ġges etz
los en
ĠHer kunft
Ġorgan ised
ĠÃ¶ff entliche
ĠMa i
ify ing
ĠhÃ¶ her
Ġty p
Ġclos ely
Ġcontain s
ĠWettbewerbs fÃ¤higkeit
ĠFest legung
ĠFr iday
Sch lieÃŁlich
Ġstaat lichen
Ġpen alt
ĠÃľberwach ung
ĠGriechen land
Ġxenophob ia
Ġwithd ra
i ens
w iesen
Ġm ist
ar ch
ge ht
ur ance
im b
Ġfor get
Ġcon stant
ĠW es
ĠVer letz
op oul
Ġex cess
Ġr ig
Ġaus reichend
itte es
Ġinc ome
Ġnational e
fÃ¤ llen
ĠSp ain
Ġbring t
Ġcompet it
fra struktur
ĠBeit ritt
ĠHo ff
ĠVoraus setzung
Ġbetroffen en
ugosla w
Ġhapp y
icien cy
Ġgran ted
Ġbetrachte t
Ġcomprehens ive
) ,
Z ur
Ġan geb
Ġbe finden
Ġein setzen
Ġein verstanden
ĠM indest
ol er
ĠB Ã¼
Ġj ene
Ġse chs
Ġex tra
ĠIn st
Ġsch Ã¼tzen
rÃ¤s ent
Ġ2 7
lin ge
Ġjed e
Ġpe oples
uropÃ¤ ischen
Ã¼tz t
Ġrep ly
Ġqual ified
ĠgrÃ¶ÃŁ ere
Ġverschieden e
vorsch lag
schein lich
prÃ¼ fung
Ġvers ich
ĠEmpfehl ung
Ġblo ck
ĠBarn ier
B et
o ber
Ġa ffairs
un sten
or re
Ġb ietet
Ġun able
ol id
ĠB ild
Ġl abelling
urop a
ein en
kt ors
ck now
ĠCommission ers
ĠIn strumente
ges ichts
Ġaus schlieÃŁlich
Ġpr ices
Ġdec ide
ĠKolle gin
ĠUm st
ĠCh ance
Ġprodu ced
Ġgew Ã¤hl
tro l
Ġappro val
stimm ung
ĠSp rache
Ġele ments
Ġatt itude
Ġestablish ment
erk ennung
Ġbed arf
Ġsens itive
Ġze igen
Ġcompan y
ĠWÃ¤hr ungs
ĠHÃ¶ he
ĠKont in
Ber icht
ĠBeam ten
ĠsÃ¤mt liche
ĠAng ol
Ġsup erv
Ġsafegu ard
ĠAgricult ure
ĠLud ford
A nder
N o
S P
e x
Ġa cknow
Ġf riend
Ã¤ cht
Ġbe absicht
ĠP unkten
ĠF aktor
Ġauf merksam
ĠL a
Ġde g
ĠZ entral
Ġco co
ĠSt ad
ĠSch ritte
ĠBe ginn
ĠBer eit
Ġent stehen
ĠEr wÃ¤
ĠGr Ã¼
lin es
Ġpre fer
Ġger ne
Ġzwe ifellos
ĠHin ter
ĠHa ft
Ġbef assen
ĠHe alth
hÃ¶ hung
Ġopt im
Ġbuild ing
ĠzusÃ¤tz liche
Ġportugies ische
ĠFehl er
ĠErfahr ungen
ĠSÃ¼dafr ika
Ġcoco a
E U
d es
m Ã¶glich
v ere
in ational
Ġth ous
Ġw ants
it et
ar um
ĠS w
Ġg renz
ol z
sch et
Ġer lÃ¤
la us
Ġr asch
ĠN ord
ĠAn erkennung
Ġdo ct
ĠStr asbourg
Ġtechn ischen
richt ungen
ĠÃ¶ sterreich
Ġgef unden
Ġair port
Ġappropri ations
ai led
Ġstud y
anan en
ĠEmpfehl ungen
Ġschem e
Ġkeiner lei
ĠfranzÃ¶s ischen
ĠGlobal isierung
ĠEtik ett
Ġcompetit iveness
schet schen
E ven
N ur
T od
n el
an de
Ġz ut
Ġein schlieÃŁlich
Ġver me
Ġse he
Ġcom peten
Ġinter in
ang s
ĠDe fin
Ġsay s
ob in
gend es
ĠProgram ms
zip lin
Ġsupp lement
ĠBes orgnis
ĠProdu kte
Ġant i
Ġrelations hip
ĠErklÃ¤r ungen
Ġentwick elt
gÃ¤n z
ĠerfÃ¼ llt
Ġbor ders
Ġkomp liz
ĠDienstleist ungen
feind lichkeit
Never theless
D ann
c raft
f alt
f Ã¤lt
i ated
l ament
Ġt est
it en
an cen
Ã¼ ter
Ã¤ um
Ġv ir
ĠP ap
im at
Ġcon struct
Ġauf zu
Ġse a
ĠRe chnung
ĠSt o
Ġab geschlossen
ĠAn p
se ktor
Ġen for
Ġunter nommen
Ġgo al
Ġbet rachten
Ġexp er
Ġar t
An gesichts
Ġletz t
Ġletz te
ĠunterstÃ¼tz e
Ġinvol ve
zeich nung
ĠdÃ¼r fte
Ã¼cksicht igung
Ġeigen e
Ġstruct ure
Ġadopt ion
CO S
Ġtask s
Ġorigin al
Ġunterschied liche
ĠRisik o
ĠRisik en
Ġconcl ude
Ġattemp t
Ġvere hrte
emb ly
Ġign or
ĠMEP s
je cted
cc ording
b ild
u ble
en ze
Ġa fr
Ġb an
Ġb ank
ĠM ark
ĠB ot
Ġl isten
ĠR oth
ĠF reit
ĠG o
Ġal ternative
Ġver folgt
Ġst ock
ĠAn frage
ĠBe zug
ĠBer Ã¼cksichtigung
Ġpropos es
Ġsp ent
Ġthink ing
Ġho he
Ġsystem at
Ġaut omat
ĠUmwelt schutz
ĠBet rie
sequ ently
ĠLÃ¶s ungen
Ġricht ige
Ġair craft
ĠFisch ler
ron ic
Ġintrodu ce
Ġvorgesehen en
Ġmult inational
ĠFÃ¤ lle
ĠPre is
Ġeas y
ĠEng agement
More over
reff end
ĠRechnungs hof
G e
S eit
r upt
s er
al ien
Ġe hem
Ġein f
ul ieren
ĠK ing
ĠK indern
ĠRe vision
Ġco oper
ĠUnion s
ĠKommission sprÃ¤sident
schaft liche
ĠVor red
Ġinter v
Ġcomp ens
ĠGr enz
amp ere
ĠLe ist
olog ie
Un fortunately
ĠSp rachen
Ġachie ving
ĠÃ¤uÃŁ ern
Ġcall ing
Ġlim its
maÃŁ en
Ġintrodu ction
ĠgegenwÃ¤rt igen
Ġcontra dict
ĠEC HO
Ġground s
ĠGru ppe
Ġschem es
oz amb
Ġexpla in
Ġcritic ism
ĠstÃ¤nd ig
ĠVermitt lungs
mÃ¶glichkeit en
Ġenorm ous
Tod ay
2 1
P T
i ot
z ut
is c
un t
an ten
an ces
Ġb r
Ġbe zieht
Ġge d
Ġver an
Ġver wendet
Ġer r
ust r
ib et
ĠIn sel
ĠPro ced
ĠEr hÃ¶hung
ĠEin fluÃŁ
wer ber
ĠÃĦ r
Ġput ting
Ġatt ack
ĠMon ate
ĠAu ft
Ġredu ced
lex ible
Ġcrit ical
Ġpl ant
Ġbrauch t
Al though
Ġcl ass
ĠMinister s
Ġhappen ed
ai ro
Ġrecogn ised
Ġincreasing ly
ĠmÃ¼ÃŁ ten
yp ern
ĠFremden feindlichkeit
Ġbeha up
ĠKommissionsmitglie d
Ġexerc ise
strÃ¶ m
ĠPriv at
ĠauÃŁerord entlich
imb ab
ĠFreit ag
Ġehem al
ĠProced ure
D en
a aten
f Ã¤hr
u ct
y a
es tens
is ziplin
ro chen
ĠE thiop
ra k
Ġk lare
Ġon es
ĠVer stÃ¤nd
ĠVer gleich
ĠT ampere
ĠCommission s
ĠAn spruch
ĠAus s
Ġent it
Ġspe zif
he ad
Ġout come
Ġsub mit
Ġ3 1
Ġ3 00
Ġgew isse
Ġla id
ac ter
Ġtechn ische
Ġlo st
ĠProble men
ĠgrÃ¶ÃŁ ten
Ã¤rk ten
Ġide as
Ġpri or
Ġbenefit s
Ġparliament s
Ġjud icial
Ġcent ury
Ġdiskut iert
Ġlangu ages
ugosla v
ĠvollstÃ¤nd ig
Ġwiederhol en
ĠStraÃŁ burg
Ġreag ieren
ĠAud itors
ĠTurk ish
D urch
H a
W el
c alled
e es
u erung
w ahl
Ġt Ã¤t
Ġth re
Ġh op
Ġv o
Ġv olle
ing t
ĠP h
ĠS weden
Ġre den
Ã¶ der
ot ion
ĠG el
Ġver teid
Ġer folgen
ĠW unsch
Ã¼ber schreit
ĠN utzen
ĠBe wertung
Ġam t
Ã¶r dert
Ġpropos ing
Ġconc rete
ĠMitglied s
Ġrec ord
vention en
Ġele cted
ĠVerein ten
ĠAl ters
Ġvorgeschlagen e
Ġguarante es
ron t
ĠBevÃ¶lk erungs
ĠMed ien
Ġbehand eln
Ġcare fully
Ġrecommend ations
Ġrail way
Ġoblig ations
Ġemphas ise
ĠBemerk ung
chanis men
Ġchar acter
Qu estion
Ġgenu ine
ĠÃľbergang s
Gleich zeitig
ypr us
Ġfulf il
Ġdeg ree
Ġverme iden
ĠKing dom
m on
on a
ar a
ar es
Ġe mb
Ġp aper
Ġc ame
Ġbe ef
Ġein sch
Ġwh om
ĠF lexib
ĠSt imme
ĠSt Ã¤rkung
Ġab stimmen
Ġaus zu
Ġaus drÃ¼cklich
ure ly
ĠEn ts
Ġreg ime
Ġ2 6
Ġus w
fÃ¼hr ungs
Ġar range
An frage
Ġcompet itive
gele itet
Ġwes halb
gre if
Ġoper ations
Ġakzept iert
Ġmed ia
Ġexc l
ĠauÃŁer halb
ĠGleich gewicht
ĠMil ch
unter nehmen
ĠWor ten
ĠRegional politik
ĠzustÃ¤nd igen
ĠSpan ien
ĠBemerk ungen
ĠPartner schaft
ĠPe ople
Ġflexib ility
Ġinfl uen
ĠKatastrop he
Ġwoll te
lÃ¤ÃŁ lich
ĠVerhÃ¤lt nis
Ġzug unsten
Ġade quate
Ġhour s
A ccording
B y
S ub
l en
en te
Ġw it
Ġm ill
Ġe missions
Ġan schlieÃŁen
ur ally
ĠA d
ĠM ozamb
ĠI mp
Ġl Ã¤nger
os en
Ġer kennen
Ġst abil
ik ation
ate ful
ĠZ ypern
Ġmit tel
Ġvor zulegen
Ġab zu
Ġaus sprechen
ĠSch wer
Ġam er
Ġimp ression
Ġother wise
Ã¤hr ung
Ġper man
Ġrel ated
ĠRechts grundlage
ĠFl ugh
Ġcond ition
Ġstatement s
CO D
Ġrecommend ation
Ġhist ory
ĠFrieden s
Ġenter pr
ĠOrganisation en
Ġcontinu ing
Ġelect ronic
ĠWo hl
ĠPrÃ¼ fung
zed on
Ġperspect ive
Ġinten ds
bor der
Ġthre aten
A mend
h ab
i form
m at
Ġt rag
Ġb urden
al yse
te te
Ġp ornograph
st uff
ĠS ystems
eit er
Ġl ines
Ġver urs
Ġer sch
ĠVer fahrens
ĠD imension
ĠL auf
ĠZ w
qu alitÃ¤t
Ġwill ing
ste lle
ĠIn frastruktur
be kÃ¤mpfung
ĠSch aden
ass end
ieren de
Ġkon stru
Ġweiter er
Ġappro ve
ĠMein ungs
Ġnun mehr
Ġbegr enz
Ġimpro ved
Ġprom oting
Ġcontrib utions
Ġkonk ret
ĠZahl en
ĠLis te
ĠÃ¼brigen s
ĠGrÃ¼n de
ĠWahl en
Ġstrong ly
Ġcho ice
Denn och
ĠFebru ar
ĠFebru ary
Ġethn ic
ĠWissen schaft
Ġflo or
sum er
ĠPol ize
samm lung
ĠDefin ition
I st
M U
b ody
i able
r t
v ent
Ġd on
Ġa chten
or gt
Ġb ureau
Ġf lexible
ĠS ysteme
ĠI ran
ĠC hrist
ĠC yprus
Ġer fahren
ĠD im
Ġmit t
ted ly
Ġinter pret
sta g
ĠUnter schiede
fl anzen
ĠCh arak
ĠArbeits zeit
Ġexpress ion
sequ ent
Ġprec aution
ĠItal y
ĠPrior itÃ¤t
ĠY ugoslav
ĠbeschÃ¤ft igen
ĠunabhÃ¤ng ig
ĠGerman y
ĠGM Os
ĠWirk lichkeit
Ġimpos sible
Ġschwerwie gen
ĠerlÃ¤ ut
imbab we
I T
a ktion
Ġ u
or f
Ġm and
Ġan nehmen
ge iz
Ġfor mal
os al
Ġcon vention
Ġcon struction
ach s
ĠW ie
ĠVer l
ind ing
Ġj etz
ak te
ĠAn teil
Ġman aged
Ġ2 9
Ġfa cing
iz ed
ĠEin richtung
wer ten
ĠÃľber prÃ¼fung
ĠFin n
ĠCon sumer
Ġher zlich
io de
Ġstehen den
ĠSozial dem
ĠBr enn
Ġglobal isation
ĠRed ner
Dar um
ĠGre ek
Ġcontra ct
ĠSektor en
ĠNor men
wan derung
chanis ms
ĠpersÃ¶n lich
ĠGed anken
Ġausgezeichne ten
Ġplann ing
ĠBeschl Ã¼sse
Ġperfect ly
ĠLandwir te
ĠTod es
ffiz ien
Ġgrenz Ã¼berschreit
A T
C on
V ielen
n immt
p unkte
r enn
y er
Ġd imension
al tet
Ġh or
Ġn either
ĠS en
ĠM alt
Ã¼r k
iss ens
Ġso fort
Ġer geben
Ġvor ge
err ing
Ġme chanisms
Ġhe av
Ġad apt
Ġcomm ittees
ĠO b
Ġimp lic
Ġ199 4
Ġhin zu
Ġmo der
ĠCh ancen
gel assen
Ġgr Ã¼nd
Ġadd ed
Ġwel com
Ġass ure
Ġrem ov
ĠCon trol
Wh y
Ġposit ions
such en
ĠMon etary
Ein ige
Ġtax ation
Ġequ ality
Ġadv oc
Ġander es
Ã¤hl en
Ġdemokrat ische
Ġterr itor
leit en
gru ppe
St aaten
ĠIra k
ĠGru ppen
ĠKr isen
ĠWider spruch
Ġtim et
frei heit
Ġincin eration
Ġeingere icht
lament ar
S V
b o
Ġt on
Ġp un
om s
Ġbe trÃ¤cht
ĠA k
Ġg esellschaft
ĠM eth
ĠM old
ĠK Ã¼
Ġge be
Ġge Ã¤ndert
ĠVer zÃ¶
ĠT ibet
Ġvor be
ĠÃ¼ber tragen
Ġent schlossen
ĠEr n
ĠEr wart
Ġch air
Ġcomp uls
Ġfin ance
ĠReg ulation
reich ung
Ġsol cher
Ġsub stances
ĠAuf bau
Ġrespon sibilities
Ġeinz us
vers orgung
Ġinterest ing
Ġinclud es
Ġsign ed
Ġander erseits
Ġbal anced
Europ a
ĠgewÃ¤hr leistet
Ġopp osed
Ġteil weise
Ġsur pr
ĠerwÃ¤ hn
Ġunterschied lichen
)) .
Ġfall s
Ġumfassen de
Ġverl oren
Ġdest ro
Ġcla im
ĠRom an
Ġhighl ight
Ġsus pend
Ġquot as
behÃ¶r de
ĠprÃ¤ z
ĠMozamb ique
ffizien z
I I
j ekt
u z
en falls
Ġd ro
Ġt w
Ġt reten
Ġt Ã¼rk
es ten
re ben
re gel
al d
sch Ã¤d
um p
and al
ĠD es
Ġne ues
la u
ĠZ unÃ¤chst
ug nisse
Ġab ility
ĠAn forderungen
ges ted
Ġapp oint
Ġcomp ly
ĠGe walt
Ġeff iciency
ĠKon sequ
Ġgr ateful
hand el
ĠEntwicklung spolitik
Ġange ht
Ġser ve
ĠHin weis
Ġlaw s
Ġklar en
Ġrepresent ative
ĠKontro ll
Ġintegr ated
Ġander em
ĠLiberal en
ĠIhre m
Ġtechnolog ies
Ġnon etheless
Ġclos er
Ġwahr scheinlich
Ġoblig ation
Ġderart ige
Ġgener ally
ungsan trÃ¤ge
Ġinst ance
ĠIr land
Ġerfolg reich
Ġpat ent
Ġvorsch lagen
ĠDeut sch
Ġeinbe zogen
ĠWill en
ĠgeÃ¤uÃŁ ert
Ġpack age
ĠMos amb
Ġforth coming
m utzung
u elle
v i
v olle
Ġ ult
er nen
on es
it ing
Ġp ub
Ġh ol
ge ber
as se
Ġg ave
ĠB ananen
ĠK op
ĠR u
ĠH och
Ġer folgt
ach teil
Ġst immt
Ġauf zunehmen
ĠL at
Ġsu chen
Ġaus ges
ĠSch weden
ĠBe weis
ĠBe griff
ĠMen sch
Ġdec is
Ġev idence
Ġfact or
Ġsupport ing
ha ften
Ġdenn och
Ġwel ch
richt en
richt linie
Ġwen igen
licher weise
Ġur ban
Ġregional e
Ġmin ority
Ġextre me
Ġdel ighted
Ġglau ben
Ġeing er
Ġbesonder en
ĠSozial schutz
ĠMa zedon
Ġcontrol s
sto ff
ĠStruktur en
zw ischen
ĠZus Ã¤tz
zuf Ã¼gen
Ġhappen ing
Ġshow s
ĠItal ien
Ġdang er
Ġbedeut en
ĠErzeug er
Ġbeton t
Ġrein for
ĠFlÃ¼cht linge
Ġspezie ll
ĠDiskrimin ierung
ĠfÃ¤ llt
f leisch
g ibt
s ized
w uÃŁ
in o
Ġa ktiv
Ġs etzt
at ively
an ach
Ġb ase
Ġh arm
Ġun c
Ġto ld
Ġv ig
Ġbe ziehen
ĠE v
ĠS pe
ĠM oment
Ġre ch
Ġre action
Ġzu folge
Ġda uer
Ġcon ciliation
sp olit
Ġvor bereit
ĠN G
ĠAn liegen
ens wert
ĠBer at
ran ts
Ġ2 2
Ġpolit ischer
Ġpre vention
sib ly
fÃ¼hr ten
lÃ¤ ss
Ġ3 2
Ġdeb ates
Ġgew alt
Ġdisc ip
itz en
reit ung
ĠÃ¶ff entlich
Ġcall s
Ġbo und
Ġdisast ers
ĠHÃ¶ chst
Ġfacil it
tell ten
Ġverantwort lich
Ġce il
eschrÃ¤n kt
Ġsogen annten
ĠTechnolog ien
ĠVorbereit ung
ĠSchwe iz
Ġcompuls ory
N e
W arum
l icht
s ysteme
or men
or ate
ar i
Ġn ieder
Ġc al
Ġun z
Ġbe ide
ĠC or
ĠEurop ol
Ġcon sens
ak is
Ġco up
ib iot
ste ht
Ġsch lÃ¤gt
ang ing
ĠMitglie dern
Ġexp ens
ĠÃĦ thiop
Ġdiff erences
ĠÃľber legungen
Ġknow s
ĠUmwelt fragen
Ġfra ge
Ġatt ach
ĠÃĸ l
Ġaufge fordert
Ġdet ailed
CO M
Ġsubsid ies
ĠHo hen
ĠlÃ¤nd liche
ĠErzeug nisse
ĠAss embly
ĠFremden verkehr
Ġerziel t
ĠRom a
organisation en
Ġimmig ration
vergen ce
ĠBudget ary
Ġconsult ation
V iele
b it
b ung
l Ã¤nd
m ed
y ear
Ġd re
Ġt ut
at o
an ischen
Ġb ieten
Ġin ade
Ġf Ã¼
Ġun ion
ll af
ra p
ĠM o
Ã¶ hn
Ġau ft
Ġfor est
Ġcon ference
Ġver weisen
Ġdes ire
ĠVer f
ab les
ĠD ienste
ĠL ann
ĠT r
ru h
Ã¶r der
Ġgen ere
ose v
ĠDe fiz
ĠUm wel
fr ont
ĠÃľber zeugung
ĠSe llaf
Ġdra st
ĠVorschlag s
Ġmon opol
Ġser ies
Ġgef Ã¶rdert
Ġ19 7
Ġaim s
ĠEnerg ien
Ġwider sp
ĠVoraus setzungen
Ġcomb ating
Ġune ing
Ġord nungs
Ġprecaution ary
ĠMosamb ik
Ġconsens us
ĠLann oy
Ġordnungs gemÃ¤ÃŁ
N S
d ienste
i for
l ings
v iel
z one
Ġs org
at tet
Ġf r
Ġh Ã¤lt
ic ip
Ġre act
ĠB ird
ĠK re
Ġso le
Ġcon vergence
ĠD ar
Ġne ben
tr itt
Ġse ien
ĠT schetschen
ĠAn d
rÃ¤ ft
Ġdar aus
nah m
Ġ199 3
lÃ¤ ge
Ġoff iz
ĠFor men
Ġpar lamentar
Ġcitiz en
tend lich
Ġget ting
gemein schaft
Ġrepresent s
Ġerforder t
Ġguarante ed
Ġdefin ed
sÃ¤tz en
Ġdisp la
ĠMil osev
Ġparticip ate
ĠUr s
ĠVors orge
ĠLebensmittel sicherheit
Ġexam ine
Ġappe al
Ġerheb lich
ĠBas is
Ġsour ces
Ġtack le
Ġbrit ischen
Le ider
Ġarrange ments
Ġbureau c
Ġpub lish
ĠSellaf ield
ĠLannoy e
K OM
Y et
c ision
m il
n Ã¼
w ing
Ġt ro
it ime
Ã¼ ben
Ġun be
ig ne
Ġein ig
ĠP act
Ġre jected
Ġl ate
Ġk Ã¼rz
Ġso eben
ĠT obin
Ġr ange
ĠÃ¼ber nommen
ĠAn fragen
ist an
ue ll
ast richt
chn ya
sel ben
Ġcontin ent
ĠOr d
Ġfol gendes
ĠgrÃ¶ÃŁ te
Ġumf ang
Ġeinge gangen
ziel le
Ġstart ing
Man y
Ġbil den
Ġdemon st
Ġappear s
Ġstar ted
Ġilleg al
wh at
rok rat
Ġdesign ed
schn itt
Ġehr geiz
opoul os
ĠGrÃ¼ nen
Ġinfluen ce
stuff s
A P
M ir
b eschÃ¤ft
c ent
f eit
f eld
l ose
Ġt emp
ch sel
Ġa cht
it able
Ġm inister
Ġm Ã¼nd
te ten
Ġc ust
Ġz eit
ĠS h
am er
ĠB yr
os es
Ġver Ã¤nder
ĠH ul
Ġr as
Ġvor genommen
ĠAn griff
ĠAn laÃŁ
Ġaus ger
ĠJ un
ĠEr arbeitung
Ġen j
Ġcomp ar
ĠEin w
ĠEin igung
ced on
Ġany one
Ġsome what
Ġ3 5
Ġnat urally
Ġposit iven
Ġwes entliche
Ġinvest ments
Ġsupp ly
Ġbess eren
ĠMa astricht
schied et
Ġsuc ceed
Ġel imin
Ġhervor ragen
ĠGre en
Ġzahl reichen
ĠGemeinschafts in
ĠFest stellung
Ġtar get
stra fe
Ġdise ase
Ġnah e
Ġcondu ct
ĠChe chnya
ĠEthiop ia
Ġpornograph y
ĠBird al
ĠMilosev ic
ĠByr ne
D E
E very
J ed
W ill
k ret
n es
p akt
s ystems
it ory
it rak
re che
Ġn Ã¶t
us es
ĠS av
ĠM adam
ul ations
ĠK rÃ¤
ĠK lar
ĠK rank
Ġl ies
Ġl oss
ĠR ind
Ġge langen
Ġge zeigt
ĠH ung
Ġst or
Ġst ip
ĠW el
ĠW enn
ĠW ales
Ġj em
ate ver
ĠRe chten
Ġmit einander
Ġco ast
Ġab gele
Ġme ant
ĠAr gument
ert rag
Ġunter st
sam keit
Ġwar ten
bar er
Ġnational er
hand els
Ġ4 8
Ġsc ale
Ġinvol ves
Ġallow ing
spro z
Ġgel ungen
ĠgrÃ¶ÃŁ eren
Ġsens ible
Ġeinge fÃ¼hrt
Ġhervor heben
ĠHe imat
ĠBinnenmarkt es
Ġcontain ed
Ġsug gested
ĠFortsch ritt
Ġdraw ing
Ġgra du
ĠSerb ia
Ġelse where
Ġverab schiedet
Ġsy mp
Ġoccas ions
ĠMont i
Selbst verstÃ¤ndlich
ĠKat ifor
ĠAngol a
Ġdoct ors
Ġconstruct ive
Sub ject
Ġwit ness
ĠDim itrak
Ġtimet able
ĠKatifor is
ĠDimitrak opoulos
% .
P res
h y
er ten
un er
at ible
or ient
an ad
le cted
Ġp ensions
Ġn ight
Ġz erst
em it
ic o
Ġg rie
im al
ut in
ĠI C
id d
Ã¶ konom
Ġl ives
Ġfor dert
Ġer fre
ĠL i
ĠRe alitÃ¤t
hal te
Ġman age
Ġfa iled
ĠAb fÃ¤lle
Ġcomp l
Ġac quis
Ã¶r per
sta c
Ġpr ison
ote chnolog
Ġfre ien
str ategie
Ġinternational er
Ġfest gelegten
ĠSe e
Ġla unch
ĠWirtschaft spolitik
ĠZiel setzungen
Ġnotwend ige
Ġseit en
ĠzurÃ¼ck ge
ĠStra ÃŁen
Ġpost pon
komm t
ĠnÃ¤ch ste
Ġmean ing
Ġbo ard
Ġvers ion
riminal itÃ¤t
Ġterr itory
Ġconflic ts
ĠRatsprÃ¤sident schaft
ĠInformations gesellschaft
Ġdistrib ution
Ġsepar ate
Ġcle an
Bet rifft
ĠVerstÃ¤nd nis
ĠMazedon ien
ĠTschetschen ien
beschÃ¤ft igung
b r
f u
n ational
Ġa bend
un ruh
Ġs ession
an f
Ġb inding
Ġf rag
Ã¤ s
ĠE ffizienz
Ġein geb
ic ted
ĠS a
ĠM odell
Ġzu k
Ġl ay
ĠD on
sp unkt
Ġall zu
Ġvor ange
Ġres pekt
Ġat tend
gr enzen
ĠSch re
ĠBe fÃ¼r
ĠAus nahme
Ġthere by
ĠJ une
Ġdi pl
Ġwor se
Ġcomp la
Ġob stac
Ġdurch zufÃ¼hren
ĠO ber
Ġpre m
Ġjust ified
wor fen
ob il
Ġwieder um
ĠZiel en
Ġ. ..
gre ement
eich en
ĠOrgan is
Ġoper ators
Ġperson s
Ġinstitution ellen
ĠGre ens
ĠGemeinsam e
ĠÃľberein stimmung
stell ungen
ĠKonfl ik
Ġbetreffen den
ĠSpan ish
ĠDritt lÃ¤ndern
Ġmethod s
ĠRuss ian
Ġmass ive
Ġexclus ion
Ġdeclar ation
spar tei
ommer ce
Ġadvant age
Ġdivers ity
ĠMalt a
ĠDeutsch land
ĠÃĦthiop ien
Ġgrie ch
A R
N icht
c ement
f aÃŁt
f angen
o und
p rÃ¤sident
u ens
Ġd ynam
at her
re chten
Ġan gebracht
Ġc rop
Ġun less
ĠM or
ĠB udgets
Ġda hin
Ġver ring
Ġde leg
iv ity
Ġse ven
ĠT SE
Ġle gen
ib ed
Ġab st
ĠIn n
se cut
he im
Ġgegen seit
wir kt
Ġwel cher
Ġeinz igen
Ġeven ing
Ġhigh est
reit et
Ġ200 6
Ġwissen schaftlichen
ĠMa cedon
wirk ung
Mein es
Ġoper ate
fÃ¤h ig
Ġprec ise
Ġinform ieren
Ġdef ine
ifiz ierung
Ġclos ed
Ġpass ed
Ġlink ed
ĠArbeitsplÃ¤tz en
ĠverfÃ¼ gt
ĠRes olution
ĠRuss ia
ĠbeschrÃ¤n ken
ĠBetrug s
Ġfal sch
ĠerhÃ¶ hen
Ġelektron ischen
ĠKons ult
Viel leicht
Ġtarge ts
ĠÃĦr z
ĠMo dern
J etzt
V P
e c
l it
s h
Ġ ut
er maÃŁen
is te
re ib
Ġn ations
st ance
ĠE lement
ĠA kt
ber e
Ġge prÃ¼ft
ver sch
ver age
Ġver standen
ĠW affen
Ġr uss
Ġvor gelegten
Ġsich ern
ĠPres se
Ġ2 010
Ġfa ced
Ġnach drÃ¼cklich
Ã¼n de
Ġpolit ic
ĠO ffice
Ġfact ors
ild et
ĠWe ge
Ġacc ounts
ĠZeit plan
Ġrel ig
pro gramm
ĠInter oper
itz er
Ġverb ind
Ġbez ahl
Ġprom otion
Ġseit ens
Ġumf assend
Ġfight ing
ĠDiskuss ionen
ĠItal ian
ĠkÃ¼nft igen
ĠMin utes
ĠWachstum s
Ġerziel en
Ġincorpor ated
polit ischen
Ġspok en
ĠdiesbezÃ¼ glich
ĠGene va
Ġproport ion
Ġvir t
Ġafr ikanischen
ĠCharak ter
ĠErwart ungen
Ġausges prochen
nÃ¼ p
A m
F rom
R O
b esch
w al
ro h
Ġe y
Ġp ill
Ġp assen
st at
Ġv ess
il ater
Ġl en
Ġden ken
Ġso vere
ĠVer st
ĠL ab
ĠT un
ĠT agen
Ġex ists
ĠAn n
ĠAn gaben
se h
ĠMit entscheid
Ġgew iss
ĠTe le
ha gen
Ġamend ed
Ġar r
amen te
act ory
Ġresol ve
fÃ¼ hl
ĠHer zen
Ġopin ions
lemen te
ĠTeil en
recht lichen
Ġallgemein e
Ġindividual s
Ġopp osition
Ġprotect ing
Ġviol ations
ĠQu oten
Ġernst haft
Ġseek ing
ĠAgrar politik
Ġprakt isch
Ġsuffer ing
ĠTra de
Ġalloc ated
entwick lung
Ġgrat ulieren
ĠStabilitÃ¤ts pakt
ĠHinter grund
Ġentit led
Ġenj oy
Ġzuk Ã¼nft
Ġsovere ign
- ,
T rotz
b ased
c a
c ommerce
h uber
p ornograph
er zeug
is ierten
Ġs w
Ġh Ã¶ren
as h
Ġbe unruh
ĠA kte
hr ten
Ġzu gelassen
ĠR uÃŁ
Ġk ennen
Ġfor dere
Ġpro spect
ĠT er
ĠAn zahl
Ġaus gehen
uch e
ĠBe grÃ¼nd
Ġen vis
iz on
lin ed
Ġsp rach
Ġconsider s
Ġconsider ably
Ġexamp les
Ġrapporteur s
ĠHer steller
ĠEntscheid ungs
ĠWettbewerb spolitik
Ġeinzel staat
wed er
Ġpriv aten
stehen den
ĠEntwicklungs lÃ¤nder
ĠFrei heiten
Ġvorliegen de
Ġmult i
Ġverbess ert
Ġcaus es
Ġlow er
ĠKoh Ã¤s
ĠFamil ie
ko sten
Ġcounter feit
Ġfunktion iert
Ġoccas ion
Ġbilater al
Ġcode cision
Ġconcentr ate
ĠjÃ¼ng sten
Ġjetz igen
ĠVorsorge prinzip
ĠJun i
H in
V ertrag
b od
k ungen
t on
on om
re gelung
em ark
ic ans
Ġzu gr
ĠF er
Ġver stÃ¤nd
ĠW as
ĠD Ã¤n
Ġex em
ĠAus grenzung
Ġreg ular
ĠmÃ¶ glichen
Ġam ounts
Ġen h
Ġgen annt
Ġpolit ics
Ġimp osed
igkeit s
ink en
Ġsub stance
geb ie
Ġdiff erence
cept ion
Ġgreat est
ĠSta uner
mittel t
enden ce
Ġwichtig ste
Ġletz tendlich
Ġtr uly
ĠAbstimm ungen
Ġbek rÃ¤ft
Ġplan ts
Ġspeak er
ĠTran s
ĠOrgan e
Ġeinge halten
ĠNe u
ĠNe w
ĠEx per
Ġfamil ies
ĠFr ist
Ġnie mand
ĠSocial ists
Ġve get
Ġamong st
Ġstud ies
Ġclar ify
Ġbor der
Ġgrundlegen den
Ġemploy ees
ĠbeschÃ¤ft igt
ĠVereinbar ungen
Ġrecon struction
stre am
Ġspezie llen
Ġtar iff
ĠIde e
ĠbestÃ¤t igt
Ġschl imm
ĠbenÃ¶t igen
Last ly
Ġfla x
ĠMitarbeit er
Ġsupplement ary
ĠBot schaft
Wel che
Ġkonstru kt
Ġdecis ive
Ġabgele hnt
ĠModern isierung
Ġzugr unde
C NS
D S
m ien
t in
v an
Ġ 0
Ġa f
is emit
Ġw rit
Ġw ettbewerb
Ġan gest
ĠS ter
ĠS ign
ĠS orgen
ĠS wed
eit igung
Ġre cycling
il le
il st
Ġzu letzt
Ġwh ilst
ĠK ategor
Ġau ff
Ġver z
ĠVer lauf
ĠUn ivers
ĠT iere
Ġex istence
Ġvor zu
00 4
scha u
Ġaus reichen
ĠVor be
Ġdis ag
Ġgen Ã¼
Ġwar m
Ġsupport s
Ġins ist
Ġins urance
ĠSe attle
kl ang
Ġur gency
Ġrequire ment
ĠThe ato
On ly
Ġpract ices
Ġrev ision
Ġread y
Ġhervor ge
Ġbu ilt
Ġopp os
heb ung
mb ol
weg s
Ġnie mals
Ġlab el
Ġgee igne
ĠPrinzip ien
ĠwÃ¼n schen
Ġexcept ion
Ġsec ure
ĠTour ismus
Ġremark s
ĠBÃ¶ sch
ĠAktionsp lan
Ġmanufactur ers
Ġinfrastruct ure
Ġversich ern
ĠStad t
Ġperman ent
ĠZusÃ¤tz lichkeit
Ġdemonst rated
ĠHul ten
ĠDÃ¤n emark
a ust
b rit
v ors
z ieren
Ġ Ã¤rm
Ġa verage
is ted
it el
Ġb ir
Ġf u
Ġh und
Ġun re
Ġun iform
Ġto ol
ĠE igen
Ġis ol
ĠA greement
ĠS wo
Ġre iter
il en
ver folg
ĠH igh
Ġer Ã¶r
ĠVer such
ĠVer sammlung
Ġwer t
ĠN RO
Ġme chan
ĠAn lagen
Ġsie ben
Ġsp ending
Ġmehr fach
Ġbest immt
Ġfest zulegen
isp iele
Ġmon etary
omp an
Ġ200 3
stand ing
Ġsupp osed
ĠbegrÃ¼ÃŁ t
Ġricht en
Ġcap able
zÃ¼ glich
Ġschwier igen
Ġverein bar
Ġfig ure
200 6
Ġcred ibility
ĠSchiff e
Ġbrief ly
Ġemer gency
Ġanerk annt
ĠDen mark
Ġlik ely
Ġthous ands
Ġcompeten ce
ĠVorred ner
rap ie
Ġsorg fÃ¤lt
bod a
ĠSwo boda
2 5
m eld
s ieht
z usammen
en kt
Ġw on
Ġin te
Ġf ront
te hen
Ġh emp
ra gt
Ġg ing
sch lag
lich ung
Ã¶ p
isch em
res ented
Ġim ag
ver letz
Ġver t
Ġpro of
and a
Ġst Ã¤r
ĠSt ability
und es
ungs bereich
ĠAn alyse
uf e
up ts
ĠPro blems
ĠSch Ã¤den
Ġen de
Ġnach dem
iz Ã¼g
Ġste lle
ĠGe ber
Ġcons olid
lÃ¤ ufig
Ġconsider ations
Ġrequ ested
Ã¤l ter
ĠSe curity
Ġho ffentlich
Ġappro x
Ġange kÃ¼nd
Ġreal ise
Ġbring ing
ĠBerichterstatter s
ĠFre edom
Ġgel Ã¶st
ĠNach bar
Ġlead ing
Ġdraft ing
Ġnever theless
Ġentire ly
ĠME DA
Ġfehl t
Ġinnov ation
Ġbel ong
ĠZusatz stoffe
Ġlok alen
Ġinspect ion
Ġimprovement s
ĠKatastrop hen
Ġjur is
Ġkulture llen
Ġet c
Ġec ological
Ġannoun ced
Ġletzt lich
Ġhor izon
idd le
ĠInteroper abilitÃ¤t
E benso
P er
R icht
a vour
d ent
e conomic
n etz
u k
w ind
Ã Ħ
en ing
Ġd ign
Ġa part
Ġa head
on en
at ers
re ifen
Ġan statt
Ġun f
Ġein gebracht
ĠP flanzen
ic ate
im a
ĠM iÃŁbrauch
Ġre gel
Ġwe alth
Ġge tr
ver Ã¤n
Ġver lei
Ġer le
Ġvor rang
Ġab gestimmt
be f
Ġte ile
Ġmehr eren
Ġpolitical ly
Ġpla ced
iff er
Ġrem ote
pro gram
Ġweiter es
ĠHin dern
Ġstand s
ĠArbeits markt
Ġ7 0
Ġsimp l
Ġmeet ings
Ġrecht lichen
01 6
ĠVolk spartei
ĠMarkt es
ktiv itÃ¤t
Ġdisp osal
Ġerinn ert
Ġjud gement
Ġocc up
Ġpoor est
ĠSerb ien
Ġextend ed
Ġfolgen de
Ġgrundlegen de
Ġappe ll
ĠWiederauf bau
ĠVoll beschÃ¤ftigung
ĠUmst Ã¤nden
ĠtÃ¤t ig
ĠFlexib ilitÃ¤t
Ġimplic ations
Pres ident
brit ann
I DS
f ers
k ur
o on
p ay
ĠE G
ĠM Ã¼
ĠB en
ĠK andidaten
ĠK riminalitÃ¤t
ĠR ent
Ġk n
Ġfor ced
ach er
ĠUn gleich
ĠT ai
end t
if teen
Ġmit teilen
ĠSt Ã¤d
ĠÃ¼ber all
Ġor al
Ġdo uble
ĠBe ispiele
Ġnach zu
Ġpos sibly
Ġspe zielle
Ġ199 2
Ġleg ally
Ġtran se
Ġeconom ies
hand lungen
Ġwel chen
isten z
fin anz
ĠMittel punkt
Ġinvol vement
Ġtrans l
wirtschaft ung
Ġbek Ã¤mpfen
Ġpres ence
Ġaddition ality
Ġpay ments
Ġchange d
Ġunderstand ing
Ġgrow ing
Ġopen ing
Ġtechnolog ical
Ġrele ase
bereich e
oper ability
Ġviol ence
Ġlink s
ĠzusÃ¤tz lichen
ĠAt lant
wÃ¼rd igkeit
Ġeinheit lichen
Ġlegitim ate
ĠEast ern
vergen z
Ġundertak en
ĠViel falt
Ġverurteil t
Ġbeein trÃ¤cht
Ġverste he
ĠSubsidiar itÃ¤t
ĠVerletz ung
Ġexper ts
ĠYugoslav ia
S oll
d ire
m ing
t Ã¤us
in ner
ie gen
Ġm ig
Ġp ath
Ġn Ã¼tz
Ã¤ umen
Ġis land
em m
ĠB os
ĠF ore
ot o
ĠV ice
Ġal ten
Ġit alien
Ġer Ã¶ff
ĠVer k
ĠD isziplin
ĠUn abhÃ¤ng
Ġj un
ĠZ oll
Ġco ll
ug g
ĠAn merk
ahr en
ĠAus arbeitung
Ġsein es
ĠEin heit
ĠEin klang
Ġweit gehend
Ġexp ert
Ġhin zufÃ¼gen
ĠKon vergenz
Ġsol ve
ĠTe chn
ĠgroÃŁ es
loy ed
Ġla utet
Ġ4 2
ĠRechts staat
Ġletz ter
Ġwen ige
Ã¤lt igen
Ġ9 5
ĠVerbraucher politik
ĠgrÃ¶ÃŁ er
ĠNach druck
Ġcl imate
Ġcor respon
Ġdef ic
Ġteil en
Ġprep are
Ġstress ed
go ing
ĠNahrungsmittel hilfe
ĠPra kt
Ġtradition al
Ġimmed iate
Ġassoc iation
Ġsour ce
Ġextens ive
Ġundertak ings
ĠBestand teil
Ġtyp es
vi our
Ġinade quate
ĠOrd nung
ĠSav ary
ĠSchre yer
ĠSwed ish
B es
m a
Ã ĸ
Ġd iss
Ġth or
Ġs ides
le in
om it
ig end
Ġein geleitet
ĠP ak
ĠM c
ĠM art
Ġre tain
Ġwh atever
ĠK ind
Ġk am
ĠG et
Ġdies el
ort hern
Ġver tra
Ġer arbeitet
Ġne un
ts ein
ĠZ eichen
lie ben
ĠSt unden
ck ung
ug t
ĠAus nahmen
In s
ĠJ ugoslaw
Ġdar unter
Ġad just
Ã¤r kte
Ġpart ly
Ġbet reffend
hl t
Ġcons erv
Ġint entions
Ġsp ielt
Ġges p
Ġwork ed
ĠKon zept
bar go
Ġsol ches
ĠVerb rennung
Ġgew issen
An y
Ġeffect iveness
Ġprote cted
Ġwirk lichen
Ġsicher stellen
sto ffen
ikan en
zw ungen
ĠGegen stand
Ġmind estens
ix ed
Ġzahl en
ĠBehÃ¶r de
Ġexpect ations
Ġdep art
Ġemphas is
Ġland wirtschaft
Ġsl ow
Ġinnov ative
ĠGroÃŁ britann
Ġextens ion
ĠBar cel
Ġevalu ation
Ġbanan as
Ġunivers al
Ġpenalt y
ĠHoff nung
Ã¤um t
Ġenterpr ises
ĠNG Os
ĠMacedon ia
vors itz
ĠFore ign
Ġthor ough
ĠBarcel ona
M e
d et
i ben
m acht
m Ã¤rkte
s et
t ion
Ġt rÃ¤gt
Ġth ir
Ġs la
or um
le y
Ġn ine
Ġan z
Ġbe ings
Ġein erseits
em ann
Ã¼r f
ĠR o
ĠR ural
ĠG Ã¼ter
Ġver langt
ĠH Ã¤l
Ġpro ve
ĠL ien
ik o
Ġle iden
qu al
Ġvor an
ĠÃ¼ber zeugen
Ġres pected
ĠBe ob
Ġch em
ap an
Ġsp richt
Ġiss u
ĠCh in
ĠVerb reitung
Ġviel er
Ġrel ativ
Ġref erring
hand elt
such t
ĠFl or
ĠHand eln
ĠHaushalts kontrolle
Ġfollow ed
ĠFre izÃ¼g
Ġvoll kommen
ĠauÃŁ en
Ġbestimm ter
Ġcolle ctive
ĠBes eitigung
Ġoper ational
Ġperson ally
Ġoffen bar
Ġintrodu cing
Ġben achteil
Ġinform iert
Ġkle ine
Ġtreat ed
Ġrecogn ition
ĠAmer ica
Ġfamil iar
urteil ung
Ġpot ent
Ġbeha viour
ĠzustÃ¤nd ig
oz i
Ġdetail s
Ġquot a
ĠLeg al
Ġmaterial s
Ġprof ess
Ġerneuer baren
Ġconsist ent
ĠEreign isse
Ġbeige tragen
ĠWes tern
Ġwelch em
ĠRind fleisch
bere cht
Ġhorizon tal
Ġdign ity
ĠHÃ¤l fte
ĠLien emann
A rt
C an
K Ã¶n
c ause
g round
h ner
k re
k rit
s c
in ts
on y
un ion
Ġw aters
ich ert
Ġf ift
Ġh ar
Ġh Ã¤n
Ã¤ h
Ġto wn
Ġv ia
ing u
ĠE ur
ig ent
ĠA IDS
ĠP o
ut s
ĠM and
el te
ĠK y
Ã¼r de
ier end
Th en
Ġpro sper
ĠD ub
ind ungen
ĠRe al
ĠRe aktion
Ġr ational
ĠSt reit
ĠN ether
Ġab ziel
uch en
ĠAus maÃŁ
ĠJ ournal
ĠAb kommens
ick s
ub a
ĠmuÃŁ ten
Ġsp reche
Ġmo ving
Ġfe eding
sche fs
Ġdam als
get ragen
ob by
Ġunder m
ss on
Ġro und
An other
Ġresol ved
ĠFinanz ierungs
Ġgeb oten
Ġtax es
ĠProdu ktion
Ġaim ed
ĠEntwicklungs lÃ¤ndern
Ġbene f
Ġbef aÃŁt
ĠGegen satz
Ġopp ose
Ġeindeut ige
Ġhumanit Ã¤ren
Ġbeant worten
Ġvis it
ĠMÃ¤r kte
Ġhead ing
Ġirgend ein
Ġhighl ighted
ĠGeneral dire
IP C
Ġimmig rants
statt ung
ĠTour ism
Ġprot est
Ġstra f
Ġmob il
Ġherr scht
Ġbein hal
ĠursprÃ¼n glichen
ĠEinsch rÃ¤n
ĠNieder lan
Ġunmittel bar
Ġairport s
Ha ving
Ġcal c
ĠRuÃŁ land
ĠDub lin
ĠNether lands
A fr
H ere
K on
c ret
h ib
k atastrop
t ung
at om
re b
re geln
Ġin f
Ġin zwischen
le un
Ġh om
om et
Ġg one
ĠM ann
ul ner
hr endt
Ġl ose
ĠC O
Ġver gleich
ĠH IPC
kt ure
ĠW est
ĠL ast
ĠZ ul
Ġse ction
Ġvor hin
aus o
Ġsh ared
Ġaus einander
Ġum zusetzen
ure ich
uch ner
ord nungen
ĠVor teile
Ġinter ested
ud em
lin ary
Ġgen utzt
ĠO sten
ĠArbeit en
Ġ199 0
ign et
fe il
ĠEntwick lungen
Ġfact s
ĠZusammen halt
ĠLe ute
Ġass ume
ĠKo uchner
Ġwichtig es
ĠMe eres
Ġatt ra
Ġtr end
Be hrendt
Ġir re
ikan ische
Ġglobal en
Ġapplic ant
Ġexce ed
Ġopt ion
ĠSocial ist
Ġwirksam e
Ġgee hrte
Ġmar gin
Ġmar itime
ĠFlÃ¼cht lings
ĠAnt worten
ĠAll i
Ġhapp ens
ĠKom peten
Ġausgezeichne te
Ġconstit ute
Ġproceed ings
ĠUntersuch ung
ĠPer spekt
Ġmensch lichen
ĠAnp assung
ĠGel der
lau ben
ĠLi ikanen
ĠInn ov
Ġlen gt
ĠBegrÃ¼nd ung
ĠFer ber
Ġwettbewerb s
Per haps
ĠFreizÃ¼g igkeit
0 8
C hrist
N ot
S uch
Z B
a ktionen
m lich
v ollen
en hagen
Ġd om
it ologie
Ġs al
Ġm ak
Ġh ence
Ġn ation
Ġv ulner
Ġein stimm
ĠS Ã¤
ut ing
ĠM aterial
am a
Ġk orre
Ġwe ap
ver tre
ĠW aren
Ġdes erv
00 1
uf Ã¼hren
In itiative
Ġinter operability
gra d
lo ck
Ã¼ck en
ap ital
Ġsp read
lÃ¤ chen
auf en
ring lichkeit
rei ft
Ġrel ates
Ġrel atively
Ġoff ers
Ġrep resented
Ġnat Ã¼r
Ġro om
Ã¤l sch
fÃ¤ ll
Ġzwe ck
Ġsc r
Ġgut es
Ġgeb ill
Ġdifficult y
Ġfinanz iert
ĠVertre tern
Ġaff ord
Ġapply ing
leit ung
Ġoblig ator
Ġgelten den
ĠTag ung
Ġrepe ated
ĠbefÃ¼r worten
Ġsatisf actory
Ġprepar ing
Ġsufficient ly
ĠKom itologie
Ġplann ed
Ġdemonstr ate
zub auen
Ġargument s
Ġexcess ive
Ander erseits
ĠZentral bank
ĠEtikett ierung
Ġheav y
Ġsymp ath
ĠOrganis men
ĠÃĦrz te
itzer land
pornograph ie
Ġhervorge hoben
ĠÃ¤rm sten
Ġbeinhal tet
2 4
C lear
S A
d orf
g ers
m os
in strument
Ġd ritten
Ġf ats
ent y
Ġn Ã¤her
Ġun l
ĠE P
ol on
ul ich
den kt
um ed
Ġver Ã¶ff
Ġer hÃ¤lt
end um
Ġvor stellen
ĠParl amente
Ġab use
ĠEuropean s
Ġsch afft
gr enze
ĠEr nen
Ġinter pre
th e
ish ing
Ġinc ent
ĠUnter schied
Ġref ers
ĠBed arf
ĠSe cret
Ġprocess es
Ġnum erous
fra gt
Be cause
Ġset s
Ġsicher zustellen
Ġbed auer
hol d
Ġsubject s
miss ionen
Ġgovern ance
Ġkurz em
ĠKinder pornographie
Ġentscheiden de
Ġgegeben enfalls
wach stum
ĠGleich stellung
Ġumfassen den
Ġwesentlich er
ĠBrit ain
Ġko h
Ġcoher ent
ĠKr ise
Ġgenet ically
ĠbeschrÃ¤n kt
Ġmensch liche
laub wÃ¼rdigkeit
ĠjÃ¤hr lich
Ġnied rig
Ġwach sen
Ġacknow led
ĠTodes strafe
Ġpolitic ians
Ġaf tern
Ġende avour
ĠEur atom
ĠKy oto
M ittel
d ien
e fe
n ach
s ession
Ġd anach
Ġt ief
re a
Ġf il
Ġf ederal
Ġe chte
le kt
Ġun ne
ĠE lemente
Ġz er
ĠB il
ĠB olk
ĠB aring
ot ential
ĠG laubwÃ¼rdigkeit
Ġge zogen
de p
Ġer lassen
ĠD ary
ĠD ringlichkeit
pp ed
her r
ak ten
ah en
ĠBe achtung
ĠJ apan
Ġent standen
Ġgo als
yste men
wo hner
Ġnew s
Ġfe ed
Ġact s
Ġdeb ating
ĠgroÃŁ em
Ġhand s
itz t
Ġincl usion
ĠPolitik er
Ġtr ust
stan de
ĠUnternehmen s
Ġschw ed
On ce
Ġtalk s
reg ionen
Ġderzeit ige
zÃ¼ ge
Ġant worten
Ġinn ere
leist ungen
ĠVerbess erungen
Ġident ity
Ġident ified
Ġverw iesen
Ġmaintain ing
ĠSteuer zahl
Ġbre ak
Ġfacil ities
Ġdistrib uted
Ġverd ient
ĠbestÃ¤t igen
Ob wohl
ĠGra efe
ĠZivil gesellschaft
ĠMex ico
zust immen
Ġapprec iate
ĠJahrh under
Ġmut ual
ĠSw itzerland
ĠÃ¶sterreich ischen
Ġdestro y
wuÃŁ tsein
Ġunz ureich
Ġcoup le
ĠEinw ander
br uch
secut or
ĠLab our
Ġjuris dict
Ġunne cess
ĠBolk este
e ten
r ate
w ers
z io
Ġm ach
te chn
te uer
le hnung
Ġan sprechen
Ġc ategor
ur t
ĠE ZB
ĠI dent
Ġl angen
ĠV itor
ĠG est
Ġge halten
de ckt
Ġver we
Ġer teilen
and els
ĠW issens
ab ling
ĠD an
ĠD ut
ĠD av
ĠL Ã¤rm
ik ations
iv ation
Ġex pected
iel ds
Ġsch rift
Ġent weder
Ġqu ote
ĠAb Ã¤nder
igh ten
Ġcoun t
mer ken
ĠEin richtungen
ĠMen ge
ĠWir kung
Ġ3 8
icher ungs
ĠGes icht
Ġfinan ced
act ive
Ġdra mat
okrat ischen
Ġtr ial
Ġtr uth
Ġke pt
Ġir reg
Ġstatt f
Ġumf aÃŁt
Ġentscheiden den
Ġversch Ã¤r
Ġsur v
ĠLuft verkehrs
Ġeas ily
Ġfail ure
ĠwÃ¼n sch
ungsan lagen
Ġsl ight
Ġhold ing
Ġdeterm ine
Ġstaat liche
Ġeinheit liche
ĠverstÃ¤r ken
Ġjen er
ĠWahr heit
Ġgrant ing
Ġrig or
Ġbeabsicht igt
ĠWohl stand
ĠLauf e
Ġmand ate
gebie te
ĠBos n
ĠPrakt iken
Ġaftern oon
ĠBaring dorf
ĠBolkeste in
J ust
i Ã¶
Ġw ide
Ġw ritten
it ative
an cial
Ġf lag
Ġp hen
Ġc op
Ġto ler
Ġbe zeichnet
ir k
ig erung
Ġre lie
sch l
ĠB ahn
ĠF utter
Ġer gibt
Ġst ake
Ġst opp
ĠD ingen
Ġde ter
qu es
Ġr ich
Ġr ates
ah ara
00 6
ĠAn trÃ¤ge
Ġaus geschlossen
Ġsch ritt
ĠSch ro
ĠSch uld
ĠJ oint
se kret
ĠVor rang
ou verÃ¤n
ick ing
ank e
ĠmuÃŁ te
Ġimp ose
Ġpre ced
Ġsp Ã¤t
lÃ¤ uft
Ġnational s
wor te
Ġdeb att
ĠBed Ã¼rf
fÃ¤ llig
ail s
ĠProblem atik
Ġcompet ent
Ã¤ng st
Ġfollow s
ĠRegierung schefs
ĠSozial politik
ĠThe y
Ġback ground
Ġtax pay
Ġans wers
Ġcor rupt
ĠRed uz
ĠPl atz
Ġbekannt lich
ĠVoraus schau
ĠKl ima
Ġeas ier
fert igt
Ġsatisf ied
Ġcorrect ly
Ġindustr ies
Ġnachhalt igen
Ġinvestig ation
ĠProz ent
Ġgre en
ĠStat us
auft rag
ĠJahrh undert
wÃ¤ss er
ĠBl ok
ĠFunktion ieren
ĠbemÃ¼ ht
Ġsuperv ision
ĠBereit stellung
Ġcompens ation
Ġexcl uded
Ġmill ions
Ġmitt l
ĠerlÃ¤ut ern
Ġfacilit ate
Ġgenere ll
Ġabst ain
Ġveget able
Ġauff or
upts Ã¤ch
Ġverlei hen
Ġtranse uropÃ¤ischen
Ġphen omen
A C
H A
o fern
r ise
w ide
Ġt re
re l
Ġb erecht
ro s
Ġc a
ĠE missions
ĠP rÃ¤s
ĠS ouverÃ¤n
Ġg ot
ĠB undes
Ġl atter
Ġwe ist
Ġal te
Ġim men
Ġver langen
ĠH anf
ĠVer ring
ĠD r
ĠUn d
tr ieben
sp art
end et
Ġr ass
ck x
aus gaben
ĠÃ¼ber lassen
Ġaus gesetzt
Ġor ient
ĠEuropÃ¤ er
se bene
ĠVor lage
ran che
ĠAb lehnung
Ã¼s s
Ġbut ter
Ġch ann
Ġcomp lic
Ã¤t igkeiten
Ġinc omp
Ġber aten
Ġsp Ã¼r
ag n
Ġper form
Ġper mit
ĠVerb ot
Ġins ofern
zeit raum
Ġover come
Ġ4 5
Ã¤tz ung
Ġyour self
Ġreal istic
Ġtrans national
Ġsign al
Ġeinzel ne
hm igung
Ġequ ally
Ġessential ly
Ġpay ment
Ġzusammen arbeiten
Ġkurz frist
Ġbef indet
ipf el
ĠBinnenmarkt s
Ġmod ified
Ġobl ige
Ġterr or
Ġrail ways
Ġbedeut sam
ĠAuÃŁen politik
ĠAss ozi
Ã¼rz ung
Ġpurp oses
ĠFlÃ¼cht ling
Ġstrengthen ing
ĠBeitritts k
Ġcho ose
ĠIr ish
Ġinteress iert
ĠhÃ¶ch st
Ġsus p
ĠfranzÃ¶s ische
hÃ¤n gen
so ever
will igen
ĠMex iko
ĠSchl Ã¼ssel
krÃ¤ fte
Ġexplan ation
Ġwait ing
En t
ĠNetz e
ĠSto ffe
ĠSen kung
Ġunc ertain
ĠkÃ¼rz lich
ĠnÃ¶t ig
Ġjem and
Ġunterst reichen
ĠSter ckx
ĠAlli anz
Ġvulner able
Clear ly
Ġirreg ular
A O
G er
O ther
f unden
m ium
m odell
Ġd ritte
Ġd opp
is ierungs
Ġs ach
Ġs Ã¼d
or se
Ġb la
Ġf ifteen
ro v
Ġp urely
Ġh il
Ġan stre
ir a
id ium
Ġl ar
Ġk il
Ġha uptsÃ¤ch
ver fahrens
Ġver Ã¤ndert
Ġer leicht
Ġer leben
ĠPar itÃ¤t
Ġr u
ĠN iveau
Ġab ol
Ġme at
ĠAn k
Ġaus gest
ĠPro te
In stead
ĠmÃ¶ gliche
ĠEr k
Ġdi ox
Ġste uer
Ġdurch fÃ¼hren
Ġcont act
ag ne
ĠGrund sÃ¤tzen
Ġbereit gestellt
Ġ3 4
ĠGemein schaften
Ġbas ically
Ġconsider ing
Ġcour t
Ġcour age
Ġpar allel
trag ung
ĠMe chanismen
Ġgla d
Ġgel ingt
Ġhelp ing
Ġequ ip
vorsch lÃ¤ge
ikan er
ĠProj ekten
bau en
ĠhÃ¶ here
Ġfreedom s
ĠDurch fÃ¼hrungs
Ġapplic able
Ġpeace ful
Ã¤hl t
Ġschne ller
Ġpass iert
Ġtreat ies
Ġdist ort
Als o
.. .
Ġfl ow
wÃ¼rd ig
Ġconcl uded
Ġexpla ined
ĠBelg ium
ĠErfahr ung
ĠII I
ĠverstÃ¤r kt
ĠRand lage
ĠBef ugnisse
Ġberu ht
ĠgrundsÃ¤tz lich
ĠLuxem bourg
Ġdescr ibed
Ġerschein t
Ġmist ake
Ġcooper ate
Ġehemal igen
ĠFlugh Ã¤fen
Amend ment
bo ard
Ġauft reten
Ġpublish ed
Ġoppos ite
ĠTai wan
ĠSecret ary
ĠReduz ierung
ĠPrÃ¤s idium
ĠVerring erung
F L
b a
g n
n t
v erein
v entions
z enten
Ġ Ã¤lter
Ġt Ã¤
it ology
Ġm iÃŁ
ing er
ed ter
ut r
ul ate
Ġzu ges
ĠK rie
Ġk orr
ĠG ese
Th ose
Ġso uth
Ġcon stitutional
Ġver lassen
ĠH Ã¤fen
Ġst im
ĠVer urs
ĠD ollar
ĠL ang
ĠZ e
aus ende
ĠÃ¼ber prÃ¼
ad vant
ien e
Ġcom itology
ĠSch reiben
Ġch anging
ĠBericht en
ĠParliament s
Ġdis advant
ass ungs
Ġgen auso
Ġfin e
Ġwhat soever
Ġsol d
Ġsol ange
geb iet
Ġacc idents
ĠLe ft
ĠTh ese
Ġcour ts
ateg ory
ĠKo operation
ĠProgram men
ĠHa fen
Wh ile
klÃ¤r ung
io x
Ã¶ÃŁ e
ĠHand lungs
Ġdank bar
Ġwirtschaft lich
Ġwirtschaft licher
ĠDebat ten
ĠAl t
Ġstrateg ischen
Ġstru kture
ĠBes uch
Ġadv is
ĠZust and
Ġpriv at
ĠgewÃ¤hr t
ĠGesetz e
Ġversch le
Ġteil nehmen
ĠschlieÃŁ en
Ġundert ake
ĠEC B
Ġconv entions
kontro ll
Ġelect ric
Ġverhin dert
Ġfolgen den
Ġaffect s
ĠDienstleist ungs
Ġindic ated
Ġobserv ations
Ġnachhalt ige
ĠUntersuch ungen
Ġrestrict ions
bed arf
Ġschle cht
ĠfrÃ¼her en
Ġnear ly
Ġexplo itation
sprogram me
ĠKaka ob
Ġconstant ly
Ġamer ikanischen
Ġthreaten ed
Ġterritor ial
nahm ere
fu hr
ĠAnn Ã¤her
verletz ungen
ĠGroÃŁbritann ien
Ġprosper ity
Ġunnecess ary
ĠSchro edter
ĠBlok land
ĠGese llschaften
E G
E S
N or
O hne
W Ã¤hrend
b els
c ast
c ommun
d ac
l Ã¶s
m achen
Ġd ict
Ġt rifft
Ġw ann
Ġs el
Ġe ight
Ġp ie
Ġc ore
Ã¼ ge
Ġto uch
Ġder og
Ġv ision
Ġbe wegen
ig u
em ost
ĠS Ã¼
Ġg l
icht ig
der ly
ĠB ow
ter t
Ġl Ã¤
ĠR enten
Ġfor emost
ĠV allel
Ġal arm
ĠH olz
qu ality
Ġab and
ĠAn der
rÃ¤ umen
ers und
tz eit
Ġsch lagen
ĠAus richtung
ĠAus nahmere
ĠEin wanderung
Ġsp end
Ġhin weg
Ġdec entral
Ġev ident
Ġper cent
Ġkon sequent
isl ang
hil os
antwort ung
Ġav iation
Ã¼nd et
Ġbed ro
Ġdefin it
ĠBes te
Ġbew Ã¤ltigen
aren ess
Ġmot ions
Ġprevent ing
Ġstark e
ĠLuft verkehr
ĠQual itÃ¤ts
Ġbeant wortet
ĠMinder heit
Ġheut ige
Ġbeteil igen
ĠAll iance
ĠPosition en
Ġph ys
ĠBas que
Ã¤nger ung
Ġrapid ly
Ġunterb rochen
Ġassoc iated
Ġverab schieden
Ġine v
Ġwoll ten
Ġunanim ously
ĠGesprÃ¤ che
ĠFahr zeuge
Ġprim ary
Ġbanan a
Ġfirm ly
Ġgarant ieren
ĠGarant ie
ĠPolize i
ĠKÃ¼ sten
Ġchair man
ĠUrs achen
Ġsovereign ty
Ġcounterfeit ing
zusammen arbeit
Ġwon ach
ÃĦ nder
Ġscr utin
ĠVallel ersund
B ek
Z udem
h me
h Ã¼t
p s
p ir
z we
er y
Ġt ests
un ction
Ġs inc
at al
Ġf le
Ġf Ã¼hr
ro t
Ġp ict
Ġan zunehmen
ir y
ĠP HA
Ġre icht
Ġre ichen
ĠB oden
Ġzu ge
ĠK orr
ĠC ar
ĠG lÃ¼ck
ff ung
Ġpro hib
Ġst re
ess ene
her stellung
Ã¤n en
aus end
ges tellten
Ġaus wirken
Ġdo ll
ĠAus be
ĠJ e
Ġad mit
ble me
Ġno ted
ag ung
Ġtra ce
Ġamend ing
Ġfre qu
Ġend orse
Ġger ichtet
itiz ens
ĠGeb Ã¤
ĠMon at
ĠStand ards
stand ards
Ġrecht liche
Ġaw areness
Ġricht igen
ĠGen eration
Ġel derly
ĠEntwicklungs hilfe
leist ung
Ġple ase
ĠgegenwÃ¤rt ige
Ġrequest s
ĠerwÃ¤ hnen
Ġsit es
Ġzie mlich
ĠwÃ¼n sche
Ġfacil ity
Ġdeterm ined
Ġsuffer ed
nehm ern
Ġsex ual
oin ted
hÃ¤n gt
Ġport s
ĠInternational en
ĠMÃ¤n nern
Ġprot ocol
Ġconfirm ed
Ġzul Ã¤ss
ĠStud ien
Ġkeines wegs
ĠKontin ent
ĠMark et
ĠPh ase
ĠKonsequ enzen
Ġult imately
Ġrech tzeit
ĠKrÃ¤ fte
ĠDon ner
Ġruss ischen
Ġinte lle
Richt linie
ĠhÃ¤n gt
Ġjurisdict ion
ĠVitor ino
commun ications
Ġaband on
ĠVallelersund i
ĠPHA RE
. ,
1 0
L Ã¤nder
Z we
a der
b ring
x ts
Ġd Ã¤n
Ġt rop
or ry
Ġb reit
Ġm al
Ġc ard
ge g
Ġun mÃ¶glich
om atic
ur en
ĠB ureau
Ã¼r ze
Ġl ists
isch ung
ĠF ree
ĠG ang
Ġcon ven
ver walt
est ic
Ġer wiesen
Ġauf nehmen
ĠW ass
ĠD ro
sp rachen
Ã¤n glich
ĠÃ¼ber aus
ĠIn kraft
Ġsch reck
ĠBe werber
ĠAus einander
ze p
ĠVor teil
ĠBer uf
ast ung
Ġcomp on
ru it
cess ion
ugh ter
Ġ3 6
Ġ3 9
Ġacc ompan
Ġenvironment ally
Ã¤tz en
ĠHa ug
Ġcontin ues
bei hilfen
Ġest im
Ġfind ing
ĠSicherheit spolitik
Ġnecess arily
ĠTeil nahme
ĠBet racht
Ġdel iber
Ġlang sam
Ġval u
sto ÃŁ
Ġel ig
ĠPl Ã¤ne
Ġshort com
Ġant icip
Ġmembers hip
Re port
ĠkÃ¼nft ige
Ġrestr icted
Ġfarm ing
ĠPal est
Ġcontinu ed
Ġbre ach
ize prÃ¤sident
ĠForsch ungs
ĠCo sta
Ġhistor ic
Ġverantwort ungs
ĠMÃ¤n ner
Ġspok e
Ġvol unt
Ġlangfrist ig
Do es
ĠbemÃ¼ hen
Ġrepla ce
Ġneighbour ing
Ġinterv ene
ĠAuft rag
ĠAuss age
ĠOb ject
ĠKrank heit
Ġcrop s
ĠstÃ¤r ken
ĠJugoslaw ien
Ġprofess ional
Ġdeserv es
ĠIdent itÃ¤t
sekret Ã¤r
ĠBeitrittsk andidaten
ĠAnnÃ¤her ung
hÃ¼t ung
Ġshortcom ings
D R
b tedly
f are
l imin
m ar
p o
w s
is tr
it Ã¤r
Ġs en
Ġb omb
ir ms
ĠS um
Ġre chts
id o
ĠK Ã¼rze
Ġfor g
ĠV izeprÃ¤sident
Ġge leis
Ġge zwungen
Ġso weit
Ġver sp
Ġer fordern
Ġer gÃ¤nz
ĠVer fassung
ak zept
Ġvor liegt
Ġab schlieÃŁend
ĠFra gest
ĠSch ne
all ing
ran ken
Ġent steht
ĠEr it
ĠEr haltung
Ġwor ry
ou btedly
ĠParlament ar
ble iben
Ġob jekt
mer kt
ĠO ffen
Ġzum al
wer tet
Ġbes eit
Ġact ing
hÃ¶r t
ĠTh urs
ient s
itz ung
gese llschaften
Ġgla ub
Ġmin utes
Ġbed au
ĠSituation en
ĠHil fs
Ġunderst ood
Ġsmall er
Ġfeel ing
itÃ¤ts prinzip
ĠLandwirtschaft s
Ġrestr uct
ĠstÃ¤rk ere
ĠÃĸsterreich s
Ġoft mals
weil en
Ġmaintain ed
Ġencour aging
Ġgra v
Ġbeg onnen
Ġrest or
Ġakt uellen
Ġdeterm ination
ĠBelg ien
ĠMan gel
ĠTra dition
Ġuner lÃ¤ÃŁlich
ĠerhÃ¶ ht
Ġtele vision
ĠDies e
ĠKommun ikation
ĠWahr ung
Ġberu hen
Ġfunction ing
Ġship s
jÃ¤hr igen
ĠHerkunft s
ĠFaktor en
ĠHaft ung
Ġerr or
Ġverteid igen
ĠVerl Ã¤ngerung
ĠBrenn er
Ġwelcom ed
Ġvorbereit et
ĠWel th
Ġobstac les
Ġdefic it
ĠGet re
ĠDan ish
ĠDut ch
Ġoblige d
Ġelectric ity
hilos oph
ĠDonner stag
ĠThurs day
L Ã¤ndern
L adies
S ol
f ted
k und
n iveau
p rechen
t es
in ary
ch el
an gt
Ġf ried
Ġn one
ĠE igent
ĠM ut
ĠB i
ĠB uch
ĠB rok
ter ung
Ġzu gleich
Ġl at
Ġda ily
Ġfor ese
ĠG elt
Ġer ad
ab or
ĠD et
ĠUn regel
Ġj ournal
Ġvor zunehmen
Ġab sen
Ġab hÃ¤ng
Ġsh ift
ĠAn lage
Ġum setzen
Ġdo ub
ist ics
ĠAus gang
all strÃ¶m
ĠAr ten
Ġent ry
ĠEr reichung
Wir d
Ġbet reiben
Ġgen ie
Ġma c
Ġimp er
Ġpre limin
Ġint oler
lic it
Ġjust ify
trÃ¤ ger
ĠVerb rechen
Ġprodu cing
hÃ¶r igen
Ġbest immen
stitution elle
Ġunder lying
Ġ5 00
ĠEuro dac
Ġnumber s
dem okraten
ĠZu ge
ĠIntern al
ĠBest immung
Ġsecond ly
Ġnegoti ating
Ġpay s
Ġlarge ly
ĠAsp ekten
ĠÃ¤uÃŁerst er
Ab kommen
ĠEmp loyment
Ġplay ed
Ġcare ful
Ġjud ge
Ġsur round
Ġunterschied lich
Ġcent re
Ġverw enden
Ġeng ag
Ġbeant ragt
Ġexam ination
Ġdelay s
nehm bar
Ġprepar ation
ĠhÃ¶ch ste
ĠProdukt ions
Ġlok aler
ĠVorsitz enden
Ġbecom es
Ġzentral e
ĠProz esses
ĠGM O
Ġtele communications
Ġeffekt iv
Ġvol ume
Ġtransition al
Ġinterin stitutional
ĠPap ier
zut ragen
Ġton nes
ĠVerzÃ¶ gerung
Ġtemp or
ĠSign al
ĠsorgfÃ¤lt ig
Ġerle bt
ĠDisziplin ar
ĠUnabhÃ¤ng igkeit
Ġissu ed
Ġeinstimm ig
ĠverÃ¶ff ent
ĠSouverÃ¤n itÃ¤t
ĠVerurs acher
ĠAnder sson
ĠAusbe utung
ĠUnregel mÃ¤ÃŁ
Ġprelimin ary
A re
E x
F erner
P Ãĸ
S he
b uch
j ido
k lar
p erson
w asser
er kennen
Ġd omin
it ably
an lagen
Ġf erner
ar ently
Ġe co
Ġp rÃ¤sent
Ġh ouse
ge wogen
Ã¼ mm
as c
Ġbe hin
ĠS k
ĠM iddle
ul i
ĠR ule
Ġk Ã¤mpfen
ĠF Ã¶rder
Ġwe ight
ik as
Ġwer te
qu ote
ann ehm
ne x
Ġsh ame
art ige
Ġsch lage
ĠPro f
ĠSch m
ĠAus wahl
ĠVor stellung
Ġch arge
Ġma ÃŁ
ĠEin stellung
Ġprov ed
Ġregard ed
Ġar ms
Ġpresent ation
ĠFinanz kontrolle
Ġneg ativen
ĠGebie ts
ĠAbstimm ungs
ĠEntschlieÃŁ ungen
gleich heit
ĠBet rag
Ġbed anken
ĠGer icht
Ġcommun ications
Ġval id
ĠAm ts
Ġstatt ge
Ġadv ance
Ġentscheiden d
ĠRep resent
ĠVertra uens
spruch s
Ġcarry ing
Ġverl ieren
Ġcla use
Ġerheb liche
Ġexcept ions
Ġko sten
Ġangem essene
ĠKrieg s
Ġtraff icking
Ġinfl ation
Ġwiederhol t
ĠLeg isl
Ġexclus ively
ĠvernÃ¼nft ig
Ġincin er
Ġjen en
Ġvorhanden en
Ġzul assen
haus halt
Ġkontroll ieren
sprÃ¼ che
Ġbar r
Ġhop es
ĠBevÃ¶lkerungs gruppen
ĠZw ischen
renn ungsanlagen
Ġsuspend ed
Ġdiscip linary
ĠIC AO
ĠLast en
mos ph
Ġschritt weise
ĠKorr upt
Ġmac ro
% ,
D uring
R OM
T A
a pe
a fen
a ire
e ll
k rieg
l Ã¤ne
m ann
p et
Ġt ank
Ġw ent
Ġs ad
an ische
Ġin halt
Ġf elt
Ġf assen
Ġf ields
le vel
Ġh yp
Ġan bel
Ġun ab
ĠE D
ĠE m
ĠE VP
ĠE jido
Ġund oubtedly
ÃŁ e
Ġz Ã¼g
id ung
ĠG D
Ġver tre
ĠW og
ĠW Ã¤hl
ĠVer trÃ¤gen
ĠD auer
op ard
ust ry
tr an
ĠT aten
ĠSt ahl
Ġvor n
ah me
ĠN utz
ad s
ĠEn d
etz ten
ahr t
Ġsch Ã¤d
Ġent h
ip her
Ġqu orum
ud es
Ġunter zeichnet
ick en
ĠGe fahren
ĠO z
ress ourcen
Ã¤nder ung
Ġimportant ly
Ġtra vel
trÃ¤ glich
Ġ3 3
Ġdeb ated
Ġgew Ã¼n
Ġgew iÃŁ
Ġfre ie
Ġwel ches
ĠGes am
kon vention
Ġger aten
Ġprocess ing
Ġange wand
ĠMe er
Da fÃ¼r
Ġsicher gestellt
Ġbesch lieÃŁen
mÃ¤ÃŁ igen
annt lich
Ġprom ises
ĠFre is
Ġconsum ption
Ġzweit ens
01 5
All ow
ĠPr ime
ĠBei hilfe
ĠgewÃ¤hr en
Ġdemand ing
Ġant ibiot
zahl t
erecht igkeit
Ġversch w
ator en
Ġkeep ing
ĠUr teil
ĠAut om
Ġclar ity
Ġclar ification
Ġfehl en
ĠMal m
Ġurg ently
Ġrun ning
Ġformul iert
Ġtrotz dem
Ġgenet isch
wh ile
Ġrad ical
Ġsogen annte
zusch lieÃŁen
ĠKu hne
Unser er
ĠSchulden er
Ġwid men
Ġkeines falls
ĠTerr itor
Ġbegrenz t
Ġgesellschaft lichen
ĠtÃ¼rk ischen
Ġvess els
Ġunre al
Ġmechan ism
Bes onder
Ġphenomen on
ĠhauptsÃ¤ch lich
Ġrechtzeit ig
Ġsen ior
ĠFragest unde
ĠOffen heit
Ġabsen ce
Ġanbel angt
ĠWog au
0 7
E F
U E
l or
p endence
er ing
in ely
ch mal
ch arta
Ġa fra
ie ller
Ġe mission
Ġc ities
Ġun n
Ġun annehm
ĠE L
Ġz one
Ġz ivil
ic ed
Ġg Ã¼nst
im or
Ġzu vor
Ġden jenigen
os ing
Ġcon stitution
Ġver tritt
ach ing
ĠW eiter
ĠW Ã¼rde
Ġne hme
ĠUn sicherheit
ĠT rag
Ġle gt
ck er
scha ffung
ĠJ on
ĠAr men
Ġunter scheiden
Ġcomp ared
Ã¼n ften
ieren der
Ġzw angs
ĠO n
ĠO st
lo ok
Ġsp ite
rat ing
Ġexp licit
ov a
Ġoff ices
Ġar m
weit en
weit ung
ateg ien
ĠSe ktors
ĠSte uern
Ġdra fted
ĠFin land
Ġlie ber
Ġwieder auf
Ġconf ident
Wh ere
Ġrespect s
gest altung
lichkeit en
bal d
Ġregional er
Ġprom ised
Ġdeal s
Ġgel ingen
Ġinde pendence
Ġzweit er
Ġdefin iert
ĠGen fer
ĠEUR O
Ġpost s
Ġgovern ing
Ġje opard
Ġbestehen de
Ġshort ly
Ġkind s
ĠForm ulierung
Ġhon est
Ġsignific ance
ĠGipf elt
Ġviol ation
Ġenter ed
Ġerwar tet
ĠStaats an
ĠMin uten
Pro gramm
ĠbefÃ¼r worte
fre und
Ġmodern isation
Ġko ordin
ĠWo hn
Ġverbunden en
ĠBelg ian
ĠSc ot
Ġgenu inely
Ġprim arily
ĠSubsidiar itÃ¤tsprinzip
Ġkontroll iert
ĠLuxem burg
ĠGarant ien
ĠmilitÃ¤r ischen
Ġpun ish
Ġtw enty
Ġforest ry
Ġwidersp ie
Ġsole ly
sproz esses
Ġcompl iance
ĠKonsult ation
Ġeinzelstaat lichen
Ġfu el
Ġconserv ation
Ġweap ons
Ġbla ck
Ġequip ment
ĠÃ¼berprÃ¼ fen
ĠKakaob utter
Ġafra id
1 1
G em
J eder
Y ROM
b l
b art
f Ã¤ng
g ut
h et
j ekte
m essen
o ben
o ÃŁen
s ider
Ġ [
Ġt ried
le ction
as en
as tet
ĠP a
Ġg eschÃ¤
ĠM ig
Ġre ass
ĠB ill
ĠK enn
ot ten
ĠG u
ĠG erechtigkeit
de z
Ġver letzt
Ġer arbeiten
and el
Ġnot ice
ĠD ire
la ut
ĠZ imbabwe
ĠT age
Ġdem ograph
Ġvor mittag
ĠN orth
ĠIn fl
ad urch
Ġsch ed
ĠSch icks
ĠBe w
ĠAus weitung
Ġreg ister
Ġprop ert
ĠEin stimm
ag ue
fl anz
hand eln
Ġeinz ufÃ¼hren
ĠSta ates
ĠRechts rahmen
Ġ5 3
Ã¤tz e
Ġsee ing
ĠFl achs
ĠDem okraten
Ġget ragen
ĠSchutz es
Ã¼b t
ĠzurÃ¼ck zu
Ġfinanz ieren
reg ional
ĠMinister rat
rech ter
ĠWort meld
weis ung
Ġentwick elten
ĠFÃ¤ h
ĠtatsÃ¤ch lichen
Ġident ify
ĠgefÃ¤hr lich
Ġpa ar
Ġrac ist
Ġtop ic
IP O
Ġsy mbol
so fern
ĠbenÃ¶t igt
Ġschool s
ĠViel zahl
Ġcheck s
Ġverurteil en
Ġcondemn ed
Ġmiss ion
ĠÃ¶kolog ischen
ĠWÃ¤hrungs union
Ġbehaup ten
ĠAlters versorgung
Ġdon ors
ĠAk in
Ġgebe ten
ĠDes halb
ĠGemeinschaftsin itiative
ĠKohÃ¤s ion
stream ing
ĠgenÃ¼ gend
Ġsympath y
Ġauffor dern
Ger ade
Ġbedro ht
ÃĦnder ungsantrag
Ġvalu able
ĠEL DR
A d
D aÃŁ
G anz
Y es
f assen
j ud
l ang
l iste
o ured
r ates
z ard
ch mark
Ġs ter
an cing
Ġin akzept
ro Ã¶konom
Ġe chten
Ġn orth
Ġan wenden
Ã¤ he
Ġv ast
ĠE ffe
ĠM ac
ĠB la
id akis
ĠK lein
Ġl ag
Ġk r
ĠF rÃ¼
ĠF ood
Ġge he
Ġso fern
Ġver ank
ĠH ier
Ġer teilt
ĠW icht
ĠW erk
ĠVer t
ĠVer wirk
ĠL angen
Ġde pr
la red
ĠT onnen
ĠPar is
Ġle id
Ġvor anz
Ġvor gehen
ĠN acht
Ġres ist
Ġent fern
Ġent tÃ¤us
Ã¤r kt
ĠPresident s
Ġpart ner
Ġcomp atible
Ġac qu
mp t
ger ufen
ĠGe ist
Ġgen ehm
Ġpolit isches
ĠEin kommen
Ġsp ace
Ġte xts
Ġwork s
Ġdec lared
Ġrel ate
atz idakis
Ġwel fare
Ġfest zustellen
pro blem
Ġ4 1
Ġ5 6
ĠBÃ¼rger innen
Ġproblem at
ĠBeit rÃ¤ge
Ġgest atten
ĠHaushalts jahr
Ġbesch leun
ho le
Ġkomm er
ĠzurÃ¼ck zufÃ¼hren
gew Ã¶hn
ĠVerbraucher schutz
Ġrecht fert
ĠAnsicht en
Ġsens ib
Ġexist iert
Ġje gliche
ĠEntwicklungs zusammenarbeit
Ġlead s
ennt nisse
Ġorganis ms
ĠVertra ges
Ġjeden falls
Ġopt ions
ĠgefÃ¤hr det
Ġhim self
best immungen
Ġderart igen
ĠDok umente
geleg te
Ġextend ing
Ġrest ore
Ġdest ru
ĠEng lish
Ġph ase
Ġtop ical
ĠRes pekt
Ġabge geben
Ġsec ret
Ġrad io
Ġflo od
Ġbrit ische
ĠTechnolog ie
Ġdisapp ear
Ġlauf en
ĠausfÃ¼hr lich
Ġinterpret ation
Con sequently
Ġbureauc rat
versch mutzung
Ġbezahl en
tin u
finanz ierung
ĠRechtsstaat lichkeit
Ġdom estic
Ġcategor ies
Ġcorrupt ion
Bek anntlich
Ġvolunt ary
ĠGetre ide
Ġstattge funden
4 0
B oth
O ver
U nder
d ring
h ear
t a
Ġ essen
in ens
Ġd ur
Ġt ie
is ierte
Ġw est
it ten
Ġs il
Ġs ending
ie b
re cken
Ġp ol
Ã¼ rokrat
Ġbe aring
ĠA id
Ġg lÃ¼ck
Ġl iber
ĠR est
ere i
ĠF irst
ĠF assung
um Ã¤n
Ġso bald
ĠU C
Ġver teilt
ĠH ab
ĠH atzidakis
Ġer weisen
Ġer setzt
ĠVer ab
ĠL ond
ĠT ank
Ġle is
Ġle bens
be ziehen
ĠJ uly
ĠJ uli
ĠEr schein
ĠEr laÃŁ
cht ungen
Ġen or
ĠAb hÃ¤ng
Ġch ain
ĠGe werk
he er
Ġcons c
Ġbes orgt
ĠÃĦ uÃŁ
ĠKon sens
arbeit s
Ġdam aging
trÃ¤ gt
unkt ions
Ġref lected
Ġar men
Ġfest legen
ĠRechts p
Ġwirk liche
fÃ¤ llt
Ġsozial er
Ġspec ies
Ġsc re
Ġsc ore
Ġange wendet
klÃ¤r t
Ġthank ing
zeich en
Ġallow s
org ungs
Ġdeut schen
schied ung
miss ible
Ġcr ises
Ġbew iesen
ĠBel der
Ġrecog nis
chan ismus
Ġmult ilater
Auf grund
ĠAmer icans
vious ly
Ġstark en
Ġpoll uter
ĠGipf els
Ġsag ten
isher ies
gÃ¤n glich
ĠAut os
struktur en
ĠMenschenrechts verletzungen
ĠfrÃ¼ h
Ġcla ims
ĠunabhÃ¤ng igen
Ġprofit ieren
Ġunterb reiten
Ġbi otechnolog
ĠAbsicht en
ĠAugen blick
Ġfunktion ieren
Ġpurs ue
Ġunver zÃ¼glich
ĠVorgehen sweise
Ġspee ches
iet ies
ĠBÃ¶ ge
Ġill ustr
Ġbeein fl
Ġqualifiz ierte
Ġpursu ant
Ġerschein en
Ã¤st inens
ĠFinn land
ĠChancen gleichheit
Ġremov ed
ĠerwÃ¤hn ten
Ġnieder lÃ¤nd
Ġuneing eschrÃ¤nkt
Ġausger ichtet
ĠKlar heit
ĠSa al
Ġimag ine
ĠHindern isse
Me hr
Ġsla ughter
krit erien
sc ale
ĠSteuerzahl er
auftrag ten
Ġmittl eren
ĠDr ittel
Ġkorr ig
ĠSÃ¼ den
Ġintelle ct
ĠSchne ll
Ġrestruct uring
ĠWelth andels
chel on
ĠUnregelmÃ¤ÃŁ igkeiten
ĠRepresent ative
ĠMalm strÃ¶m
Ġzwangs lÃ¤ufig
het or
Ġpropert y
ĠVerwirk lichung
ĠVerab schiedung
) ;
2 3
C orm
I N
e b
i ations
k amp
k now
n ormen
o hn
r ik
en ig
er te
Ġd rÃ¤n
Ġt ang
ie den
or et
re ite
re ds
Ġb ann
Ġin sp
Ġo zone
al ition
Ġf am
Ġp an
Ġan spruchs
Ġbe urteil
ĠA g
sch uÃŁ
ten eg
ĠK airo
ĠF isheries
res h
Ġge langt
os p
ĠH owever
Ġer hoben
Ġst able
Ġdes wegen
Ġdes erve
ĠD ien
ĠZ iffer
sp h
ĠT emp
Ġex ter
Ġle iten
Ġr Ã¼ck
ĠSt raft
Ġab gesch
scha ffen
enn ess
ard ing
Ġent s
Ġwor st
Ġnach mittag
Ġcomp lement
Ġsa v
Ġste ll
Ġdurch zusetzen
Ġinc ident
wo hn
Ġges ichert
Ã¤hr ungs
Ġexp and
ri a
Ġhin gegen
Ġagre es
Ġfe wer
Ġsub sequently
Ġact ively
ĠUm gang
ĠWe chsel
ĠZusammen setzung
Ġacc ident
Ġgew innen
ĠTe ile
stitution ellen
Ġstr ik
Ġar g
Ġeinz ur
Ġeinz ig
ĠInter vention
schie ben
ĠSp ann
Ġbegr Ã¼ndet
ĠHaushalts linie
mÃ¤ÃŁ ige
ĠFre ude
Ġstrateg ies
Ġabs urd
ĠEnerg y
Dar auf
ĠDurch setzung
Ġdemokrat isch
ifiz iert
With out
Ġcoordin ated
ĠÃľberein kommens
ĠgefÃ¤hr lichen
ĠGeschÃ¤fts verkehr
best and
ĠRatsprÃ¤sident en
ĠPost dienste
ĠCo operation
bet rie
Ġinspect ions
Ġincorpor ate
ĠGene hmigung
Ġexplan atory
ĠStud ie
ĠRats vorsitz
Ġgeograph ical
Ġautomat isch
Ġeinzus etzen
Ġparlamentar ischen
Ġvorange gangenen
ĠBefÃ¼r chtungen
ĠAkte ure
aust ausch
Ġunf air
ĠJournal isten
Ġfeeding stuffs
ĠJahrhunder ts
Ġdeter ior
ĠBow e
Ġelig ible
ĠObject ive
Besonder s
ĠMac Corm
Ġrechtfert igen
know n
ĠMacCorm ick
L ike
N G
a ill
i rect
r ige
s ituation
in i
Ġd ed
Ġd rop
it age
Ġthe oret
Ġb ildet
Ġb islang
ar ies
Ġbe ob
ĠE MU
ĠE lekt
ir able
ra in
ĠS icherung
ĠB ab
ĠB rief
ct ober
hr t
ĠI SA
gen cies
ĠK MU
ĠF Ã¼nf
Ġfor ests
ĠV an
Ġha bit
ĠG uter
ĠG UE
ĠEurop ar
Ġge arbeitet
Ġge denkt
de ten
ver handlungen
ĠH ome
ft ig
kt ions
ĠW Ã¤l
Ġas ide
ill s
ĠL einen
pp ing
Ġmit ge
ste chnolog
ĠN ahen
be handlung
Ġres umed
In sofern
Ġdar gelegt
ese arch
Ġdi ent
Ġad j
anz ig
Ġob liegt
ĠO ste
ĠO ctober
ren e
Ġtra d
Ġeconom ically
Ġpla ces
ob ilitÃ¤t
ĠAussch Ã¼sse
inc in
ĠFor st
Ġla ut
Ġaut onom
Ġsc ience
Ġpresent ing
ĠFinanz iellen
Ġ7 00
Ġrepresent ation
Ġbed auern
Ġequ ival
Ġrev olution
ĠVolk es
Ġadv ice
Ġregul atory
Ġoper ating
Ġakzept abel
ĠUN O
Ġenerg ies
ĠVerhand lungs
wach sen
Ġguarantee ing
Ġdist in
Ġenthalten en
ĠfÃ¼nf zehn
Ġhumanit Ã¤re
ĠRaum s
ĠGew icht
ĠGew Ã¤hr
Ġaffect ing
Ġhard ly
Ġethn ischen
ĠBeteil igten
ief st
ĠZustÃ¤nd igkeiten
Ġalloc ation
ĠStraÃŁ e
Ġzug ute
Ġunanim ity
Ġherr schen
ĠÃ¤hn lich
Ġanzu wenden
jÃ¤hr ige
ĠendgÃ¼lt igen
ĠKaka o
Ġspezif ischen
ĠMeth ode
ĠVerf asser
Ġminister s
Ġprison ers
Ġey e
Ġbeunruh igt
ĠFreedom s
Soll te
ĠAnmerk ungen
Ġgebill igt
Ġkoh Ã¤r
ĠInkraft treten
Ġworry ing
ĠScot land
ĠLond on
ĠAbhÃ¤ng igkeit
N och
W U
Z war
b u
f tet
h le
m od
m Ã¤cht
n ischen
n dez
p aÃŁt
s y
z ent
Ġs elten
re ibt
an e
Ġm atch
om peten
ĠA uch
ĠP SE
ĠP ensions
ĠM obilitÃ¤t
el k
ul ating
ter ing
den k
Ġzu kommen
et ition
Ġk ur
ĠF PÃĸ
ĠC itizens
res pect
Ġwe g
ff ect
ver t
Ġver wir
Ġver fahren
Ġver deut
ĠVer n
ĠVer teilung
ĠVer ordnungen
Ġj o
ĠZ un
Ġse lect
ĠT enden
Ġvor sieht
ĠAn gleich
ĠPro secutor
ĠSch en
ĠSch ott
Ġent rep
Ġhe aring
ĠEr gÃ¤nz
Ġinter im
ĠAb schaffung
Ġch osen
ast ern
Ġsa uber
ĠMit wirkung
Ġdurch schnitt
Ġsp anischen
Ġsp lit
ĠKon vention
Ġind ication
Ġop enness
Ġper mitted
Ġbereit et
geb aut
Ġrec o
ĠAuf sicht
Ġass ets
Ġrem ove
Ġgemein schaftliche
Ġcertain ty
act ions
Ġher gestellt
Ġher itage
gehen de
Ġsc andal
Ġcitizens hip
zus ehen
ĠMon teneg
ĠHer stellung
Des pite
rÃ¼ ckt
Ġcontro vers
Ġword ing
Ġrecht lich
Ġstren g
Ġstren ge
Ġoffen en
bereich en
ĠVerhand lung
ĠGemeinschafts recht
Ġeig entlichen
ĠAmsterdam er
Ġprevious ly
ĠWieder herstellung
Ġerinn ere
Ġpower ful
Ġbisher igen
ĠQu estion
Ġcent res
Ġamb ition
Ġmer it
Ġeng age
Pro gram
ĠMenschenrechts konvention
ĠAll gemein
ko hol
Ġlok ale
Ġbi omet
Ġeinzu beziehen
Ġauthor ised
ĠvernÃ¼nft ige
Ġreag iert
Ġintens iv
behÃ¶r den
Ġkulture lle
ĠVerteidigung spolitik
Ġdiv ided
ĠMittelmeer raum
Ġem bargo
Ġfriend s
ĠBereit schaft
Ġzut iefst
ĠSozialdem okratischen
ĠMeth oden
ĠerwÃ¤hn te
ĠEv ans
Ġceil ing
Ġceil ings
ĠCor rie
Ġstor ms
Ġgradu ally
Ġgriech ischen
Ġverring ern
ĠangekÃ¼nd igt
Ġcoll abor
Ġchem ical
ĠChin ese
feil er
Ġdebatt ieren
ĠFlÃ¼chtling en
Ġscrutin y
Ġpict ure
Ġtrace ability
ĠGebÃ¤ ude
ĠPalest in
ĠErit rea
ĠabhÃ¤ng ig
Ġsurround ing
gewogen heit
ĠOz on
ĠAutom obil
ĠEinstimm igkeit
Ġentfern t
Ġentrep rene
) ]
H er
K urz
a ger
u ert
w are
Ġd ig
Ġw enden
re ter
al ter
Ġf ixed
Ã¼ ckt
Ġun it
st Ã¤tigkeit
Ġz iti
ĠS M
ut hern
ĠM y
ĠM ot
Ġre geln
ol ge
ĠB au
ve y
ber g
ĠI mm
ĠF YROM
Ġfor ts
ĠC airo
um b
ein e
ier huber
Ġal co
Ġso uthern
Ġim age
ver ordnung
Ġver zeichnen
Ġst ring
kt ober
ĠW ar
ĠL Ã¤r
sp iel
ck e
we gung
ĠN AF
Ġab gesehen
ĠÃ¼ber sch
rÃ¤ gen
our ismus
ĠSch ierhuber
We ll
Ġinter nen
ert ig
Ġunter sch
Ġapp arently
Ġcomm end
Ġdis par
Ġmore over
Ġgen der
Ġconc ent
ĠO ktober
Ġkein em
Ġbes itzt
Ġsp here
Ġweit aus
ag anda
chn et
ĠMenschen rechten
Ġtra ged
gel Ã¶st
Ġref us
Ġstr onger
Ġar res
weit e
ĠTh at
ĠTh ere
Ġho her
Ġ4 4
ĠFin ancial
scheid et
Ġconf usion
Ġohne hin
Des wegen
Ġtrans actions
ĠEntschlieÃŁ ungsantrÃ¤ge
Ġgest altet
Ġgest attet
Ġgef aÃŁt
stand s
Ġcre ates
ĠBesch rÃ¤n
Ġaw ait
Ġtalk ed
Ġcr imes
Ġerst ens
Ġpay ing
reg ierungs
Ġperson nel
Ġperiod s
Ġbu y
ĠInd ustry
Ġrefer endum
ĠWirtschafts wachstum
Ġbegin nt
Ġinn eren
ĠRÃ¼ck verfolg
02 7
Ġpers u
ĠschlieÃŁ e
ĠUr spr
Ġschwier ige
Ġwirksam en
ĠTats achen
pid em
ĠFlug zeuge
Ġakt ive
Ġattemp ts
Ġcommer ce
jahr es
Ob viously
Ġefficient ly
Ġstrict ly
Ġproport ional
wesen heit
ĠNicht regierungs
ĠSach verstÃ¤nd
ĠFÃ¼hr ung
ĠhÃ¶her en
laus el
Ġkompliz iert
Ġeinf ache
ĠLeist ungen
Ġeinger Ã¤umt
spolit ischen
Ġexpens e
mil ch
Ġcust om
ĠKonflik te
ĠBetrugs bekÃ¤mpfung
Ġapprox imately
ĠInnov ation
Ġmak roÃ¶konom
olon ial
Ġanstre ben
lÃ¶s ung
Ġpie ce
ĠverÃ¶ffent licht
tran sp
Ġwiederauf genommen
ĠGipfelt reffen
ĠSchicks al
Ġintellect ual
Ġkur ze
Ġziti ere
8 0
C h
C omm
G est
I K
N FL
O X
k ommission
s es
u ung
z iert
on i
Ġw ind
Ġs orry
Ġin folge
Ġm iÃŁbrauch
Ġv ac
Ġz Ã¤hlen
ĠA ber
em in
Ġre ich
Ġre ve
ĠK urs
Ġau d
ĠR el
ĠC res
Ġer sta
ĠW IPO
ĠW WU
ĠT Ã¤tigkeiten
ay s
Ġr en
Ġr ies
Ġr ul
ib re
Ġab geben
ĠAn hÃ¶r
Ġaus z
Ġaus drÃ¼ck
ad es
ĠAr g
Ġhe ik
ĠEr richtung
mer z
Ġcont am
ĠArbeit nehmern
stit ute
ĠUnter nehmer
Ġkon s
Ġacc ur
ĠZeit en
str ichen
ac cession
Ġ4 6
Ġsc en
Ġbring s
Ġgesch Ã¼tzt
ĠAu ge
Ġgest Ã¤rkt
Ġklar stellen
Ġ8 00
Ġ7 5
Ġlook s
Ġcontrib uted
ierte l
Ġverschieden er
ĠBes itz
ĠNach frage
Ġdire kte
Mit glie
zÃ¼ g
Ġaufge worfen
Ġrele v
Ġentscheiden der
zuf olge
ĠGre mium
Ġple as
Ġcontain ing
ode x
Ġangenommen en
Ġterr ible
Ġbeit rÃ¤gt
ĠstÃ¤rk sten
ĠgefÃ¤hr liche
ĠFischere ip
Ġevent ually
Ġfair ly
ĠEnergie trÃ¤ger
ĠPre ise
Ġbre ite
Ġdurchge fÃ¼hrten
Ġexam ined
Ġroad s
Ġinst all
Ġprofit s
Ġobserv ed
Ġcred it
Ġpen al
ĠverstÃ¤r kte
Ġrad ik
ĠPrÃ¼ f
Ġeingere ichten
zul Ã¤nglich
Ġdead line
gesetz gebung
Ġreserv ations
Ġwid ely
Ġlauf enden
ĠgewÃ¤hl t
Ġacknow ledge
Ġart icle
Ġstock s
Ġvolle m
Ġstabil isation
Ġverurs acht
Ġappoint ments
Ġvig il
ĠUmwel tz
Ġerfre ut
Ġlaunch ed
Ġprospect s
ĠTer min
Ġwrit ing
ĠKategor ie
Ġgeeigne te
ĠEinschrÃ¤n kung
Ġschwed ischen
Ġunzureich end
Ġschrift lich
Ġrelie f
rel ated
spart ner
Ġcomplic ated
Ġirregular ities
Ġdefinit ely
verwalt ung
ĠParlamentar ier
Ġbedau ere
Ġdoub ts
Ġangewand t
zard ous
ĠGuter res
3 5
C ould
I hre
K ann
M ed
M ost
S ow
T C
d den
k Ã¶rper
l ife
m atic
Ġ Ã¶rt
en k
Ġs enken
or k
Ġf ate
Ġc ere
Ġder er
as er
ll es
us sen
Ġein fÃ¼hren
ĠS imbabwe
icht ung
icht bar
Ġzu gestimmt
ĠR ub
ĠR esearch
ĠF ach
ĠF leisch
iss es
ĠC omp
Ġver sto
ĠT reffen
ĠT AC
ak et
end ung
ĠRe icht
Ġvor getragen
ck heer
ĠÃ¼ber mitteln
ĠÃ¼ber prÃ¼ft
be ziehungen
Ġum ge
ĠSch wÃ¤
ĠAus gleich
ĠAus gewogenheit
Ġman che
Ġman chmal
ĠEr fordern
ĠEr inner
Ġfa ith
Ġus ual
ĠMit verb
Ã¶r ung
Ġdurch setzen
he ber
wer fen
Ġup d
Ġwar n
Ġmo ved
auf gaben
Ġper ipher
Ġfre uen
Ġregard less
Ġwhere as
hin derung
gesch wind
Ġwieder hole
ĠSp rach
Ġzwe if
Ġgemeinsam es
Ġable hnen
ĠÃ¶ konom
Ã¤lt igung
Ġachie vement
Ġbez ogen
zus agen
ĠVerein igte
ĠÃĸ ff
Ġsect ions
gleich en
Ġwhole hear
Ġeing eschrÃ¤nkt
ĠVerantwort lichen
Ġ15 2
recht liche
ĠAust ausch
ĠErgeb nissen
fÃ¤h igen
Ġless ons
rech ung
ĠZus ch
ĠZahl ungs
Ġremain ing
Ġnor m
Ġapplic ations
ĠUN M
ĠSitz ungen
Ġlack ing
Ġplay ing
Ġfour th
ĠFr isten
ĠText es
ĠKap itel
oss ier
Ã¼rz t
ĠAt om
Ġemploy ed
Ġcomb ined
Ġverein bart
Ġkomp lex
ĠvollstÃ¤nd ige
Ġtim ber
Ġjeweil s
Ġconstit utes
ĠKÃ¶nigreich s
Ġparagraph s
ĠPlan ung
Ġoccur red
Ġmiss ing
sper iode
Wer den
Ġmanufactur er
Ġpenalt ies
SP AR
Ġenfor ce
ĠGo eb
Ġautomat ically
ĠBetrie bs
Ġeinf achen
Ġschwerwiegen de
ĠKop f
Ġmonopol y
Ġmonopol ies
Ġcompar ison
Every one
Ġut most
Ġenvis aged
Hin sichtlich
Ġreiter ate
Ġjun ior
ĠKind es
ĠNiederlan den
Ġlengt h
vertre ter
Ġerleicht ern
Ġprivat isation
ĠKorrupt ion
ĠJon ckheer
Ġbureaucrat ic
ĠZun ahme
ĠSchen gen
ĠMonteneg ro
ĠRÃ¼ckverfolg barkeit
ĠNichtregierungs organisationen
ĠGoeb bels
A G
D adurch
I S
M ay
O r
S ind
b em
b il
d ok
g ert
m utz
m Ã¤h
p one
r ust
s inn
t schaften
z a
er er
on z
Ġw om
Ġw Ã¤hlen
ie g
re formen
Ġb orn
Ġb udgets
Ġin qu
Ġf resh
ro at
Ġan halten
Ġbe weisen
ĠE chelon
Ġein treten
ĠM od
il ot
ĠF ar
ben en
Ġver pflicht
Ġpro ud
ĠW ille
ĠD iox
ĠL og
ow er
tr y
ĠRe f
ĠRe cycling
Ġsu per
Ġsu dden
Ġvor nehmen
Ġy outh
Ġsh ares
ĠAn wend
Ġres erve
ĠFra hm
ist ischer
ĠEr mitt
ĠEnt schÃ¤d
Ġen ormen
Ġqu arter
Ġbei zutragen
Ġapp arent
Ġcomp osition
Ã¼n fte
Ġcan ce
ĠGr Ã¼nd
Ġpr inzip
ĠReg ime
ĠEin kommens
ĠCouncil s
ri ent
fÃ¼hr te
ĠKon serv
Ġhier bei
Ġind irect
Ġbereit en
rei ber
ĠMaÃŁ st
Ġref erences
Ġfre mden
Ġstr ugg
ĠAussch Ã¼ssen
Ġlie fern
Ġlegisl ativen
ĠUmwelt ausschuÃŁ
Ġsc rapie
Ġange hÃ¶ren
ĠHin weise
Ġatt ain
Ġausge geben
Ġproced ural
ĠVerbrauch ern
Ġerforder liche
Ġlook ed
Ġsoc ieties
Ġkonk reter
Ġnegoti ation
Ġnegoti ate
Ġpost pone
Ġcomple ted
Ġorganis ierten
ifiz ieren
ĠDienst stellen
Ġshow ing
Ġsure ly
Ġundert aking
Ġcaus ing
ĠInvest itions
best immung
gÃ¤n zen
ĠIsrael i
Ġbor ne
ĠPlen ars
Ġsatisf action
ĠDialog s
Ġtradition ellen
Ġbel g
Ġunterb reitet
ĠhÃ¶ch sten
ĠVersch mutzung
Ġgenet ic
frei heiten
ĠMÃ¤n gel
Ġunge fÃ¤hr
ĠÃ¼berw achen
Ġlangfrist ige
schlossen heit
Ġobtain ed
Ġgere gelt
Ġdeclar ations
Ġdeep ly
Ġred und
Ġdead lines
Ġerweit ern
Ġreflect s
ĠTerr or
ĠBild ungs
Ġmultinational s
ĠUnions bÃ¼rger
Ġtrag ic
Ġcontract s
ĠLat in
Ġharm ful
ĠEv alu
ĠDefiz ite
Ġnahe zu
Ġexem pt
ĠbekrÃ¤ft igt
Ġhund reds
ĠRent ner
Ġfift h
ĠPerspekt ive
Ġstattf indet
ĠwÃ¼nsch enswert
Ġrigor ous
ĠBedÃ¼rf nisse
Ġtaxpay ers
ĠlÃ¤ uft
Ġsinc er
Ġaccompan ied
Ġlat est
Ġtrad itions
bu ild
Gest atten
ĠCres po
ĠFischereip olitik
a ure
g h
o le
p ap
r as
r iment
s man
z err
Ġ X
er re
Ġt ritt
ch tern
Ġa gencies
Ġw od
Ġs urf
an st
Ġb ott
Ġo ben
Ġm id
Ġm ere
al b
ro ugh
le bung
Ġp flanz
Ġun ions
Ġder iv
om es
Ġbe ibe
ur r
ĠP f
Ġg ap
Ġre cyc
omm od
ĠK ranken
ĠF unktions
ot al
ĠC op
ĠC anad
Ġwir ken
ĠG onz
Ġwe isen
Ġge ist
Ġge fragt
de pendent
Ġcon j
ver halten
Ġst ance
ĠW allstrÃ¶m
ĠW andel
ĠVer schie
Ġde le
op s
ĠT ests
Ġex ec
Ġle hnt
Ġle hnen
Ġco vers
Ġsu itable
00 5
00 7
Ġsh ock
Ġaus Ã¼ben
Ġsch uld
ist ent
ĠSch iene
se ktors
ĠAb s
ĠAb bau
ĠAb fÃ¤llen
ĠkÃ¶n ne
Ã¶r g
ĠGe fÃ¤ng
ĠO SPAR
ĠO rient
Ġbes itzen
Ġno on
Ġte am
Ġweit em
erv en
ri ot
ri um
Ġind ire
Ġsol id
Ġper pet
Ġsome one
Ġkon stitutionelle
Ġkon tinu
ĠGemein den
wie weit
Ġ4 3
Ġ4 7
hin der
ĠGemeinschaft spolitik
ĠRahmen bedingungen
Ġrespect ive
Da von
Ġneg ativ
Ġtr ib
Ġrat ified
ĠStand punkte
ium s
Ġexpress ly
Ġprom oted
ho od
ĠAl ternative
Ġbed aure
Ġide al
Ġide olog
01 1
ichte ten
Ġresult ing
Ġerst es
Ġbro ader
Ġregul ated
Ġdire cted
mÃ¶ gen
rech er
Ġzusammen ge
Ġkurz en
ĠIhr es
ĠZahl ungen
Ġdet aill
Ġdet riment
Dar in
ĠVerwalt ungen
Ġbo ost
ĠVertre tung
ĠRÃ¼ck kehr
ĠEx port
amb od
Ġwenig sten
mb el
ĠSchul en
Ġsubsid y
Ġitem s
Ġbeit ritts
ott i
Ġturn ing
best Ã¤nde
ĠKap az
zentr ation
Ġfl ights
Ġsignificant ly
ĠSub ventionen
Ġbeg Ã¼nst
ĠbefÃ¼r wortet
Ġprakt ische
Ġunemp loyed
Ġbevor stehenden
ĠNatur a
Ġfisher men
Ġgerecht fertigt
ĠbeglÃ¼ckwÃ¼n sche
ĠDritt staaten
Ġsum mer
Ġchar ges
ĠLeg itim
Ġvorsch lÃ¤gt
ĠMiÃŁ verstÃ¤nd
Ġdut ies
Ġweak ness
Ġstra ight
ĠÃ¤hn liche
wÃ¤ss ern
Ġdepend s
Ġerweit ert
Ġdeliver ed
oler anz
Ġextra ordin
ĠVermittlungs verfahren
ĠgrenzÃ¼berschreit enden
ĠgrÃ¼nd lich
ĠErn Ã¤hrungs
Ġdispla ced
Ġdynam ic
ĠMor oc
ĠExper ten
Ġitalien ischen
Ins besondere
KÃ¶n nen
kre is
Ġunderm ine
ĠFutter mittel
ĠProte ction
Ġinev itably
Ġbarr iers
ĠSchuldener laÃŁ
ĠWicht igkeit
NG L
Ġequival ent
sy ch
ĠArg umente
kÃ¶rper schaften
Ġversto ÃŁen
Ġwod urch
Ġkontinu ier
F our
G iven
N on
N ie
P e
V ier
b ie
d ie
l atz
m iÃŁbrauch
p ut
y c
z er
z ig
Ġw ild
Ġw atch
at ures
Ġb attle
Ġin con
Ġm Ã¼sse
Ġf it
le z
Ġp ush
Ġp sych
Ã¤ be
Ġbe endet
ĠP ie
ĠP ass
ic kt
ĠS ten
ĠM ess
ĠM ad
ĠB NFL
Ġzu erst
Ġl enken
Ġk Ã¼mm
ĠF ischer
Ġon going
ĠG ut
Ġge plan
Ġge klÃ¤rt
Ġpro c
Ġer mut
Ġer gÃ¤nzen
ĠVer hÃ¼tung
ĠVer Ã¤nderung
Ġj ungen
ĠT S
ĠT ro
Ã¤n ge
ĠRe fer
Ġr ufen
Ġall mÃ¤h
Ġsu gar
Ġwill kommen
ah nen
igen ce
ĠAn geb
me chanismen
ĠBe wuÃŁtsein
Ġinter ven
ĠEnt schlossenheit
Ġad mitted
iz in
ĠGr enze
ĠO TC
Ġwenn gleich
ink ing
ĠeuropÃ¤ isches
Ġdec lare
ĠRat ifizierung
Ġfe as
Ġtra ding
gel ungen
Ġacc ommod
ĠArt icles
Ġrel iable
Ġref use
ater ie
Ġar ise
isten cy
Ġwhere by
Ġbelie ves
Ġ4 00
kehr en
ĠStr ategien
les en
ĠGemeinschaft sebene
ĠSo fort
Ġgemeinsam er
Ġange wiesen
Ġ200 5
ĠEntschlieÃŁ ungs
Ġbetr ieben
Ġmin im
Ġaccept ing
Ġstehen de
Ġdeut liche
Ġbesonder er
hol en
Ġfurther more
ĠLebens qualitÃ¤t
Ġrev en
ĠGen uÃŁ
reg ion
Ġoffen ces
komm un
Se hr
ĠGesetz es
per iode
Ġmonitor ed
Ġcivil ian
ĠSchul milch
Ġdist ingu
Ġevent uell
ĠfÃ¶r der
ĠKl amt
ĠLebensmittel n
Ġemphas ised
prÃ¤ gt
Ġconsequ ence
Ġseek s
ĠverfÃ¼ g
Ġsuggest ion
Ġexcept ional
ĠGeneral sekretÃ¤r
Ġscient ists
Ġcred ible
Ġvere hrten
spe ed
Ġ198 9
ĠAng st
ĠVermitt lung
polit ische
ĠGesamt heit
Ġmob ility
ĠWirk samkeit
ĠGerichtshof s
ĠDa fÃ¼r
ĠDiskrimin ierungen
ĠKu ck
Ġlog ical
Ġdisapp oint
Ġgarant iert
Ġadvant ages
ush k
Ġqualifiz ierter
Reg arding
Ġsystemat isch
Ġveran laÃŁ
Ġbehaup tet
wahl en
Ġvo ice
ĠChrist ian
Ġschwerwiegen den
ĠVerl ust
ĠFinn ish
ĠgrenzÃ¼berschreit ende
Ġmoder nen
Ġwelcom es
ĠHoch geschwind
ĠBerat ungen
ari at
Ġuneing eschrÃ¤n
Ġmeant ime
ĠHeimat land
Ġpill ar
ĠVerst Ã¤rkung
Ġsw ift
ĠMÃ¼ ll
Ġexpert ise
ĠFlor enz
Ġexceed ed
Christ ian
ĠnatÃ¼r lichen
Ġzer o
Ġpercent age
Ġdoll ar
Ġgeleis tete
ĠSchm id
ĠGebiets kÃ¶rperschaften
Ġhyp oc
Ġunab ding
Ġunn Ã¶t
ĠWelthandels organisation
Ġsav ings
incin eration
ĠSchott land
ĠLÃ¤r mbel
ĠGonz lez
ĠVerschie bung
4 6
E L
F re
P l
h ow
h ard
m ack
n elle
o hlen
r ies
Ġa p
Ġa gency
un k
Ġs we
Ġs ize
Ġb Ã¼rokrat
Ġin hab
Ġo ber
Ġm or
Ġf esten
Ġf roh
le chter
Ġh ous
Ġn ament
Ġan gesehen
Ġc ol
Ġbe denken
Ġbe zeichnen
ĠE missionen
Ġz un
Ġein halten
ra ct
ĠM assen
ĠB itte
hr ter
ĠK n
ĠK Ã¶l
Ġl esen
ĠR umÃ¤n
Ġfor tz
ĠV e
ĠC olog
ĠG al
ĠG ol
ĠG reat
de bat
Ġso zusagen
os te
ver teilung
est ions
Ġer setzen
Ġst olz
ĠW eit
ill ing
ab ot
ow enig
ust er
ĠT isch
ak en
end es
ĠRe v
ĠSt immen
00 9
ad ox
rÃ¤ ger
Ġcom pe
ĠBe zeichnung
ĠJ ack
ĠJ Ã¶rg
se c
Ġunter liegen
Ġunter strichen
ru ppe
Ġob ser
ub ringen
Ġber uf
Ġbec ame
Ġra ising
Ġra ises
lÃ¤ uf
Ġdec re
fahr t
ĠGrund freiheiten
Ġtra in
Ġprov ider
lle d
ific ations
Ġeinz iges
Ġprogram ming
Ġro ute
Ġgemein schaft
Ġfar ms
kehr t
ĠKo oper
ĠCon ciliation
ĠGeb rauch
hil f
Ġput s
ĠHer an
ĠÃĸ k
Ġwissen schaftliche
Ġ6 1
Ġke en
Ġ% ,
Ġinvest ors
Ġbed Ã¼r
spr inzip
ĠBeschÃ¤ft igten
Nach dem
mÃ¶ gliche
Ġpriv ile
ĠDemokrat ischen
Ġopen ed
Ġant isemit
ĠHe ads
Ġsuccess fully
ĠEx istenz
Ġharmon ised
Ġbeit reten
ĠUr heber
Ġwahr en
leit et
Ġernst hafte
Ġsett lement
ĠPre m
Ġstrengthen ed
ĠDirect orate
ĠNor den
schreit en
ĠpersÃ¶n lichen
ĠpersÃ¶n liche
Ġgetroffen en
ĠPflicht en
Ġunanim ous
Ġquant ity
Ġintens ive
ĠjÃ¤hr lichen
Ġkl Ã¤ren
ĠEinsch Ã¤tzung
ĠmilitÃ¤r ische
Ġwithdra w
Ġwithdra wn
ĠHoff nungen
Ġangeb lich
ĠBÃ¼ rokrat
ĠInst anz
ĠErwÃ¤ gungen
Ġtest ing
ĠSozialdem okraten
Ġadvoc ate
ĠMold ova
ĠfÃ¼ hlen
Ġstip ulated
ĠKonflik ten
Ġgewiss er
Ġkonstrukt iven
Ġdisag re
Ġdisag ree
Ġregel mÃ¤ÃŁig
Ġvorrang ig
Ġappell iere
ĠStÃ¤d te
ĠbeeintrÃ¤cht igt
Ġdiesel ben
ĠBeob ach
Art icle
ĠKompeten z
Ã¤lsch ung
Ġdestroy ed
Ġuncertain ty
ĠParitÃ¤t ischen
ĠBeste uerung
ĠGeneration en
Ġforese e
ĠFreis etzung
Ġunannehm bar
ĠKenn zeichnung
ĠInfl ation
ĠEffe ktivitÃ¤t
ĠSpann ungen
ĠGewÃ¤hr leistung
elk orn
ĠAngleich ung
Ġreco very
Ġforts etzen
ĠRub rik
ĠErinner ung
Ġwholehear tedly
ĠUNM IK
Ġsincer ely
Ġbeibe halten
ĠKuck elkorn
ĠKÃ¶l n
ĠColog ne
5 5
F ol
N ord
S h
b aus
d o
e cut
f lag
i ary
k urs
o e
u ck
Ġt end
is ory
it a
at lant
re if
re bt
an o
Ġb iÃŁ
Ġin fr
ar z
ro c
le ute
Ġc ow
Ġc ert
Ġun fortun
Ġder selben
Ġbe wirken
ur m
ĠE hre
ĠE benen
ig ern
Ġein seit
ĠS ri
ĠM OX
ĠB auern
ul ative
Ġzu zustimmen
Ġzu gÃ¤nglich
Ġl ift
ĠR ad
ein amer
Ġso ught
ver antwortung
Ġver he
Ġver Ã¤ndern
Ġver mitteln
Ġver zÃ¶
Ġdes per
ĠVer d
ĠD el
ĠL ank
la gt
ĠT a
if est
ann ual
Ġr hetor
ĠÃ¼ber mittelt
be zogen
be auftragten
ĠAn hang
me idung
ĠBe wirtschaftung
ze g
ĠÃ ľ
ĠVor gÃ¤n
ĠBer ger
Ġinter regional
ĠMr d
ĠParlament en
Ġnach voll
Ġch ap
Ġch ines
ĠMit rov
Ġdis m
Ġdis reg
Ġbet one
Ġste el
Ġste igen
ĠO l
Ġpre jud
sicht ig
Ġout set
Ġfe ature
ĠGrund lagen
ĠGrund prinzip
Ġjust ification
ĠÃľber tragung
ĠgroÃŁ zÃ¼g
Ġass ent
fin ed
Ġho st
ĠRechts sicherheit
fÃ¼ llung
Ġausge fÃ¼hrt
ĠMon day
Ġ6 00
ĠArbeits weise
man agement
Ġexpress ing
Ġpres erv
Ã¼b ung
Ġvoll er
Ġfol glich
ĠSozial isten
ĠAm t
Ġnegoti ated
Ġregul ate
Ġglobal e
Ġaufge treten
ĠAuff or
ĠAuff assungen
Ġbo ok
Ã¤d t
ĠStellung nahmen
Ġcongratul ations
ĠMitte laus
ĠschlieÃŁ t
ĠKommissions vorschlag
Ġbuild ings
ĠAut o
ĠMin en
Ġbeant ragen
Ġbeg un
ĠRede beit
ĠJu den
Ġbl ind
Ġcut s
Ġobserv ation
Ġkrit isch
Ġbi olog
ĠdiesbezÃ¼ glichen
Ġmob ile
ĠÃ¼berw inden
Ġlangfrist igen
Ġeinbe ziehen
zub ringen
ĠRand zio
ĠFern seh
ĠGesprÃ¤ chen
ĠAktionsp lÃ¤ne
Ġbein halten
Ġsk ills
Ġverm ieden
ĠFÃ¼hr ungs
ĠÃ¶sterreich ische
Ġverteid igt
Ġdon or
ĠVerzÃ¶ gerungen
ĠprÃ¤z ise
Ġbureauc racy
ĠmÃ¼nd lichen
Ġverbind lich
Ġangest reb
ĠAtlant ic
ĠnÃ¼tz lich
ĠVerk auf
Ġtown s
ĠMand at
ĠZul assung
Ġkorre kt
ĠErnen nung
ĠGest altung
Ġconven ience
Ġbeseit igen
Ġtempor ary
ĠWÃ¤hl er
Ġproblemat isch
Ġdestru ction
Ġarg ue
betrie be
ĠWÃ¤l der
ĠErgÃ¤nz ung
Med iterranean
ĠÃĸff nung
Non etheless
ĠHochgeschwind igkeits
Pl ath
Ġcompe te
ĠKooper ations
ĠPrem ier
Ġunfortun ate
4 1
D e
G es
I ts
T e
W eiter
a ue
b re
g ain
m ord
p la
u led
en ne
er ium
Ġd rug
Ġth res
at iver
an teil
Ġo l
Ġf and
ar ten
Ġp hilosoph
ge fÃ¼hl
Ġder jenigen
Ġbe weist
Ġbe geg
Ġis rael
us i
ÃŁ t
ĠP rop
ĠS ommer
ĠS ahara
ĠM ult
sch iÃ¶
ĠB ranche
ĠI T
Ġzu stande
ĠK ommiss
ĠK red
ĠK irk
ĠC eder
Ġcon ce
ver lÃ¤ss
Ġver f
ĠH alb
Ġst ay
Ġauf bauen
ab geordne
ĠD uff
ĠL icht
ĠL inken
Ġde z
her steller
tr ans
ĠZ uf
sp flicht
if iable
ĠSt unde
ĠN Ã¤he
Ġab uses
art h
Ġaus wÃ¤rt
Ġum gehen
Ġum gehend
rÃ¤ um
ien te
our se
ĠSch ad
ĠBe g
ĠJ a
eren z
Ġdar legen
Ġen gl
oun ting
Ġus ually
th ly
Ġunter suchen
gra de
Ġpr ime
Ġgro wn
Ġber Ã¼hrt
Ġimp r
ap ers
Ġwar ning
Ġwo fÃ¼r
ĠKon text
Ġsub s
xt ourismus
Der zeit
Ġdeb ts
Ġrec all
rei ze
Ġdisc over
Ġmarket ing
Ġgreat ly
ĠFor um
ĠSe ix
ĠSte igerung
pro zeÃŁ
gehen den
Ġspec ified
Ġown ers
ĠProgram mp
Ġausge hend
ĠHand lungen
Ġqual it
ĠHaushalts ausschuÃŁ
Ġredu zieren
ĠAl s
Ġaccept ance
ĠzurÃ¼ck kommen
Ġhelp ed
ĠMa at
Ġresour ce
ĠProdu kten
ĠMarkt wirtschaft
Ġdire kten
Ġmot or
Ġben utzt
Ġdemokrat ischer
Ġlea der
Ġlea ving
Ġlea ves
ĠFrei handels
Ġaddress ing
Ġcongratul ating
ĠEx ternal
fehl en
ĠtatsÃ¤ch liche
ĠBeschÃ¤ftigung spolitik
Ġwenig stens
Ġklein er
ĠFrieden sprozeÃŁ
Ġcover ing
weg ungen
ĠEs sen
Ġfound ed
ĠWer ten
Ġderart iger
Ġgener ations
aut aire
ĠWh at
Ġmar ine
ĠNahrungsmittel n
Ġbeteil igten
ĠAnt ibiot
ĠAnt isemit
ĠzustÃ¤nd ige
Ġrefuge e
Ġprepar atory
uff icient
Ġbel ow
ĠstÃ¤nd igen
pre ise
Ġeinzu gehen
ĠIde en
Qu ite
Ġverk nÃ¼p
ĠKommun ikations
Ġempf ohlen
Ġausgewogen e
Ġgesetz lichen
Ġinterin stitutionellen
Ġbank s
Ġmultinational en
Ã¶der al
ĠSchwer punkt
Amend ments
ĠRoman ia
Ġgewalt ige
Ġattach ed
Ġoffiz iell
ĠmÃ¼nd liche
Ġzerst Ã¶rt
Ġpostpon ement
Ġdipl omat
Ġdipl omatic
Ġdahin gehend
Ġdeleg ates
Ġpassen gers
ĠTun is
ĠMitentscheid ung
ĠzukÃ¼nft igen
Vertrag s
Ġexem ption
Ġwarm ly
Ġmig ration
katastrop hen
Ġrepeated ly
ĠEP P
Ġberecht igt
verein bar
Ġgenie ÃŁen
ĠDisziplinar verfahren
Ġsched uled
Ġinakzept abel
Ġdig ital
ĠSM Es
Ġstring ent
Ġdispar ities
Ġconj unction
Ġbeitritts willigen
ĠveranlaÃŁ t
ĠJack son
ĠBÃ¼rokrat ie
ĠbiÃŁ chen
ĠPremier minister
schiÃ¶ ld
ĠKommiss are
ĠKirk h
ĠCeder schiÃ¶ld
ĠSeix as
H ence
M ember
N atur
N eben
S tr
b indung
d ung
f lÃ¤chen
o ff
w ass
on ing
is ms
Ġw age
it ze
Ġs ake
re iz
ion age
ar g
ro us
ro hung
Ġp al
Ġh ung
Ġh osp
Ġan gehen
Ġun ique
Ġbe trÃ¤gt
Ġein nehmen
ĠA ug
ĠP otential
sch ul
sch Ã¤den
ĠB u
ĠB an
il ty
ĠK unden
Ġl iter
Ġl obby
ere quis
ĠF akten
ĠC F
Ġge legt
Ġge pl
ver trag
Ġer faÃŁt
Ġst Ã¤dt
ĠW Ã¼n
Ġdes irable
Ġnot ably
ĠVer he
Ġde te
la den
iv oc
ĠT ieren
ĠT ime
Ġr und
ste in
und s
ungs maÃŁnahmen
ĠN uclear
ĠN orthern
Ġsh ape
ĠÃ¼ber legen
be werber
ĠAn reize
ĠAus bau
ĠmÃ¶ gen
ĠAr me
ud ing
Ġsa w
ass oni
Ġdurch gesetzt
Ġpr erequis
ĠGe fÃ¼hl
Ġgen erous
ĠComm on
Ġges undheit
Ġout standing
ĠMitgliedsta ates
Ġwo zu
erst att
Ġhier zu
Ġfact o
Ġkon front
schlieÃŁ t
ĠZusammen halts
ĠLe hren
Ġmark ed
zie le
Ġar ran
Ġar med
Ġrep orted
bens owenig
gesch rieben
fÃ¼ gt
Ġgu ilty
Ġgleich ermaÃŁen
ĠThem as
ĠMon opol
ollow ing
Ġgut er
Ġ8 1
Ġprom ise
Ġwish ed
Ġ% .
Ġmin or
Ġmin ute
ĠAl tern
ĠBet rÃ¼
ĠBet roffen
Ġstrateg ische
ĠgrÃ¶ÃŁ ter
Ġcolle ct
Ġdefin ing
fach ung
Ġerst mals
Ġhealth y
ĠTur mes
ĠDemokrat isierung
Ġmot iv
ĠJahres bericht
Ġrele ased
Ġreach ing
ĠGesetz geb
Ġerste llt
Ġvi able
ĠauÃŁer gewÃ¶hn
ĠDi kt
02 1
ĠArbeitsp latz
ĠHo he
ĠFr assoni
ĠgefÃ¤hr den
ĠgefÃ¤hr licher
ĠAs ia
ĠGrundrechte charta
Ġexperien ced
Ġresul ted
Ġstrengt h
app ropri
Ġconsequ ently
Ġgee ignet
ĠAuÃŁen minister
ĠbefÃ¼r chten
ĠPost dienst
Ġverl Ã¤ng
Ġoffer ed
Ġrecon sider
Ġsex uellen
Gen au
ĠvollstÃ¤nd igen
ĠKont akt
Ġhistor ical
Ġassoc iations
ĠSchluÃŁfol gerung
ĠGed anke
Ġkrit ischen
Ġkrit isiert
Ġinspect ors
Ġune qu
Ġkonzentr iert
Ġnachhalt ig
Ġinvestig ations
ĠKommissionsmitglie der
ĠBeschl Ã¼ssen
ĠJugend lichen
Ġexport s
amm t
ĠFern sehen
ĠGesprÃ¤ ch
Ġworth y
Ġapprec iation
Ãľber ein
ĠendgÃ¼lt ige
ĠUmst Ã¤nde
ĠErwÃ¤ gung
ĠPrivat isierung
ĠAuss agen
Ġterritor ies
ĠMold au
ĠRoman o
ump ing
ĠKonsequ enz
Ġreinfor ce
Ġvig or
Ġrespekt ieren
Ġrespekt iert
ĠTele kommun
Ġenh ance
ĠerÃ¶r tert
ĠPak istan
Ġlandwirtschaft lichen
ony m
Ġmargin al
Ġincent ives
Ġbedauer lich
ĠBil anz
ĠAssozi ierungs
Ġphys ical
ĠDro gen
ĠBi otechnolog
ĠDet ail
ĠBew Ã¤ltigung
Ġleis tet
Ġbiotechnolog y
Ġbeeinfl ussen
Ġcontrovers ial
Ġalco hol
Ġfremden feind
ĠMitrov ica
ĠMittelaus stattung
ĠAntisemit ismus
ĠKirkh ope
ĠAug ust
ĠVerhe ugen
4 3
4 4
B is
L einen
S urely
h ouse
k ultur
m ischung
r ufen
s weisen
w a
x te
Ġa ward
is y
un ately
Ġw iden
ie be
an cies
Ġin her
Ġm essen
Ġm other
Ġf isc
Ġf ruit
Ġf irms
Ġf ertig
ar io
ro lle
Ġp ain
Ġh y
Ġh es
Ġn orthern
Ġan erkennen
Ġc atastrop
Ã¼ ste
st Ã¤nde
ig ert
Ġz iel
ĠP oms
ic ated
ĠM erk
ĠM organ
el led
Ġre mit
Ġre ception
der grund
ĠB on
ĠB ul
ul ted
ĠI f
gen huber
ĠK an
ĠF ette
Ġfor um
Ġha zardous
ĠC uba
Ġcon stra
ĠH ekt
Ġer lauben
ĠW omen
ab in
ĠL am
la ubt
Ġse ll
lie fert
ck s
ah lung
be wirtschaftung
be lebung
Ġaus lÃ¤nd
Ġsch enken
enn ium
gr Ã¶ÃŁ
In d
ĠmÃ¶ ge
ĠVor dergrund
ĠEr d
ĠEr stens
ĠEr fÃ¼llung
Ġinter governmental
Ġunter sucht
Ġnach denken
chen schaft
og genhuber
zu gehen
Ġzw Ã¶l
ĠO pp
Ġber ichten
Ġcons istency
Ã¼ck e
Ġwar s
ĠUnter lagen
fahr zeuge
geb ieten
Ġar gu
sel be
pro bleme
Ġweiter entwick
Ġsystem atic
Ġher ange
Ġ5 2
ĠZiel setzung
Ġgleich berecht
ĠThem atik
Ġverb oten
ĠFinanz mittel
ĠFinanz mÃ¤rkte
zus prechen
Ġprev ented
ĠAfr ikas
Ġtrans fers
Ġ8 7
Ein er
Ġ9 6
ĠBest reben
Ġcommun autaire
01 2
ichte te
Ġcolle ction
Ġrev ised
Ġadv anced
Ġeinge hend
Ġje glich
fÃ¤h ige
Ġtransport ation
Ġben chmark
Ġgenau er
Ġpass ing
ĠheiÃŁ en
02 6
Ġpop ulations
ĠMil itÃ¤r
Ġparticip ating
Ġklein eren
verb ot
Ġwirksam er
ĠKultur en
Ġexperien ces
ĠzusÃ¤tz lich
Ġgener ate
ĠAt t
ĠGew Ã¤hrung
Ġschein en
Ġaccording ly
Ġtour ist
ĠFlug zeug
Ġprakt ischen
ĠunabhÃ¤ng ige
Ġangesprochen en
Ġcho ices
Ġprepar ations
ĠVers icherungs
ĠstÃ¤nd ige
part ner
dienst leistungen
Ġlegitim acy
ĠMan agement
ĠVerteid igungs
Ġlearn ing
ĠProtokoll s
produ ktion
Ġelektron ische
ij k
Ġsent ence
Ġerneuer barer
ĠgeÃ¤uÃŁ erten
ĠIraq i
ĠMont ag
Ġzunehmen d
Ġumwelt freund
Ġcampaign s
Ġinfrastruct ures
Ġeffizient er
ĠVerletz ungen
ĠgewÃ¤hl ten
Ġlisten ed
ĠVermittlungs ausschuÃŁ
Ġamt ierenden
ĠMitglieds lÃ¤nder
ĠEnts orgung
greif ende
ĠWissenschaft ler
ĠerlÃ¤ut ert
IT ES
Ġparlamentar ische
Ġumfang reiche
Ġgradu al
Ġrelig ious
ĠUnivers al
Ġausreichen de
Ġhund red
ĠStÃ¤d ten
ĠerÃ¶ff net
Ġanz up
ĠRo h
Ġslight ly
Ġsusp ic
Ġhil f
Ġdiox in
Ġdict ators
Ġderog ations
ĠAusnahmere gelung
ĠBewerber lÃ¤ndern
ĠED F
ĠzÃ¼g ig
ĠGD P
ĠStaatsan wal
ĠFrÃ¼ h
ĠenttÃ¤us cht
Ġenor me
ĠÃĦuÃŁ erungen
Ġtang ible
sph ase
ĠPensions fonds
ĠTenden z
ĠAnhÃ¶r ung
ĠSten zel
ĠEntschlieÃŁungs entwurf
Ġhosp ital
Ġunequ ivoc
Ġfisc al
C omp
F ollowing
J a
S teuer
W o
d ies
d auer
g le
g ipfel
l ore
m eth
p oint
u v
Ġt wel
on sten
on str
it es
Ġs enten
Ġf oss
Ġh orr
Ġun ity
ir men
Ġein rÃ¤umen
ĠS pr
ĠS uche
ĠM Ã¤rkten
ĠB Ã¶r
ul ous
et ten
Ã¶ te
Ã¶ ffentlich
Ġl ernen
Ġda vor
ĠR indern
ĠC ulture
Ġal tern
Ġver wirk
Ġver schieben
ĠH ar
Ġpro l
Ġpro sec
Ġst ammen
Ġst ri
Ġas pir
Ġdes ired
Ġnot ion
ĠVer stoÃŁ
ĠD iff
Ġde pendent
tr ie
ĠZ in
ĠT EN
ĠT otal
ĠRe ad
if ies
qu ately
Ġvor gelegte
we igen
ĠAn schluÃŁ
ĠAn bet
ĠAn reiz
ĠBe ziehung
Ġman ip
Ġman geln
Ġman gelt
ĠVor wand
ĠEr ne
Ġinter ne
Ġad verse
Ġcan cel
Ã¤t igung
Ġpos sibilities
Ġgen es
ĠO pt
ĠEin leitung
ark ed
reich enden
ag s
are t
ĠJahr zehn
lÃ¤ g
Ġnew sp
ign ed
ren nen
Ġsub sequent
ner g
ĠVerb rech
ĠArt ik
Ġsocial ly
Ġar ising
Ġrem ed
Ġfest halten
ĠSe xtourismus
Ġho hes
Ġho hem
ĠCon serv
Ġresol ving
Ġtechn ischer
Ġger inge
Ġfo oting
Ġele ction
Ġrespect ing
ĠBerichterstatter n
Ġstand ing
ĠArbeits bedingungen
ĠArbeits gruppe
mÃ¤ÃŁ igkeit
Ġwes tern
Ġfavour able
ĠInformation stechnolog
Ġfinanz iell
Ġdefin ieren
ĠBes onder
Ġ19 6
ĠProdu zenten
Ġans onsten
reg ierung
stehen de
Ġben utzen
Ġ20 20
Ġrece iving
ĠRÃ¼ck gang
Ġeig entliche
02 5
ĠStabil isierungs
ĠSchul z
Ġwahr nehmen
ĠWor k
ĠSitzung speriode
Ġbedeut ende
Ġsett le
Ġeng aged
Ġverst Ã¤rkten
Ġencour aged
ĠAss oc
Ġfail ing
ĠSub st
Ġlange m
ienste ten
Ġsuggest ions
ĠDirect or
ĠVÃ¶lk ern
Ġerheb lichen
wÃ¼rd igen
Ġinteress ant
ĠDokument en
Ġeinzu halten
Ġmax im
ĠVorsitz ende
Ġsum s
ĠBeam te
ĠsÃ¤mt lichen
Ġbilater alen
Ġverd ienen
ĠPatent amt
Ġregret t
ĠAsyl bewerber
Ġweak en
Ġeffekt ive
Ġeffiz iente
Ġxenophob ic
Ġgering er
gere ien
ĠEinzel heiten
Ġbill igen
ynam ik
ĠAlban ian
ĠSw iss
Ġcontradict ion
Ġattack s
Ġeinsch lÃ¤g
greif enden
Ġsurpr ise
Ġhol ds
Ġeinger ichtet
ĠBerat ung
ĠDefiz it
Ġcust oms
Ġloss es
Ġeingeb rachten
ĠOber grenze
Ġey es
Ġmulti annual
Ġenh anced
ĠKategor ien
ĠVerlauf e
Ġgetr enn
program me
Ġnachzu denken
ĠbeeintrÃ¤cht igen
Ġgesp ielt
ĠEinwander er
ĠDav ies
ĠAbÃ¤nder ungsantrÃ¤ge
Ġabstain ed
utr ition
ĠJe ws
Ġabandon ed
ĠdÃ¤n ischen
ĠAuseinander setzung
ĠBeruf s
ĠSum me
Ġforg otten
Ġenth usi
ĠFÃ¤h igkeit
Ġhabit ats
respect ive
Ġcollabor ation
ĠEvalu ierung
ĠCop enhagen
ĠDafÃ¼r halten
ĠRumÃ¤n ien
Ġdisagre ement
Ġdisreg ard
Ġimpr ison
ĠProgrammp lan
ĠBan otti
Ġverwirk lichen
ĠAnbet racht
4 8
C ons
D ort
G A
I hr
M en
W ichtig
Z usammen
b as
i ques
k ap
l ern
m t
m ail
m Ã¤rkten
n ot
p read
r isik
u is
y ren
Ġ +
Ġa qu
Ġw ides
it arian
re aching
an forderungen
Ġb eschÃ¤
Ġm ine
ar ious
Ġe pidem
le ase
Ġp lÃ¤
Ġan p
Ġan hand
Ġc ategory
Ã¤ uf
st ad
Ġv ent
Ġv ague
ĠE AG
ir ing
Ġz Ã¤hlt
ra ge
ĠS ant
ĠS pecial
im p
ĠM obil
Ġre verse
sch er
ĠI M
ĠI ll
ĠK urd
ĠK Ã¼rzung
Ã¶ ste
Ã¶ tz
Ġl iv
Ġk ennt
Ġal t
os tet
Ġim bal
ver hÃ¤lt
ver zerr
Ġver spro
ĠH ern
Ġer ho
Ġauf zubauen
ĠW ald
op ath
Ġj ugoslaw
ĠT reib
ĠRe ise
ay ann
qu oten
Ġr id
The ir
Ġvor sehen
we ises
00 8
Ġab sch
Ġab ges
ĠÃ¼ber ras
ĠIn dependent
be k
be vÃ¶lk
Ġres ident
Ġaus sehen
ad ays
ers Ã¶n
Ġdo or
Ġsch Ã¶n
ist ical
ĠAus sicht
ran ten
Ġapp alling
Ġsa ve
Ġbet ra
ĠGe heim
Ġra ce
Ġsp ring
Ġges onder
ag og
Ġhin ein
ĠDe ll
ĠDe fence
Ġdec ade
Ġdec ades
Ġdam al
ĠRicht er
Ġins ufficient
Ġgew onnen
Ġref used
Ġbest and
ĠSe a
ĠCon f
ĠCon stitutional
Ġ5 4
Ġ5 5
Ġevery body
Ġincre ases
ĠHa vel
ĠVerein fachung
ekt or
Ġ200 4
Ġdiffer ently
Ġmain streaming
ĠHaushalts plan
ĠArbeits losen
Ġ8 5
199 8
Ġkomm un
Ġpres erve
Ġinvest ieren
Er st
Ġir ak
Ġschw ere
01 7
ep ing
Ġfood stuffs
wÃ¤r ts
Ġorganis ieren
Ġdemand ed
ĠBel astung
war ten
Ġvorgesehen e
rÃ¼ck en
Ġern ste
Ġexc use
ĠGrÃ¼n buch
wach ung
Ġdisp ute
Ġdisp utes
Ġversch oben
ĠStabil isierung
ĠWasser politik
Ġviol ated
ĠInvest ment
Ġerwar te
Ġseek ers
Ġbit ter
ĠStaats ange
ĠStaats bÃ¼rger
ĠProt ocol
Ġgee hrten
Ã¼rz ungen
Ġclar ified
Ġumfassen der
Ġvis ible
Ġsuggest s
Ġli able
Ġrecon c
Ġfocus ed
Ġerfolg reiche
yr ight
tell te
Ġmis under
Ber eits
Ġnormal en
ĠSc rapie
ĠvernÃ¼nft igen
Ġzentral en
Ġdev ast
Ġdev oted
ĠdiesbezÃ¼ gliche
Ġprof ound
entscheid ungen
zul Ã¤ss
schw emm
Ġweltweit en
Ġdiv ide
Ġdiv ision
Ġdisapp ointed
Ġerk annt
Ġtransfer red
Ġneighbour s
Ġbar bar
Ġthous and
ĠPap ayann
Ġprior it
hab t
ĠInfrastruktur en
Ġsurpr ised
Ġdro ht
ĠtÃ¼rk ische
ĠKop enhagen
ĠverÃ¤nder ten
Ġcoast al
Ġgegenseit igen
ĠerÃ¶r tern
ĠerÃ¶ff nen
ĠReal isierung
Ġabziel en
ĠGeneraldire ktion
Ġstraf rechtlichen
Ġlar ger
Ġausgest attet
Ġsold iers
ĠergÃ¤nz t
Sol ange
ĠVerursacher prinzip
Ġkommer zie
Ġbeob achten
ĠOste uropa
ĠÃ¼bersch ritten
ĠTAC IS
Ġverpflicht en
ĠKonserv ativen
Ġsurf ace
ĠMoroc co
Vier tens
ushk its
hard t
ĠAuffor derung
Ġgepl ant
ĠBetrÃ¼ gereien
ĠBul gar
ĠLam y
Ġwides pread
Ġverspro chen
ĠPapayann akis
- -
R es
S omit
f on
p us
p lus
r iz
w ater
er ted
Ġw in
Ġs ite
Ġs yn
Ġs itzen
at um
or ten
re form
an agement
Ġb reiten
Ġm ur
Ġm erg
Ġe arn
Ġn omin
Ġan sehen
Ġan stelle
Ġc ity
Ġc attle
ge fÃ¼hrt
Ġun m
Ġun um
st on
Ġbe gangen
ed s
Ġein iges
Ġein bringen
ra b
ĠA ir
ĠA hern
ĠP yren
ĠS up
ĠS int
ĠS yr
ĠS met
ut age
ĠM us
Ġre la
ĠB ere
Ġzu weilen
et tering
ĠK och
ĠR en
Ġk olle
urop as
ĠF il
ĠC as
ĠC AP
Ġge treten
Ġge prÃ¤gt
de cken
Ġver handeln
ĠfÃ¼r chte
Ġer laubt
ab kommens
Ġdas selbe
ĠL isten
ĠUn s
ess or
iv ate
ĠSt reichung
ib ly
ib ungs
hal opath
ĠÃ¼ber denken
ĠIn spe
ĠAn nex
ĠAn wesenheit
Ġres ort
rÃ¤ ume
ĠEn des
heit s
gr Ã¼nden
ĠVor bild
ĠVor feld
ige m
Ġhe im
ĠEr stellung
Ġen abling
Ġad ap
age ments
ast ungen
Ġcomp lied
imm er
imm te
zu arbeiten
Ġgen aue
Ġzw anzig
Ġra re
ĠComm un
rat s
ag ers
Ġexp los
Ġhin nehmbar
Ġihr erseits
teil s
ĠKon zentration
utz utage
iÃŁ t
iÃŁ ig
fl Ã¼ss
ĠUm struktur
ĠVerb rennungsanlagen
Ġrec ip
Ġrec ourse
Ã¤ch er
ĠÃľber legung
iger weise
Ġfre ight
zeit en
leg te
ĠBed rohung
Ġass um
ĠSte u
Ġ4 9
Ġwieder her
stimm t
vor haben
Ġgu ard
Ġlo bens
Ġange paÃŁt
Ġcountry side
Ġser b
Ġhope fully
ĠHa up
Wh o
ĠOr te
ĠFre und
Ġpres ident
ĠAl kohol
Ġgeb unden
ĠdÃ¼r ften
ĠWelt bank
rÃ¤n ken
ĠGer ichte
Ġeing esch
Ġsoc io
Ġpl Ã¶tz
Ġapproach es
urn ing
Ġintegr iert
Ġ15 0
Ġbew Ã¤hr
Ġbew ahren
old aten
Ġdemocrat ically
Ġopen ly
Dar aus
Ġmed ic
With in
ĠAmer ikaner
ĠBeding ung
que llen
ĠerklÃ¤r te
ĠKl Ã¤r
ĠKl uft
Ġturn ed
oss iers
Ġgener ated
Ġelect oral
Ġlow est
zeichne ten
Ġappe ared
ĠFehl en
ĠSÃ¼d oste
Ġbl ame
of ar
Ġvict im
200 1
ĠDritt lÃ¤nder
Ġce ase
Ġverk aufen
ĠStellen wert
Ġtele ph
Ġreject ion
ĠEl end
strÃ¶ me
zul assen
ĠKar as
spekt oren
Ġleicht er
Ġpursu ed
Ġconsist ently
ĠÃ¶kolog ische
Ġgek enn
Ġcondu cted
sprÃ¼ ch
Ġwach sam
ĠendgÃ¼lt ig
ĠÃ¼berein stimmen
Ġtarge ted
ĠFriday s
Ġenfor cement
ĠRoth ley
Ġsystemat ically
ĠBetrie b
ĠLeist ung
ĠInsel n
Ġspezif ische
Ġemb ra
Ġmittel frist
Ġconvention al
Ġdiscip line
Ġexpens ive
ĠAnd re
Ġtro uble
Ġumfang reich
Ġverring ert
Ġarr ived
Trotz dem
ĠverstÃ¤nd lich
ĠVorbe halte
netz e
bef ugnisse
Ġappell ieren
ĠPo ettering
katastrop he
Ġacknowled ged
ĠÃ¤lter en
atal og
ĠzulÃ¤ss ig
Ġestim ates
Ġjournal ists
Ġvertre te
ĠgewÃ¼n scht
ĠTrag Ã¶
Ġverank ert
Ġscore board
ĠdrÃ¤n gen
ĠForst wirtschaft
Ġtraged y
ĠÃ¶rt lichen
Ġcere als
ĠRef uge
Ġreven ue
Ġinhab it
Fol glich
Ġsubs cr
ĠMerk mal
ĠOpp osition
Men schen
8 4
9 6
C art
E D
O R
P lease
S C
S icher
Y our
b ett
d in
h abil
k lag
l assungen
m el
u um
v o
w agen
er ed
in vest
Ġt abling
Ġt ighten
Ġs ight
Ġb ov
Ġin nen
Ġf ahren
Ġe uropa
Ġp ir
ge kommen
ge wÃ¤sser
as ion
as te
Ġbe werten
ll ari
ĠE EF
ĠE din
ĠP os
ic ts
ĠS er
ĠS ens
ĠS ake
ĠM ollar
el ung
Ġre ibungs
ol met
am es
ĠB ur
ul icher
Ġzu kunft
et hn
ĠK au
ĠR eding
Ġden y
iss ion
Ġge forder
Ġal beit
Ġal to
os sen
ort ion
ĠU EN
Ġcon temp
ver schieden
Ġver bleiben
Ġer schw
Ġst ruck
Ġst reichen
Ġst ammt
ĠVer folg
ĠVer hinderung
ĠD och
ĠD ine
ind lichen
Ġse arch
if ted
Ġco alition
ĠSt ich
ĠSt rom
ĠSt urm
ne ten
Ġvor ank
Ġvor zusch
sen z
ah e
Ġsich eren
00 2
00 3
ĠIn iti
ĠBe urteilung
ĠAus land
ĠAus fÃ¼hrung
Ġreg istr
all o
Ġent zieht
sta ats
oc ation
oc racy
ĠGe wÃ¤sser
Ġpre text
ĠEin e
Ġbes agt
Ġout lined
ri re
ĠKon kur
Ġdec line
fe kt
arbeit eten
Ġfe ier
ĠGrund zÃ¼ge
Ġtra ins
Ġjust it
ĠUm sch
Ġinv ited
ans ion
Ġacc used
Ġgew id
Ġgew Ã¶hn
Ġgr ass
ĠAuf hebung
Ġfre ut
Ġemp fehlen
Ġunder line
Ġinternational ly
Ġstat ute
Ġbelie f
ac ted
ĠRechts akt
Ġtechn isch
Ġens hr
Ġevery where
ĠZiel s
Ġconf used
erg ie
ĠMe chanismus
Ġorgan ise
Be im
Ã¶ÃŁ en
Ġwissen schaft
Ġgest rigen
ĠHaushalts mittel
Ġ8 8
ĠAl ter
Ġgeb lieben
Ġdel icate
ĠgrÃ¶ÃŁ t
ĠMa es
ĠÃ¼b lichen
ĠGen f
Ġexist ieren
ĠOrgan en
term ination
Ġcor por
Ġbef ried
ĠInd ustr
Ġtechnolog ischen
hÃ¶ re
ĠUS D
Ġtreat y
Ġmult ip
bereit en
Ġsur plus
Ġdisk rimin
Ġharmon ise
ĠLuft raum
Ġcoordin ate
ĠQu estions
Ġcontra st
Ġconv ict
burg h
ize i
Ġgrundlegen der
ĠBeschluÃŁ fÃ¤higkeit
ĠBeschluÃŁ fassung
Ġindic ate
Ġirgend wel
Ġcut ting
Ġinteress ante
Ġkrit isieren
ĠWider stand
ĠGar ca
Ġaccep ts
Ġauthor isation
ĠDez entral
AL E
ĠPrÃ¤ senz
ĠÃľberwach ungs
Ġdr iving
ĠGriechen lands
Ġung erecht
Ġung laub
Ġign ore
Ġangemessen en
rep ublik
ĠVerhalten sk
Ġverste ht
Ġdise ases
Ġausgewogen en
Ġrepla ced
Ã¤st igung
Ġleaders hip
Ġkompliz ierten
Ge gen
ĠGrenz werte
Ġcontradict ory
ĠFlugh afen
ĠbetrÃ¤cht lich
regel ungen
Ġappoint ment
ĠRu iz
ĠSpe k
Ġrech nen
Ġdauer haften
Ġdrast ic
Ġwidersp richt
Ġelimin ate
ĠMitentscheid ungsverfahren
Ġkonstrukt ive
Ġoccup ied
Ġkn app
ĠMc Cart
Ġdiesel be
Ġadjust ments
Ġdepart ments
Ġthir teen
Ġbenachteil igten
Ġobligator ische
Mittel meer
Ġflag s
Ġchann els
Ġperform ance
ĠsÃ¼d lichen
Ġsel ber
Ġcompon ents
ĠLegisl ativ
Ġconfident ial
Gem ein
Ġresist ance
ĠGewerk schaften
Ġabgesch afft
ĠElekt riz
ĠPalestin ian
ĠNAF O
ĠmiÃŁbrauch t
Ġvigil ant
ĠEntschÃ¤d igung
Ġstrugg le
Ġexempt ions
Ġderiv atives
Four thly
Nie mand
Pe ople
debat te
Ġantisemit ism
ecut ive
Ġthres hold
ĠauswÃ¤rt ige
ĠAssoziierungs abkommen
Ġhilf reich
ĠVerbrech ens
ĠAssoc iation
Ġadap ted
llari ou
ĠEdin burgh
ĠSake llariou
Ġalto gether
ĠDine h
L etz
P art
S c
S p
b Ã¼
d own
d isc
e iden
g Ã¤ng
k y
k rank
k ompeten
r id
r ant
r ichen
w ider
in ent
Ġw ake
it at
Ġs ale
ie th
ie gel
an y
an spruch
Ġin wieweit
Ġm g
Ġm un
Ġm ater
al us
Ġp ure
Ġh art
Ġn uk
Ġan x
Ġan lÃ¤ÃŁlich
Ġc ommission
Ġc ast
Ã¼ hm
Ġun ited
Ã¤ glich
Ġto ugh
st ritten
Ġv ary
as pe
ĠE TA
ĠS erv
Ġg Ã¼lt
Ġg ather
ĠM utter
ies t
Ġre de
am s
sch ritt
ĠB our
ĠI V
Ã¼r zen
Ġl v
Ġden oun
ĠV et
um in
ĠG AP
ĠEurop es
Ġge ziel
Ġal ter
Th rough
de ckung
Ġver h
Ġver handelt
Ġpro active
Ġer b
Ġer such
ach te
Ġauf s
Ġauf richt
Ġnot iced
ĠVer arbeit
ab len
ĠD ritten
ĠL ohn
ĠUn recht
Ġj ahre
ĠT imor
ĠRe chenschaft
Ġmit unter
Ġco fin
we ich
Ġab schlieÃŁen
ens ive
Ġsch Ã¶
ĠBe wegung
ĠAus Ã¼bung
Ġman agers
ĠEr de
Ġnach kommen
ast er
Ġob s
ass es
Ġinc idents
Ġma il
ĠSie d
he ll
Ġcons ulted
ĠEin igkeit
ĠEin nahmen
Ġbes orgnis
Ġte ilt
ĠArbeit geber
Ġhin der
Ġwo od
ĠKon vent
lan ges
Ġfe els
Ġbereit zustellen
Ġkon vention
Ġins ofar
Ġclear er
Ã¤ch sten
ĠLe id
ĠAuf ent
ĠTh ys
Ġro ll
ĠwÃ¼r d
feren ces
ac a
Ġher zustellen
gesch ritten
ĠRahmen s
ĠRahmen richtlinie
Ġpresent s
Ġorgan ising
Be fore
Ã¶ÃŁ t
Ġrat ification
Ġbek annten
Ġinvest iert
Ein es
ĠQ ue
ĠBest Ã¤tigung
Ġide ology
Ġir respon
Ġir respective
All es
Ġintegr al
Ġintegr ate
Ġoffen e
Ġenlar ged
Ġorganis ierte
ĠFort setzung
Ġmed ical
weis ungen
Aus gehend
ĠGre mien
Ġzahl reich
Ġavail ability
ĠMar ok
Ġrecommend ed
Ġeuro s
Ġfour teen
ĠstÃ¤rk eren
Ġenter ing
Ġbedeut enden
Ġamb igu
Ġret ire
Ġfall ing
kontro llen
stell ern
Ġfran k
Ġgrundlegen d
Ġdelay ed
Ġerfolg reichen
mm et
Ġproduc er
Ġcritic isms
Ġhistor ischen
Ġmovement s
Ġmanufact uring
Ġnormal erweise
Ġconstit uen
Ġtack led
Ġtack ling
ĠUntersuch ungs
Ġrestrict ive
Ġexerc ised
Gleich wohl
icien cies
Ġeffekt iver
ĠÃ¼berw acht
Ġred is
ĠursprÃ¼n glich
Ġqualifiz ierten
Ġfear s
Ġfrei will
Ġbig gest
Ġangeb oten
ĠgewÃ¤hl te
ĠBetrie be
Ġinterv entions
Ġcontradict ions
Ġbr id
Ġveran lassen
Ġvo ters
Ġamer ikanische
Ġverurs achen
Ġwilling ness
Ġmoder ne
ĠLat einamer
ĠSozialschutz es
ĠCor bett
ĠordnungsgemÃ¤ÃŁ e
Ġehrgeiz ig
ĠHung ers
Ġeingeb unden
Ġprem ature
Ġvirt ually
Ġschlimm sten
Ġvereinbar ten
Ġcorrespon ding
ĠFlor a
Afr ica
ĠKompeten zen
Ġinterpre ted
ĠBosn ien
ĠBosn ia
Ġtre mend
Ġincomp atible
Ġabol ish
ĠVizeprÃ¤sident in
ĠWortmeld ung
dring lich
Ġessen ce
Ġsil ence
ĠkohÃ¤r ent
ĠAutomobil industrie
Her zeg
Comm unity
Ġreve al
Mitglie d
Ġpleas ure
ĠLog ik
build ing
ĠallmÃ¤h lich
Ġfeas ible
ĠuneingeschrÃ¤n kte
Ġap olog
ĠVe ter
Ġverhe eren
Ġrhetor ic
ĠBu iten
Ġkonfront iert
ĠzwÃ¶l f
ĠBÃ¶r sen
bevÃ¶lk erung
Ġmerg ers
ĠKlÃ¤r ung
Ġbesorgnis erre
ĠThys sen
C R
E ben
H o
I C
K ommission
K enn
O L
b all
d ro
f el
f utter
g al
g uer
g Ã¼nst
j o
k w
k lausel
l Ã¶sen
m ischen
Ġt ort
Ġt agt
Ġa ffair
Ġs ah
or ed
an cy
Ġin haft
Ġin put
Ġm ism
al ys
al itÃ¤ten
le bens
Ġp rag
Ġp ertain
Ġh it
Ġh erd
Ġn utrition
Ã¼ hen
Ġun p
st reit
Ġder eg
Ġv et
Ġbe greifen
Ġbe wirkt
ĠE lles
Ġis lands
us ted
ed e
ĠA ction
ĠP en
ĠP ek
ĠS ar
ĠM ich
Ġre tro
omm t
sch te
ĠB ern
ĠB eren
il s
Ġzu zulassen
Ã¼r ger
Ġl ingu
ĠR und
Ġk atastrop
ĠF F
ĠF u
ot um
ĠV ision
ĠC ong
ĠG ott
Ġge zahlt
Ġge liefert
de ck
men ge
men gen
Ġer bringen
and t
ach lÃ¤ss
Ġst ory
Ġauf greifen
ĠW ests
Ġnot ification
ĠVer sp
ĠVer urteilung
ĠD al
ĠD enn
ĠD amit
ĠUn zulÃ¤nglich
la sten
la van
iv ile
ĠT ausende
ant ini
ĠSt Ã¼ck
ne iden
Ġvor legt
we if
ĠN ap
ĠN az
ĠÃ¼ber geben
ĠÃ¼ber flÃ¼ss
Ġres tra
art igen
iel ten
ĠPro fit
ĠPro van
keit en
ĠBe haupt
ĠAus fuhr
Ġman aging
Ġman oe
Ġent ail
ĠEr folge
ĠEr fassung
Ġqu oted
Ġus ers
Ġbeen den
Ġgen e
Ġzw ingen
he il
uss ions
Ġra w
wick lung
wo oll
au ert
lieÃŁ t
ĠArbeit sprogramm
Ġfe atures
ĠGrund recht
geb Ã¼hren
ĠUm feld
ĠVerb indungen
Ġrec ital
Ġacc ounting
ĠÃľber sch
ĠÃľber schwemm
hÃ¶r ige
Ġoff ic
stitution en
Ġstr and
Ġstr ike
halt igkeit
ss icherheit
Ġstat ing
Ġwhere ver
Ġro utes
Ġfinan ces
ĠRechts akte
Ġdra matic
Ġ5 1
ĠRahmen besch
Ġger ingen
Ġpar adox
Ġfo ster
Ġlo y
tegr ation
Ġform ation
ĠHaushalts ausschusses
ĠHaushalts kontroll
Ġworld wide
Ġbesch rieben
spro blem
Ġredu ctions
Ġ7 1
org antini
Ġ9 8
Ġsecond ary
Ġhelp ful
Ġschw eren
ĠVerantwort ungs
itt ings
ĠLebens bedingungen
Ġdefin itive
Ġbro ken
Ġprogress ive
mÃ¶ glichen
Ġaufge griffen
Ġaufge hoben
ĠInd ones
Ġremain ed
ĠWort laut
ĠMehr zahl
Ġfun ctions
ĠMed ina
Ġanswer ed
ĠWieder belebung
Ġpoll ut
ĠLissabon ner
Ġschwier iger
Ġwider sprÃ¼ch
ody ear
ĠFischere ise
Ġfore cast
Ġexperien cing
Ġvern achlÃ¤ss
Ġdep th
Ġamb itions
ĠPart nern
Ġsustain ed
ĠAuÃŁen handel
Ġexam ining
Ġverein f
Ġincor rect
ĠBas ken
ĠGroÃŁ teil
Ġblo od
ĠNatur katastrophen
ĠOp eration
Ġilleg alen
ĠProz esse
lÃ¤ÃŁ t
Ġschl icht
Ġquant itative
undert t
min en
krÃ¤ ften
ĠStraf verfolg
Ġade quately
Ġehr lich
Ġconcentr ation
Ġbad ly
sk i
ĠBl ut
Ġsubstantial ly
Ġlik ed
sprogram men
sprogram ms
Ġmist akes
Ġprefer red
Ġcompeten ces
ĠGo odyear
Ġclass ification
Ġamt ierende
Ġamt ierender
Ġmill ennium
Ġvorbe halt
II I
ĠMensch heit
Ġreinfor ced
Ġgewalt igen
ĠÃ¶ffentlich er
ĠAnd alus
ĠverÃ¤nder te
Ġras che
Ġhervorragen de
ĠKrank heiten
orient ierten
Ġpostpon ed
Ġlay ing
Ġgriech ische
Ġpill ars
Ġarr ive
ĠKohÃ¤s ions
Ġfront iers
Ġconsolid ation
ĠPak et
Ġbenef ic
Ġbenef icial
dep th
ĠDav id
Ġstopp ed
Ġimmen se
ĠspÃ¼r en
Ġdisadvant aged
Ġfrequ ently
Zwe i
Ġdeliber ate
Ġimper ative
Ġexplicit ly
Ġwest lichen
ĠRechtsp rechung
Ġscre ening
Ġadj ourn
Ġrefus al
ĠRel ig
Ġaccur ate
ĠKindes miÃŁbrauch
ĠGrÃ¼nd ung
ĠFunktions weise
ĠGefÃ¤ng nis
Ġextraordin ary
ĠRev olution
Ġobser vers
Ġprovider s
ĠLank a
Ġdism ant
Ġdez entral
Ġprerequis ite
ĠBetroffen en
ĠBiotechnolog ie
Ġjeglich er
ĠAtt wooll
ĠErne uerung
GA W
Ġreconc ile
Ġbov ine
ĠSens ib
ĠMcCart hy
Ġmun icip
ĠBeren guer
Ġmanoe uv
B C
B isher
B endit
C ertain
D I
G ipfel
L T
W ould
d rÃ¼ckt
e ller
f ree
f unk
j ekten
l assung
o ij
p ed
p unkten
r ich
r ischen
r unde
u ous
y mmet
Ġ ere
Ġ iron
in itiative
Ġt enden
Ġth rust
is tern
un a
Ġw omit
Ġs cept
Ġs abot
ie fung
ie wed
re in
al a
Ġf inger
Ġf asc
ro ad
Ġp urch
Ġp lus
Ġp ending
Ġh ect
Ġn a
Ġn utz
Ġan b
Ġan merken
ge geben
Ã¼ mer
Ġbe gan
Ġbe merken
us etzen
ĠA f
ĠP lo
ĠS ek
ĠM ag
sch ten
ĠB ou
ĠB IP
ul ates
ter en
den ce
ĠK h
ĠK or
Ġl ic
ĠR inder
ĠR ande
ĠF Ã¼r
ĠC ategory
um er
ĠG as
ĠG anz
Ġge ein
Ġge Ã¤nder
de termination
Ġim stande
Ġver halten
Ġver weise
est ablish
Ġpro mpt
Ġer a
Ġer stellen
Ġer heben
Ġer weist
Ġst ations
Ġst Ã¼tzen
Ġst range
Ġst Ã¼tzt
Ġauf er
Ġauf rechter
Ġauf gerufen
ĠVer arbeitung
ĠD anu
ĠD abei
ĠD ynamik
ĠUn glÃ¼ck
ĠZ erst
ament ally
sp unkte
ĠT on
ĠT ar
ĠT itel
Ġex emp
lie hen
ungs weise
ungs stelle
we ckt
ĠN ull
Ġab seh
Ġab zustimmen
ĠIn halts
ges prÃ¤
Ġat mosph
ad ing
olit ion
me ister
ĠFra mework
ĠFra ktions
Ġsch ott
Ġsch nelle
ord nungs
ĠPro v
ĠEuropÃ¤ isches
We il
Ġman gel
ĠAr z
ĠBer g
ran ational
Ġent ails
ĠEr lÃ¤
Ġdi verse
Ġinter ference
oun ter
Ġbei zu
Ġapp la
Ġch a
Ġcoun cil
ĠGr Ã¶ÃŁe
Ġpr ud
Ġfin ish
ĠO ff
oll y
ĠEin wohner
Ġimport s
Ġges tellten
Ġ199 1
uropÃ¤ ische
ĠMen gen
ĠDe leg
Ġdec ent
Ġsol ved
geb nis
Ġinv ested
Ġviel es
Ġgew ahrt
Ġwhen ever
ĠÃľber arbeitung
Ġbas es
Ġfre ely
zie he
Ġend ors
Ġfest geschrieben
ient ific
ĠInter pret
ĠKo finanzierung
Ġappro ving
Ġmon at
Ġfo ught
Ġbin den
Ġsc ar
Ġproblem atic
Ġgesch rieben
Ġgesch enkt
Ġobject ions
ĠFinanz dienstleistungen
Ġlast ing
Ġtrans it
Be ide
Ġgest richen
ĠZu cker
Ġsign ing
Ġbek lagen
Ġgeb rauch
Ġproduct ive
Ġproduct ivity
rÃ¤n gt
eld et
Ġdeut sche
Ġdeut licher
Ġbesonder es
Ġseiner zeit
Ġplan et
ĠHil fen
Ġaccount able
Ġsens it
vorsch rift
ĠStandpunkt s
ĠBei hilf
Ġstren gen
Ġaufge fÃ¼hrt
Ġinstitution elle
Ġmed izin
Ġadministr ations
Ġvi ability
Ġschne llen
bereit ung
Ġjeder zeit
Ġdist ance
Ġvier zehn
ĠAktion sprogramm
Ġcriter ion
Ġconne cted
Ġanalys ieren
ĠCo hn
ĠY ear
Ġhoch rang
Ġche ap
Ġakt iven
Ġph arm
ĠInstrument en
ĠZugang s
Ġbroad cast
Ġfort gesetzt
ĠKont akte
Ġhighl ights
ĠHandels abkommen
ĠWider sprÃ¼che
Ã¶ff nung
ĠVersch Ã¤r
ĠWeiÃŁbuch s
ĠSchiff s
Ġsup ranational
Ġthreat s
Ġfal schen
Ġdemonstr ates
Ġdr ive
Ġjur istischen
ĠBef Ã¶rderung
Ġvorher igen
Ġangemessen er
Ġerneuer bare
krÃ¤ ft
ĠjÃ¼ng ste
Ġreserv es
Ġreserv ed
Ġdefend ed
Ġzunehmen de
inter essen
ĠgrundsÃ¤tz liche
ĠSach ver
Ġgain ed
Ġehemal ige
Ġmittel s
ĠMeinungs verschieden
Ġmitt ler
ĠbetrÃ¤cht lichen
Ġvorbe ugen
ĠRu he
Ġdispla y
Ġras chen
Ġsucceed ed
ĠKrÃ¤ ften
Ġobstac le
reib ung
stat us
Ġvess el
erzeug er
ĠEigen schaft
Ġapprox im
ĠUngleich heiten
ĠTechn ik
KÃ¶n n
Ġabziel t
Ġirgendein er
reb ungen
Ġauseinander setzen
Christ demokraten
ĠSÃ¤ ule
ĠnatÃ¼r liche
Ġincent ive
ĠGesicht spunkt
Ġsurv ive
Ġpreced ent
Ġterror ism
Ġlar gest
ĠtÃ¤ glich
Ġdecentral isation
Ġdecentral ised
ĠfÃ¼hr te
Ġtrop ical
Ġinciner ators
Ġverwir kl
Ġjo ining
Ġentreprene urs
ĠBeschrÃ¤n kungen
Ġrul ing
Ġkons ult
dok ument
Ġprinzip iell
Ġbelg ischen
Ġbott om
ĠOrient ierung
zer ne
Ġincon s
Ġgeplan ten
ĠAngeb ot
Fre ie
ĠBeobach ter
Weiter hin
Ġbegeg nen
Ġconstra ints
Ġanzup assen
Ġtwel ve
Ġgekenn zeichnet
Ġgewid met
ĠBour langes
ĠMarok ko
Ġtremend ous
Ġkatastrop hal
ĠPlo oij
ĠDanu be
2 20
N ein
W Ã¤re
a ug
d isziplin
g os
j ing
m d
n isses
o ok
r ent
t ies
w affen
z ert
z ahlung
in och
Ġd ial
Ġw ages
it ary
Ġs lick
Ġs ales
ie h
Ġthe ory
or ter
re ise
an ia
Ġin appropri
Ġm erk
Ġm org
Ġm ix
al ent
Ġf em
Ġf ill
ar ians
Ġe he
le ge
le id
Ġp f
Ġp act
Ġn ord
Ġc orn
ge halten
ge halt
Ġun us
Ġun its
Ġto x
Ġbe auft
Ġbe herr
Ġbe ziehe
us ionen
ig aret
Ġz it
Ġz ielt
Ġz ivile
Ġein her
ĠP hÃ¤n
ic able
ĠS oldaten
ĠM ul
ĠM our
ĠM eld
am ant
am ount
sch ung
ĠB ut
ĠB Ã¼nd
ul se
ber ichte
Ġzu zu
Ġwh ite
ĠK lage
ĠK orre
Ã¶ ch
ĠR ap
ĠG A
ĠG ama
Ġwe ise
Ġge gangen
Ġge habt
Ġal ert
Ġal ban
Ġcon front
ver pflicht
Ġver lag
Ġver letz
Ġver hÃ¤ngt
Ġer h
Ġer suchen
Ġst ick
Ġst oÃŁen
kt iven
Ġauf kommen
Ġauf gestellt
ĠW esen
ĠVer Ã¶ffentlich
ĠD olmet
ĠUn fall
ess ions
la gerung
Ġse as
sp ace
Ġex ert
Ġex ac
ĠRe aktionen
Ġco ex
ĠSt Ã¼r
sen den
ug nis
Ġsh aring
be wegungen
ĠAn bau
Ġaus geb
ad ed
Ġum stritten
our rire
ĠBe grenzung
ĠAus bild
In ter
ĠJ ac
ĠVor gaben
ran s
Ġent ziehen
Ġent schuld
ĠEr werb
Ġwor ried
th a
Ġbei der
Ġpart ial
Ġprop aganda
gra ben
ru ppen
ĠMit gefÃ¼hl
Ġac ute
ass ing
oc iety
Ġgen techn
Ġspe ct
Ġber Ã¼hm
ose x
ress ing
Ġra ft
Ġno body
Ġsp ong
ag nen
ag ger
are z
ĠKon zep
Ġany where
Ġhier fÃ¼r
bar gos
ĠUnter drÃ¼ck
Ġind isp
lan der
iÃŁ en
tre m
Ġtra ck
Ġbereit gestellten
Ġbas iert
Ġadd ing
Ġthink s
Ġrep erc
ĠBed auern
Ġfund amentally
Ġro ots
ĠSta ff
gend ijk
Ġ5 8
ĠUmwelt politik
Ġimmer hin
Ġprocess ed
Ġange hÃ¶rt
Ġverb ieten
Ġcar go
ĠMon ats
Ġbegr Ã¼nden
Ġtrans atlant
Ġform ally
ret ch
wÃ¤ cht
tra uen
ĠFre unde
ĠWelt markt
gew ichts
Ġcontrib utes
Ġcontrib uting
Ġspecific ations
Ġir ischen
par te
ĠÃĦnderungsantrag s
Ġpract ically
rieden heit
Ġeinge gangenen
Ġcult ures
Ġdemocrat isation
Ġoffen ce
Ġhervor geht
ĠZus age
Ġorganis iert
Dar an
Ġgenau en
Ġann ually
Ġenerg isch
schein end
Ġlack s
ĠAmer ika
ĠMil itÃ¤
Ġcivil isation
mb ud
ĠFortsch ritts
Ġunterschied licher
Ġjoint ly
Ġeth ical
Ġcirc ulation
Ġvern ommen
Ġemphas ises
ĠProt est
Ġeng ine
stell end
Ġcontinu ation
St att
ĠbefÃ¼r chte
ĠCo hesion
Ġprakt iz
ĠBeitritts verhandlungen
ĠEng land
Ġthough ts
ĠRede zeit
ĠDec ision
ĠDec ourrire
Ġinteress anten
Ġformul ieren
Ġmax imal
Ġleben den
ĠIde ologie
Ġinvestig ate
Ġord inary
Ġeffekt iven
ĠProjekt s
Ġdr iven
Ġdr inking
ĠKonflikt s
Ġvorhanden e
Ã¤us er
ĠjÃ¤hr liche
Ġexplan ations
ĠFahr zeug
Ġmag n
Ġinitial ly
ĠZweck e
ĠursprÃ¼n gliche
Ġpursu ing
ĠSpiel raum
Ġem ot
Ġgeograph ischen
Ġsuperv isory
ĠLa gendijk
ĠLeist ungs
zut reten
Ġfulfil led
ĠFlexib il
Ġmand atory
Ġhinzu weisen
Ġadvoc ates
ĠSpe zif
Ġdauer haft
Ġdauer hafte
Ne ed
Ġwitness ed
ĠzurÃ¼ckge zogen
ĠStraÃŁen verkehr
Ġut il
Ġpassen ger
ĠTele fon
ĠStabilitÃ¤tspakt s
ash ion
Ġwrit e
Ġvorzu bereiten
Ġbir gt
Ġbir ds
Ġvert ie
Ġtransl ation
ĠgrÃ¶ÃŁer er
Ġvertra ut
ugt uung
Ġthir ty
ierend es
ĠNiederlan de
ĠFlÃ¼chtlings fonds
Ġzweck mÃ¤ÃŁig
Ġunl Ã¤ngst
iÃ¶ se
Ġcop yright
ĠAnk ara
Ġcompon ent
Ġrestor ing
ĠTradition en
ĠGelt ungsbereich
mosph Ã¤re
Ġunreal istic
ĠgÃ¼nst ig
Ġarm y
ĠMig ration
ĠBla k
ĠVert iefung
Ġdepr ived
ĠNacht fl
Ġfam ine
Ġmitge teilt
ĠMy ller
Ġconcent rating
transp ort
Ġvac c
Ġries ige
Ġinqu iry
ĠTerror ismus
gh an
ĠLegitim itÃ¤t
ĠPie tro
ĠHeran fÃ¼hrungs
Ġchap ter
Ġchines ischen
Ġpal Ã¤stinens
Ġarran gement
ĠHar bour
ĠBesonder heiten
ĠConf ederal
ĠSyr ien
ĠOrte ga
habil itation
ĠSer ben
Ġvorank ommen
Ġenshr ined
Ġlingu istic
ĠWests ahara
Ġaufrechter halten
Ġverwirkl icht
ĠMour a
Ġexac erb
Ġreperc ussions
4 5
5 7
5 03
A gain
D ollar
E mp
F all
H uman
M arg
a ppe
c ia
d igt
e e
f ungen
f indung
g ieb
i hen
k ay
k ommissar
k ette
n s
n isch
p en
p est
w ier
w ink
Ġ You
Ġd ri
Ġt ier
ch o
ch ung
Ġb auen
Ġin stances
Ġo d
Ġe at
le chts
ent ur
Ġp ity
Ġp led
Ġan ch
Ġan scha
Ġan fÃ¼hren
Ġan fangen
Ġan stehenden
ge ist
Ġun best
st Ã¼ck
Ġv ic
Ġv ollen
as m
Ġbe achtet
ll s
ll ation
Ġand ern
ig flag
ĠP feiler
ic ter
ĠS port
Ġg reift
ut ze
el fen
sch ub
ĠB lock
ĠI st
Ġzu wenden
Ġzu kommt
Ġzu verlÃ¤ss
ĠK il
ĠK auf
Ã¶ ten
Ã¼r den
Ġda uern
Ġk ne
Ġk amen
ĠF al
ĠF lÃ¤chen
Ġden ied
ĠV o
ĠC ze
um welt
Ġdies mal
Ġso ft
Ġso zio
Ġver schaffen
Ġer reich
Ġer led
Ġer sucht
kt ive
Ġauf halten
Ġauf weisen
Ġauf hÃ¶ren
ĠVer ts
ab stimmung
ĠD o
ĠL Ã¶
ĠL uc
ust ration
ate ll
Ġse lection
Ġex ecutive
Ã¼ber wachung
if ik
ne z
Ġvor gestellt
Ġvor lÃ¤uf
ug ung
Ġab gest
Ġab zusch
Ġab olition
be w
be wertung
ĠAn kÃ¼nd
uch ung
ĠSch lag
ĠSch ule
ĠSch ienen
se e
Ġman ifest
Ġent f
Ġinter f
ert o
Ġen ger
Ġen ables
Ġad her
Ġad vert
Ġapp ointed
ĠMit bÃ¼rger
Ã¶r d
Ġreport ing
ĠGe geben
Ġgro ss
Ġinc omes
Ġzw ing
Ġspe k
ĠO GAW
Ġimp lies
aÃŁ ten
aÃŁ nahmen
ke pt
Ġexp ansion
ĠMitgliedsta ats
Ġhin nehmen
ĠDe va
Dies en
Ġper ce
ild ren
ĠCh air
Ġviel fach
ĠLe hr
Ġprodu zieren
ha fter
ĠÃľber leben
Ġhuman ity
Ġbas k
ĠAuf stellung
hÃ¶r igkeit
Ġover look
Ġpla in
Ġar isen
Ġrep rÃ¤sent
Ġzwischen staat
ĠBed iensteten
stÃ¤nd ig
Ġhand ling
Ġtechn iques
Ġger icht
Ġspec ulation
Ġfo ot
Ġlo ve
Ġreal en
Ġreal istisch
Ã¼ÃŁ en
Ġgesch ah
ĠFinanz en
Ġposit ively
klÃ¤r ungen
ĠDem onstr
Ġorgan ic
Ġdiffer ing
rÃ¼ st
Ġ6 9
Ġrat ifiziert
Ġprom ising
lus te
Ġrepresent ing
Ġcontro lled
Ġ9 3
zept anz
ĠBest ands
Ġpl ural
Ġback ing
ĠHil f
ĠÃ¼b lich
ĠÃ¼b rig
ĠGen ugtuung
Ġbew ill
ĠStra fe
Ġregul ating
Ġcl oning
Ġcult ivation
Ġoffen kund
Ġloc ated
ĠInd ik
zahl en
Ġhinaus gehen
Ġclos ing
Ġmoment an
Ġaff irm
ĠWettbewerbs verzerr
ĠvÃ¶ ll
ĠSol bes
Ġpers ec
Hier zu
Ġorigin ally
Ġjud ged
Ġident ical
ator ium
ift h
ĠLeit ung
Ġevent uelle
Ġzie ht
Ġarbeit et
Ġconv ince
ĠfÃ¶r dert
Ġdep lore
ĠAut or
ĠAut onom
Ġgee hrter
Ġsustain ability
griff e
ĠAt mosphÃ¤re
ĠSerb ian
Ġremind ed
ĠY outh
ĠY ork
ĠNor wegen
Ġemploy ers
Ġcomb ine
ĠSchokol aden
ĠBeitritts lÃ¤ndern
Ġcandid ates
ĠKamp agne
Ġinst ability
nehm lich
Ġcentral ised
Ġfort geschritten
Ġerfolg te
Ġindic ates
Ġindic ators
ĠVers orgung
Ġsus pect
ĠArmut s
Ġavo ided
Ġpension ers
ĠGed Ã¤cht
bet rag
Ġeinzu leiten
Ġilleg ale
Ġsum m
Ġsum mar
ĠBeam ter
Ġine quality
Ġbilater ale
Ġexclus ive
Ġ198 6
ĠMiÃŁ achtung
Ġfal sche
ĠVerhÃ¤lt nisse
produ kte
ĠGra a
ĠJugend liche
Ġpartnership s
Ġoccur ring
ĠÃ¤hn lichen
Ġzufrieden stellend
Ġnah m
Ġperspect ives
ĠMittelmeer politik
Ġexplo it
ĠSy ria
Ġdescr ibe
Ġwithdra wal
opoul ou
ĠBÃ¼ ros
ĠLa an
Ġexper iment
Ġignor ed
Ġlisten ing
Ġcharacter ised
Ġenterpr ise
ĠIran ian
ĠChrist demokraten
ĠgrÃ¼nd et
Ġton ight
ĠAk zeptanz
Ġvorbe halten
Ġsurpr ising
Ġvorbereit en
ĠÃĸl pest
Ġgenere llen
Ġ197 0
Ġoffiz iellen
ĠUrs ache
Ġtro ops
Ġhervorragen den
ĠArgument en
Ġwitness ing
ĠOber flÃ¤chen
fangen en
Ġbezahl t
Ġvirt ue
Ġregular ly
Ġvorzu gehen
ĠNachbar n
Ġgetr ennt
ĠAnmerk ung
Ġpotent ielle
Art ikel
ĠEinschrÃ¤n kungen
Afr ika
Ġattra ct
ĠPerspekt iven
ĠErnen nungen
ĠDringlichkeit s
ĠverschÃ¤r ft
ĠverschÃ¤r fen
Ġtoler ance
ĠProzent satz
Ġsusp ension
Other wise
Ġkil led
Ġzuges agt
ĠAusgang spunkt
Ġintoler able
Ġengag iert
Ġbehin dern
Ġmacro economic
Ġinhalt lich
Ġverschw inden
ĠTerritor ium
Ġwiderspie geln
ĠPa ul
ĠBill igflag
Ġster ben
Ġgenehm igt
Ġbeschleun igen
Ġbeurteil en
Ġexter nen
Ġstell te
ĠUrspr ungs
Ġersta un
Ġinstall ations
Sow eit
ĠReicht um
ĠMitverb rennung
ĠAnwend ungsbereich
ĠCanad ian
ĠKapaz itÃ¤ten
ĠkÃ¼mm ern
ĠLÃ¤rmbel Ã¤stigung
ĠbedÃ¼r fen
Sh ould
Ġnachvoll ziehen
pla ce
Natur ally
ĠHekt ar
Ġweiterentwick elt
stad t
ĠKurd ish
Ġjugoslaw ischen
Ġmur der
ĠRefuge e
Ġinhabit ants
ethn ic
ĠVerfolg ung
ĠIniti ativ
ĠDezentral isierung
kompeten z
Ġmunicip al
ĠAf ghan
Ġatmosph ere
inoch et
Ġinappropri ate
Ġfem ale
ĠMul der
ĠGA SP
Marg allo
B as
F IN
F OR
H as
H aus
K rise
O ff
P OL
S pe
b ack
f il
f Ã¶rderung
g red
g barkeit
h Ã¤nd
i ro
i ol
i Ã¶s
k apital
l am
m ung
m ach
n ism
p ol
p ack
r um
r uf
s ystemen
w ann
z um
z ucht
in en
on tain
Ġw issens
Ġs ichtbar
ie ÃŁ
Ġin gred
Ġm em
Ġm ixed
le f
le t
Ġh ide
Ġh alt
Ġn Ã¶rd
Ġc ra
Ġun res
Ġun pre
st es
st imme
st abilitÃ¤t
Ġbe achten
Ġbe wertet
ur b
ĠE CO
ed eration
ed nes
ig ter
Ġein setzt
ĠA ppe
ĠA lavan
ĠP et
ĠS l
ĠS al
ĠS ystemen
ĠM ir
ĠM organtini
eit ern
el iegen
sch arta
ĠB re
ĠB BC
ve ll
Ġzu grund
et us
Ġwh olly
gen er
ĠK e
ĠK uba
ĠR ot
ĠR ome
Ġk m
Ġk anad
ĠF as
ĠF ontain
ĠC ode
ĠC yp
ĠC OM
Ġwir ft
ĠG Ã¼lt
ĠG Ã¶te
Ġcon cess
Ġcon fined
ver k
Ġver weist
ĠH it
ĠH ol
ĠH orn
ĠH emm
ĠW ur
ĠW ednes
Ġas ymmet
ith erto
ĠVer sprechen
ĠVer dienst
ab fÃ¤lle
ĠD u
ĠL obby
ĠL kw
ĠUn fÃ¤lle
la im
sp rechend
sp rach
ĠT it
ĠT oleranz
Ġr ent
Ġr ichtet
Ġwill k
ĠSt Ã¤r
Ġvor ab
ste igen
ste uer
ĠÃ¼ber wie
ĠÃ¼ber gehen
be halten
be wuÃŁ
Ġres idence
ges te
Ġaus gesch
Ġaus sieht
Ġaus machen
ĠSch Ã¼ssel
ĠBe weise
ĠAus setzung
ĠAus legung
In zwischen
Ġman chen
Ġman ager
ĠVor sicht
ĠVor stellungen
Ġhe utzutage
Ġdi ver
Ġinter ception
Ġwor um
Ġag gress
ĠEnt schuld
Ġfa ces
Ġfa ster
Ġnach gewiesen
Ġcomp r
Ġsa c
Ġac ted
olle ge
Ã¶r r
Ã¶r ungen
hl ten
Ġfin nischen
Ġimp etus
he id
Ġcons ent
Ġpre dict
wer den
Ġcont ents
ĠComm unities
au ff
ag on
bar es
ign ation
fahr zeugen
iven Ã¶l
tre ffen
Ġper mission
sche ch
fl ikt
Ġprov en
Ġkon sequ
fr isten
Ġnow adays
fol d
Ġrel uct
ĠÃľber nahme
ĠAuf schw
Ġfre und
Ġemp ty
Ġstr icter
Ġar bit
Ġunder p
Ġrep ro
iff ern
ĠTh un
Ġeinz ut
Ġass ured
Ġstat istics
Ġstat istical
Ġro ot
ulation en
ĠCon ventions
Ġher be
Ã¤tz ungen
Ġsozial es
Ġsozial dem
Ġpublic ly
Ġincre d
Ġlo ans
Ġconf ine
Ġserv es
Ġcontin ually
Ġthro wn
ĠMein ungen
Ġausge zeichnet
Ġbegr enzen
ĠÃĸ VP
ĠHaushalts ordnung
ĠHaushalts verfahren
ĠHaushalts behÃ¶rde
Ġ6 5
Ġrat ify
ĠZu wanderung
gele ite
Ã¤mp ft
Ġklar er
Ġpres cr
Ġgeb Ã¼hr
Ġeing est
ĠAm b
ĠÃ¶ff nen
iar ies
eich ens
Ġair lines
Ġbew aff
ĠStra fs
ikan ern
Ġaccess ible
Ġans Ã¤ss
ĠNach teil
ĠNach haltigkeit
Ġcor re
ĠRegel werk
ĠBei jing
Ġstren gere
Ġkurz er
Ġbef re
ĠInd ien
Ġeindeut igen
chan ges
Ġmind s
Ġinn oc
ĠRÃ¼ck stand
abhÃ¤ng ig
ĠKrit erium
Ġpers istent
Ġeinfach er
Re c
haft ung
Ġcivil ians
Ġjud ges
zug s
Ġharmon ising
ĠÃĸsterreich er
verb rauch
ingen ommen
ĠErzeug ung
ĠGesch mack
stell ungs
Ġentire ty
Ã¼h le
Ġcomprom ises
ĠSteuer politik
Ġbre aking
Ġgelten de
cep ts
ĠNor way
mitglie der
Sch on
Ġerziel ten
Ġbetreffen de
ungsan lage
Ġbeschlossen en
Ġrecon ciliation
Ġbroad ly
ko h
EN ER
mm a
Ġcritic ised
Ġhistor ische
Ġverantwort lichen
Ġformul ate
Ġformul ated
ĠZusatz stoffen
bezÃ¼ glich
ĠOp fern
ĠAnst ieg
Ġunver z
Ġsinn volle
Ġhinter her
Ġlearn t
ĠSc ientific
Ġeinges tellt
Ob gleich
aktor en
ĠDies er
ĠDeut lichkeit
Ġgere chte
Ġgran ts
Ġschle chter
haus halts
Ġevalu ate
Ġschwerwie gend
hre b
ĠSy mbol
ĠBlick wink
ĠEing reif
arch y
Ġblock ed
olid ierung
ĠKontin ents
Ġsafeguard ing
Ġfriend ly
ĠVorred nern
Ġcompens ate
ĠgrÃ¶ÃŁten teils
Ġcharacter istics
ĠPartnerschaft s
ĠSchwer punkte
Ġheav ily
Ġremov al
Ġeinzus ch
Ġtw ice
Ġhol iday
Ġdrast isch
Ġunbe k
Ġehrgeiz ige
ĠHung er
Ġgegenseit ig
ĠAkt ions
Ã¼nde te
ĠbekrÃ¤ft igen
ĠAtlant ik
ĠMart in
Ġgesp annt
Ġpotent iellen
Ġlengt hy
ĠWissens gesellschaft
Ġstopp en
Ġru in
Ġstrukture lle
ĠAusnahmere gelungen
bring t
Ġschreck lichen
Ġglaub wÃ¼rdig
ĠProf essor
ĠmaÃŁ geb
Ġwiderspie gelt
Ġdemograph ic
ĠErschein ung
Ġmultilater al
ĠniederlÃ¤nd ischen
Ġkorrig ieren
ĠTemp o
Ġeinzur ichten
Ġdeterior ation
Ġverdeut licht
ĠAllgemein e
Ġaud it
merz ung
Ġcontam ination
Ġnorm ally
pap ier
Ġschuld ig
bie ter
ĠMad rid
ĠSchmid t
ĠKn Ã¶rr
Ġforesee able
ĠDel ors
ĠOl ivenÃ¶l
Ġinher ent
ĠUniversal dienst
Ġstri kt
ĠArtik els
kap az
Ġkommerzie llen
Ġvorzusch lagen
ĠServ ice
Ġlv arez
Ġretire ment
ĠVeter in
Ġmism anagement
ĠRund funk
ĠUnzulÃ¤nglich keiten
ĠKohÃ¤sions fonds
Ġmanoeuv re
ĠMag hreb
Ġgeein igt
Ġbeizu behalten
ĠVerschÃ¤r fung
Need less
ĠGegeben heiten
ĠGedÃ¤cht nis
nism Ã¤ÃŁ
ĠAlavan os
ĠFontain e
ĠWednes day
1 5
8 7
9 7
A U
G r
J e
M ich
P erson
S ystem
Z iel
a ktiv
d t
e hn
h ig
h am
i very
i pped
k r
k enntnis
m as
m aterial
n Ã¤chst
o oth
r ungen
r isy
s orge
w Ã¤l
w man
y le
z qu
er most
in ated
in tens
in av
Ġd ates
Ġd ry
un ken
un ktionen
Ġw Ã¤chst
Ġw reck
it ar
Ġs ittings
at ibility
or ie
Ġf ashion
ar at
Ġe arth
Ġe cho
Ġp et
Ġp ick
Ġan schlieÃŁend
Ġc yc
ge gangen
ge walt
Ġun con
Ġun just
Ġun ilater
Ġun zulÃ¤ss
Ã¤ me
Ġbe we
Ġbe merk
ur teile
ur ances
ig ranten
Ġein stellen
ĠA z
ĠP oss
ĠP inochet
ĠS ah
im ine
im ilar
eit e
Ġre ine
Ġre isen
ĠB anken
il ing
Ġzu genommen
ĠK FOR
Ã¶ hnung
Ġl it
Ġl Ã¤ngst
Ġl osing
isch erei
ĠR ente
ĠF ische
ĠF ederal
ĠF irmen
Ġden selben
Ġfor me
ot te
ot hen
ĠV iertel
ĠV oggenhuber
Ġon to
ĠG AT
res se
Ġge hÃ¶re
Th us
de cess
ce eding
Ġver ze
Ġver folg
Ġver mittelt
and inav
ach sen
Ġst ages
ĠVer mÃ¶gen
ab l
ĠD opp
ĠL ad
ĠL ande
ĠL ama
ow ski
op ole
la ger
for ce
Ġse lected
Ġdem nÃ¤chst
Ġex changes
ant ast
ste chn
Ġab road
ĠIn t
ĠIn spektoren
be wuÃŁtsein
Ġaus genommen
Ġaus gelÃ¶st
ad em
ĠEn gl
etz ungs
ĠJ arz
Ġhe ft
ĠEnt fern
ĠAb schnitt
Ġad here
th ink
Ġunter nimmt
Ġob gleich
oc ide
ĠGe fÃ¤hr
Ġmein t
Ġgen ocide
ĠReg ulierung
Ġber ichtet
Ġimp orted
Ġpre d
Ġpre decess
ĠEin mischung
ap ing
ĠMitglied schaft
Ġges enkt
ĠKon f
lÃ¤ che
ĠDe v
Ġsol ving
Ġtra ur
ĠCh i
schlieÃŁ ung
ek ut
ha ftet
ĠAuf rechter
ĠAuf schub
ange hen
ĠÃĦnderungs vorschlÃ¤ge
Ġover r
Ġover wh
Ġadd itive
Ġpla ys
Ġrep ut
Ġrespon ding
Ġpoint ing
acht ungsstelle
Ġend s
Ġhand led
ĠInter ventionen
ĠInter ventions
ĠRechts hilfe
Ġlie fert
Ġmeas ured
Ġview ed
Ġprincip al
ĠSp ar
Ġspec ify
Ġange fÃ¼hrt
ĠPolitik bereiche
cond ition
Ġfra gt
vers orgungs
Ġest imate
Ġfind ings
Ġpra ise
Ġausge ht
Ġausge Ã¼bt
ĠHer angehen
Ġtrans mission
Ġform ed
Ã¤uÃŁ erung
ĠHaushalts fÃ¼hrung
ĠArbeits krÃ¤fte
Ġindust rie
Ġgel assen
Ġgel tend
ĠBet rÃ¤ge
Ġdel ivery
Ġlang er
hol t
ĠBest Ã¤nde
Ġide ological
par tei
Ġaccount ability
Ġsm ooth
Ġvar iety
Ġrev iewed
ĠBes org
ĠProdu ktivitÃ¤t
ler nen
reg ulierung
ĠMinister prÃ¤sident
Ġgem essen
Ġseem ed
Ġzusammen zuarbeiten
ĠInd ia
wÃ¤rt ig
ĠBem Ã¼hen
ĠFran c
ĠFran z
ĠEntscheidung sprozeÃŁ
hing ton
ĠDi amant
ĠEx p
Ġassist ants
Ġstress es
Ġwider sprechen
Ġdisast rous
wÃ¼r fe
ott ish
ĠInvest ition
ĠPart ners
ĠStaats fÃ¼hrung
ĠAss ist
stell te
ĠAgrar haushalt
ĠFremden verkehrs
Ġvis ited
ĠFlug zeugen
wes ens
ĠDemocrat ic
Ġfehl ende
Ġlimit ing
Ġcomb ination
Ġeduc ational
Ġliegen den
ĠLin ke
ĠBeitritts lÃ¤nder
Ġakt uelle
ĠGrundsatz es
ĠDienstleist ung
ĠZusatz stoff
Ġverab schiede
ĠRichtlinien vorschlag
Ġkrit ische
Ġtim ely
ĠVersch lechter
Ġlearn ed
spe zif
emb owski
Ġunge he
ĠZivil isation
Ġdemonstr ation
ĠÃ¼berw unden
Ġremark able
ĠGesundheits wesen
ĠNational staaten
Ġquant ities
Ġsort s
Ġberu h
riend ly
ĠKar l
ĠStraf rechts
Ġdeep er
ĠLandwir ten
Ġimpos ing
Ġgrat ul
Ġkl ass
Ġnied rige
ĠausfÃ¼hr liche
ĠFÃ¼hr er
Ġunmittel baren
ĠAlban ians
Ġrig our
ĠInst ance
ĠStad ium
ĠUmweltschutz es
ĠMitglieds land
Ġrecord ed
Ġthreaten ing
Ġvorge geben
ĠSchweiz er
ĠTr ink
ĠverÃ¤nder ter
Ġcompar able
Ġelimin ating
Ġzerst Ã¶ren
ĠDon au
Ġverbind liche
ĠTun es
erzeug nisse
ĠgenÃ¼ gt
Ġsimpl ify
Ins gesamt
ĠChin as
Ġwachsen den
Ġwachsen de
dien sten
Ġgreen house
Ġalarm ing
Ġsad ly
ĠEm bargos
Ġantibiot ics
Ġkoordin iert
ĠDire ktor
Ġacqu ired
Ġrecognis es
Ġbann ed
Ġinsp ir
Ġeinzur Ã¤umen
Ġdistin ction
ffect ive
Ġselect ive
ĠBesitz stand
Ġperipher al
bil den
Ġquarter s
Ġindire kt
Ġtrib ute
Ġunabding bar
Ġhous ing
Ġfortz usetzen
Nord ic
Ġcert ific
ĠgroÃŁzÃ¼g ig
ĠAntibiot ika
ĠCF SP
ĠstÃ¤dt ischen
erstatt ung
Ãľberein kommen
ĠStaatsanwal tschaft
Ġaspir ations
Ġregrett able
ĠHern ndez
ĠÃ¼berras cht
ĠDell Al
Ġdamal igen
Ġunm iÃŁ
ĠSint ra
ĠplÃ¶tz lich
Ġpir acy
Ġgeforder ten
Gemein sam
Ġkonvention ellen
ĠLateinamer ika
ĠHungers not
ĠPek ing
ĠBasken land
Ġadjourn ed
ĠBou wman
Ġsensit ivity
ĠHeranfÃ¼hrungs strategie
ĠCze ch
ĠLuc as
ĠECO FIN
Ġzugrund eliegen
Ġconcess ions
ĠStrafs achen
Gr und
ĠPoss elt
othen burg
ĠJarz embowski
ĠAufrechter haltung
Ġoverwh el
ĠDiamant opoulou
0 5
9 8
D anach
F ort
G ibt
P L
P olitik
T wo
W F
W es
a id
b anken
b eschrÃ¤n
e te
f Ã¤nger
f erring
f ibre
f riendly
g gen
g erecht
i os
j unkt
l imm
l abel
n a
r ung
s age
u gend
u ages
w indung
Ġd umping
Ġt ension
Ġw is
it iv
it udes
re gen
Ġb read
Ġin j
Ġin se
Ġin fect
Ġm inder
Ġf este
Ġe ast
Ġe bensowenig
le hnen
Ġp ace
Ġan nehmbar
Ġan onym
Ġc ul
Ã¼ lle
Ġun st
Ġun ange
Ã¤ chte
st ud
Ġbe legt
ĠE th
ĠA LT
ic ulous
ĠS atz
im ents
el ine
Ġre ly
am ment
ĠB o
ĠB ra
ĠB rie
ĠI zqu
isch t
ĠR a
ĠR oc
Ġk aufen
Ġk enne
Ġk ostet
ĠF a
ĠF le
ĠF ang
ot ted
ĠC ITES
um n
ĠG oll
ĠG ors
ĠG othenburg
res erven
Ġge ts
Ġge legen
Ġge lesen
de velop
Ġcon cepts
Ġver mut
Ġver tik
ĠH Ã¤nde
Ġvon einander
Ġpro stitution
and o
Ġst reben
Ġauf weist
ĠW ind
ĠW ild
ĠW urz
ĠVer un
ĠVer meidung
ĠVer trie
ĠL ange
Ġde em
op f
op tion
Ġj ung
ĠZ er
ĠZ ur
Ġse ason
ak ers
Ġle b
if all
Ġco inc
lie derung
ĠSt il
ĠSt ufe
Ġvor Ã¼ber
we ichen
igen de
ĠN it
Ġab warten
scha fter
Ġres c
ges tellte
schaft s
ad ig
olit ical
ĠBe ibe
ĠJ eg
We ggen
ĠVor fall
ĠEr leicht
ĠEr teilung
Ġwor Ã¼ber
Ġfa ult
ip t
Ġen gen
Ġunter einander
Ġunter worfen
ble men
ĠParliament ary
ĠMit tw
Ġac id
Ġdis tr
Ġbet ragen
ger ichts
Ġgen eration
Ġimp ress
ĠEin fuhr
ced ented
Ġsp rachen
Ġsp anische
Ġte ach
Ġte lling
Ġges unden
ĠJahr t
lÃ¤ re
Dies bezÃ¼glich
Ġsol ide
wir tschaften
Ġdam aged
lar ation
ĠUm gebung
Ġinv ite
ĠÃľber windung
ĠAuf lagen
ĠAuf klÃ¤rung
Ġbest raft
icher ungen
Ġunder lined
ĠTh ird
Ġass urance
Ġro t
ient en
gesch Ã¤
Ġask s
ĠUmwelt bel
ĠGeb Ã¼hren
Ġspec ulative
okrat ische
ĠHa v
vers icherung
Ġfind s
Ġausge arbeitet
Ġausge drÃ¼ckt
ount ain
ĠAfr icans
wirtschaft lichen
Ġqual itative
ĠHaushalts vor
Ġ8 50
Ġgeb oren
Ġvoll zogen
ĠBet reiber
Ġmeet s
Ġschw ach
Ġvorgesch rieben
ĠMa f
ĠMa ij
Ġcap ita
ĠInformation spolitik
Ġfinanz ieller
Ġdefin itions
ĠAnge hÃ¶rigen
ĠStruktur reformen
Ġ12 44
Ġprec arious
Ġdrei zehn
Ġbef indlichen
ĠZus agen
Ġdef iciencies
Ab ove
Ġprevent ive
ĠVerkehr ssicherheit
Ġmod est
ĠGemeinschafts rechts
Ġvers ions
ĠGleich behandlung
Ġsur vey
ĠLuft fahrt
leit ungen
ĠRisik ok
ĠAs ien
Ġofficial ly
ĠGefahr gut
Ġvertreten en
ĠErzeug nissen
Ġverw ende
Ġschnell st
ĠAut h
Ġcontinu ity
ĠAgrar ausgaben
Ġiniti ated
Ġground water
Ġgra in
Ġfail s
ĠwÃ¼n scht
ĠfrÃ¼ here
Ġprakt ik
Ġhoch wert
Ġemploy ee
Ġinnov ativen
ĠDec laration
Ġindic ative
Ġethn ische
ĠDokument s
Ġformul a
Ġflexib el
Ġflexib ler
Ġbi ological
ĠKom pon
ĠVorsitz ender
Ġrenew al
Ġine ff
ĠPrÃ¤ z
ĠPrÃ¤ zed
Ġunge achtet
ĠGra d
ĠTÃ¤tigkeit s
ĠEl tern
ĠZeitraum s
ĠKommun al
ĠDa zu
ĠPlan eten
ĠStraf recht
Ġsafegu ards
ĠStat ut
Ġzunehmen den
Ġcle ans
Ġerk ennt
Ġerk lÃ¤re
ĠEreign is
Ġmoral ischen
ĠZustÃ¤ndigkeit s
grÃ¼nd et
ĠEing ri
Ġrig id
Ġversich ert
Ġblock iert
Ander e
ĠNord ir
Ġkompliz ierte
Ġignor iert
Ġabzu lehnen
IT S
ĠKÃ¼ ste
Ġdestro ying
spolit ische
Ġdre iÃŁig
Ġstip ulates
Ġerfre ulich
sh ore
ĠAkt ual
ĠzukÃ¼nft ige
ca pe
ĠExper ts
Ġangest rebt
Ġverz ichten
Ġgeeigne ten
Ġbir th
Ġtool s
Ġconsolid ate
Ġbelong s
ĠMÃ¼ he
ĠMc Kenn
Ġlandwirtschaft liche
Ġbenachteil igt
Ġhom es
Ġwettbewerbs fÃ¤hig
Ġsurv ival
Ġkurzfrist ig
ĠAnk lage
Ġflow s
ĠLang uages
Ġstrukture llen
Ġfle et
Ġprohib ited
Ġfrequ ent
Zwe ifellos
ĠWass ers
Ġestim ated
Ġfried liche
ĠEigent ums
Ġjournal ist
Ġshift ing
Ġbehin dert
Ġsensib len
Ġpol izei
ĠHab itat
Ġbann ing
Ġbeurteil t
ĠDien sten
ĠStraft at
ĠFÃ¼nf jahres
Ġbiomet ric
Ġarres ted
ĠmakroÃ¶konom ischen
Ġumge kehrt
Ġwom an
ĠErmitt lungen
Ġcance llation
ĠTS Es
Ġinterven ieren
Ġswift ly
ĠGol an
Ġinfr in
Ġprejud ice
Ġisrael ischen
Ġqualit ativ
ĠWÃ¼n sche
Ġhes it
Ġbenchmark ing
Ġsenten ced
Ġvent ure
ĠIM F
ĠHaup tz
ulicher weise
Ġerschw eren
Ġcofin ancing
Ġconstituen cy
Ġredis trib
Eben falls
ĠÃ¼berflÃ¼ss ig
Ġvorbehalt los
ĠgeÃ¤nder ten
Ġgebrauch t
ĠRap kay
ĠVerÃ¶ffentlich ung
Ġcoex istence
ĠUnterdrÃ¼ck ung
mbud sman
Ġemot ional
Ġdri vers
ĠAutor itÃ¤t
Off ensichtlich
Ġunpre cedented
ĠAppe ll
ĠWur tz
ĠAufschw ung
Ġarbit r
Ġeinzut reten
ĠBlickwink el
ĠTunes ien
ĠDellAl ba
ĠALT ENER
ĠIzqu ier
ĠRoc ard
ĠGoll nisch
ĠGors el
develop ed
ĠBeibe haltung
ĠJeg gle
ĠMittw och
ĠPrÃ¤zed enz
ĠMcKenn a
H at
M Ã¶
T S
T urning
U S
a al
a est
b ted
c l
d ed
e ing
e ut
f ens
f unktion
g reift
i ant
i leg
j Ã¶ste
k an
m itte
m ine
o vers
p aket
y sen
z ur
z Ã¤hlt
Ġ Ã¼ben
un n
un al
Ġw Ã¶ch
Ġs etz
at te
re ckt
an p
Ġb ur
Ġb ere
Ġin ad
Ġin tell
Ġo ste
Ġf ur
Ġf ly
ar chie
ent h
Ġh ot
Ġh undert
Ġh itherto
Ġn it
Ġan gere
Ġan nex
Ġc ope
Ġc atch
ge ister
Ã¼ st
Ã¼ chte
Ġun ten
Ġun amb
Ġun verstÃ¤ndlich
st atten
Ġv ill
Ġbe ars
Ġbe fallen
Ġbe merkt
ĠE M
ĠE ta
ir us
Ġz Ã¶
Ġein leiten
Ġein geleite
ra ine
ĠA B
ĠA pp
ĠA lle
ĠP ack
ĠP ilot
ic ing
ic ism
ĠS u
ĠS out
ĠS jÃ¶ste
Ġg Ã¤be
ĠM ission
el be
Ġre dep
Ġre habilitation
ten ance
ĠB us
ĠB ret
lich em
il led
Ġzu wider
ĠK as
ĠK omm
ĠK Ã¶r
ĠK urden
ĠK Ã¼rzungen
Ã¼r t
Ġl os
Ġl Ã¤ng
Ġl ifted
ĠR Ã¤
ĠR ett
Ġk omb
ĠF uÃŁ
ĠF lag
ĠV AT
ein heit
Ġwe igh
Ġge achtet
de x
de fiz
Ġso viel
ort s
ver sammlung
ver trÃ¤glich
Ġver gangen
Ġver hÃ¤ng
est Ã¤nd
ach bar
Ġst anden
kt isch
Ġauf einander
ĠD ossier
Ġde ar
Ġde utet
op hil
la v
ĠZ iffern
ĠT B
ĠT V
Ġdem nach
Ġex isted
ĠRe port
qu id
Ġall otted
Ġvor igen
Ġvor sichtig
we ile
Ġsich ere
igen den
ĠN ichte
Ġab zus
ĠIn nen
ĠAn reg
ĠAn gabe
Ġsch weigen
ist le
ĠSch wed
ĠSch iffen
ĠSch ande
ĠBe antwortung
ĠBe hinder
ĠAus kunft
ĠAus merzung
Ġdar gestellt
ze igen
Ġent scheidet
ĠEr be
ĠEr weit
ĠEr satz
ĠEr Ã¶ffnung
Ġwor auf
ip s
Ġunter m
Ġunter halten
Ġunter scheidet
gra ce
Ġcomp uter
ok e
Ġdis grace
oc kt
cess ing
ger ichtet
Ġgen Ã¼gen
Ġfin ished
ĠO AU
ĠReg ul
Ġcons ists
wer ts
wick elt
au erung
ag d
Ġout ermost
Ġhin reichend
Ġdec iding
ever kehr
Ġev ol
chn ungen
Ġmehr heit
Ġmehr mals
ĠKolle g
Ġsol ch
Ġbereit stellen
Ġinv ent
Ġins ide
fÃ¼r sorge
Ġacc um
ĠEuropa abgeordne
Ġar ch
Ġrep lied
Ġrespon ses
Ġeinz iger
ss ette
Ġrequ iring
Ġend ed
Ġfund ed
geord net
ĠSe everkehr
Ġbelie ved
Un abhÃ¤ngig
Ġhand le
ull ing
ĠRechts vorschrift
ĠGro ssette
Ġger ufen
ĠUmwelt bereich
ĠUmwelt schÃ¤den
ffe kt
ĠBÃ¼rger meister
Ġtransp osition
Ġgleich wohl
Ġreal ised
stru cted
Ġverb rauch
Ġverb inden
Ġverb reitet
ĠFinanz minister
ĠFinanz rahmen
Ġausge wÃ¤
ĠDem ocracy
ĠGroup s
So cial
Ġtun a
Ġtun e
Be vor
Be zÃ¼glich
ĠTeil s
Ġbesch eiden
Ġrat io
ĠVerbrauch ers
Ġklar es
Ġsign s
Ġgeb ildet
olk s
ace ut
Ġmention ing
ĠSozial modell
ĠBest rebungen
Ġreform ed
Ġeigen er
Ġeinge treten
Ġ12 0
Ġread s
fÃ¤h iger
Ġdemocrat s
Ġzusammen hÃ¤ngen
Ġdef ending
ĠHe il
hÃ¶ chst
ifiz ierungs
Ġmod els
Ġgegeben en
ĠRÃ¼ck Ã¼ber
Ġplay ers
voll er
ĠGleich heit
Ġenc omp
ĠWahl periode
organ e
ĠMehrheit s
Ġstress ing
ĠQu Ã¤st
verb ind
Ġanal yse
Ġshe ep
ĠKl ass
Ġdep lor
Ġfair en
Ġverw and
Ġsett led
ĠzusÃ¤tz licher
Ġstud ied
ĠPrinzip s
Ġrein en
Pro zeÃŁ
ĠSerb s
Ġheraus stellen
Ġverl iert
ĠFlug gesellschaften
Ġfehl enden
Ġche aper
Ġsatisf y
Ġdeterm ining
ĠSan ter
Ġko oper
Ġbevor stehende
Ġirgend wann
Ġinteress ieren
Ġcritic ise
ĠProdukt pir
Ġmanufact ure
werk s
Ġincorpor ation
ĠEntwurf s
Ġmass iv
Ġsubstant ive
Ġreturn ed
ĠSc ottish
ĠSelbst Ã¤nd
ĠSelbst bestimmung
ĠPrÃ¤ mien
ĠBeschl usses
tel n
Ġcamp s
ĠDa her
ĠBar on
ĠhÃ¤ uf
Ġgering sten
Ġanwes enden
Ġcheck ed
entscheid ung
Ġstandard ised
Ġschle chten
Ġlog ic
bs ite
Ġworth while
ĠVorbereit ungen
Ġgre ifen
Ġkl ug
Ġempf angen
Ġerweit erten
ĠEreign issen
ĠausfÃ¼hr te
Ġunivers ally
omb ard
ĠAlban ien
ĠAlban ia
Ġentstehen den
ĠGrÃ¼ ne
Ġoptim istic
ĠSto ffen
Ġletzt es
Ġbank rupt
ĠGo vern
Ġged acht
Ġhop ing
Ġhop ed
Ã¶der alen
ĠMitglieds lÃ¤ndern
ĠZw angs
Ġbegrenz te
Ġbegrenz ten
Ġvorge gangen
Ġremov ing
ĠErn Ã¤hrung
Ġdro ught
ĠfÃ¼ hlt
Ġdrast ically
ĠKre is
Ġumfang reichen
Ġtemp er
ĠEinw Ã¤nde
ĠGemeinschaftsin itiativen
Jed e
orient ierte
ĠVerst Ã¶ÃŁe
Ġgewiss ermaÃŁen
Hin zu
ĠWas hington
Ġschlimm er
Ġisol ated
Ã¶p ft
Ã¶p fen
Ġitalien ische
ĠEinheit s
Ġadjust ment
Any one
ĠBeob achtungsstelle
Ġfift y
Ġrational e
Ġobligator ischen
Ġunl ike
Ġchann el
agn os
Ġdopp elten
Ġcontact s
ĠKrie gen
ĠKrie ges
Ġdisadvant age
Ġterritorial en
ĠdÃ¤n ische
Ġerad ication
ĠEm bargo
Ġantibiot ic
ĠWeiter entwicklung
ĠWortmeld ungen
Ġlebens w
Ġillustr ate
Ġkorrig iert
reite ten
Ġexter ne
Ġautonom y
Program ms
)] .
ĠImm igranten
Ġscen ario
Ġrelev ance
ĠSchwÃ¤ chen
Ġsudden ly
ĠMaÃŁst ab
Ġgeist igen
ĠbegÃ¼nst igt
Ġhypoc risy
ĠÃĸk os
Ġangestreb ten
Ġdiscover ed
ĠverknÃ¼p ft
ĠAltern ativen
ĠBon de
ĠErd Ã¶l
meth oden
Ġfoss il
Ġmangeln de
ĠJahrzehn ten
ĠSup er
ĠUmstruktur ierung
ĠKau pp
Gegen wÃ¤rtig
ĠVerarbeit ungs
Ġobs erve
Ġirrespon sible
Ġzahlreich er
ĠDal ai
ĠÃľberschwemm ungen
Ġoffic ers
Ġbenefic iaries
ĠMeinungsverschieden heiten
ĠAutonom ie
ĠAfghan istan
ĠCyp riot
ĠHit ler
Ġinnoc ent
ĠGAT T
ĠDev isen
Ġoverwhel ming
ĠJahrt ausend
ĠAuth ority
ĠPrÃ¤zedenz fall
ĠSjÃ¶ste dt
Ġkomb in
2 7
4 7
5 3
9 4
A pp
O der
R ather
S imilar
T atsÃ¤ch
V C
W G
W eit
W omen
Z one
b rechen
b ranche
c oun
e ast
f aser
g ro
j an
k omp
k odex
m ans
n ische
p lÃ¤tz
r s
r up
r iger
t urn
w i
w unsch
z y
er atur
Ġd il
Ġd ub
Ġd ual
Ġd ossier
Ġt schetschen
Ġt aste
Ġw ro
Ġw ies
it ch
it ts
Ġs le
at ant
at ically
or a
or ious
ich ern
Ġb ra
Ġb ran
Ġm ad
Ġf at
Ġf ix
ar p
ar r
ar tet
ar enten
Ġe d
Ġe arm
Ġe astern
le ger
Ġp ilot
Ġh amp
Ġc old
Ġun known
Ã¤ ste
st Ã¤d
st rÃ¤ger
Ġdie d
ur ies
ĠE st
ĠS he
ĠS org
ĠS zen
Ġg ame
ĠM ur
ĠM ach
ĠM Ã¼n
ĠM ade
ĠB ritt
ul ose
il ib
ĠI WF
et ic
et land
id et
Ġl Ã¼cken
ĠR uf
ĠR oten
Ġk g
ĠF el
ĠF Ã¤lschung
ĠV otum
iss ionen
ĠC lin
um es
ĠG od
ĠG ast
ĠG eschÃ¤
ein trÃ¤cht
Ġge werb
Ġge fallen
Ġge fÃ¤llt
de te
Ġcon vers
ver l
Ġver geben
Ġver grÃ¶ÃŁ
Ġer langen
Ġer zeugen
Ġer zeugt
Ġer richten
Ġer fassen
Ġst orm
ĠW ein
ĠW ende
ill ar
Ġdes p
ĠD atum
ĠL ob
Ġde fer
Ġde grad
Ġne o
ow s
ik ares
iv itÃ¤t
Ġes p
for me
Ġse ktor
sp rÃ¤
sp osition
ĠT rennung
Ã¼ber tragung
Ġle bt
Ġco des
Ġr ising
Ġsu ited
Ġwill en
ĠSt re
Ġvor geb
Ġvor nehmlich
Ġy ard
ste uern
und ed
we ll
we chsel
ug abe
och e
ĠN ein
ĠN ass
ĠN orm
ĠN uk
Ġab hÃ¤ngen
Ġab zuschlieÃŁen
ĠÃ¼ber arbeitet
ĠÃ¼ber leben
ĠÃ¼ber nimmt
ĠIn ner
ĠAn schein
ĠAn sÃ¤tze
ĠAn zeichen
ens able
ern Ã¤hrung
ad o
olit ano
uch ten
Ġsch Ã¤tzen
ord nen
ĠSch Ã¼
ĠSch ritten
ect ion
se ek
ĠVor fÃ¤lle
ran ce
ĠEr halt
ĠEr hebung
ĠAb lauf
able d
Ġus es
ult ural
Ġapp ra
Ġnach teil
Ġsa f
ok olle
imm ungs
iz es
Ġste ckt
Ã¶r dern
Ġpr on
ĠGe wÃ¤ssern
og h
zu wirken
Ġconc erted
Ġalle g
ĠO ost
ĠO EC
ĠReg imes
ĠReg ulations
Herr n
Ġpre ference
ĠEin bindung
Ġra in
Ġra cial
Ġint ent
sicht s
Ġwork force
ĠKon ting
Ġany body
conom y
arbeit er
ĠMenschen wÃ¼r
ĠMenschen handels
Ġfe et
ĠGrund rechten
Ġnational ity
fl achs
ĠUm stand
ĠUm lauf
Ġprov ing
ĠCh em
ied elten
Ġdiff erenz
pon ien
ific ial
Ġacc us
Ġviel fÃ¤lt
ĠLe uten
ĠTe xte
ha ul
Ġgr Ã¼nden
Ġref unds
Ġfre ige
ĠHaus halte
leg ten
Ġstr ive
Ġrep air
Ġganz er
Ġeinz ubringen
isen berg
ĠSta es
geordne te
hin dert
Ġher stellen
Ġgu ide
Ġtransp arenten
Ġaid s
Ġgleich er
Ġange legt
Ġmay be
ĠMe ere
Ġserv ed
bei hilfe
ĠMon opole
Ġnecess ity
Ġmain tenance
Ġgest iegen
ĠHaushalts disziplin
Ġ6 4
spro bleme
ĠVerbrauch s
Ġbek ommt
Ġbek Ã¤mpft
Ġvoll wert
Ġcontro lling
Ġ9 4
gew ichte
Ġcost ly
ĠbegrÃ¼ÃŁ enswert
Ġeigen es
Ġanges etzt
Ġcolle cted
Ġair line
Ġair space
Ġintegr ity
Ġintegr ierten
Ġexist ierenden
ĠBr ut
ĠNach richten
Ġlet ters
gar ant
Ġstren ger
schutz es
rech tz
Ġadm inister
ĠEntscheidung sproz
ĠBel astungen
Ġtechnolog ische
Ġdemokrat isches
ĠDienst es
Ġliberal en
its ky
Ġshow ed
co ver
Ġversch limm
Ġparliament arians
mb olic
Ġklein ere
Ġve ter
Ġdring ende
Ġerreicht en
ĠVerfÃ¼ gbarkeit
ĠKl onen
Ġemphas ising
Ġfound ing
ĠRaum es
ĠGesch wind
Ġdisch ar
ocrat ic
plan ung
ĠPal Ã¤stinens
Ġencour ages
ĠAuÃŁen beziehungen
ĠPre isen
ĠIsrael is
Ġassess ing
Ġland f
ĠMenschenrechts politik
ĠEntlast ungsverfahren
mitglie d
wÃ¼rd ige
Ġblo ÃŁe
Ġbl ue
Ġabge deckt
ĠPe ters
Ġavo iding
ĠsÃ¤mt licher
Ġinvestig ated
Ġverd anken
ĠvernÃ¼nft iger
Ġsix th
Ġfal se
ĠPer u
Ver y
Ġemer ged
bÃ¼r gern
ĠBar ak
ĠEntschlieÃŁungsantrag s
Ġoccur s
ĠNational itÃ¤t
ĠWill ens
Ġgere chten
ĠBerlin er
zust and
ĠIm port
ĠBrÃ¼ssel er
Ġ28 0
Ġanders wo
ĠDen k
Ġerk enn
ĠÃ¶kolog isch
Ġmist aken
ĠHaft ungs
Ġzut reffend
Ġvir us
ĠAnp assungen
Ġart icles
ĠBezug s
Ge w
ĠtÃ¤t igen
Ġrecord s
Ġemb ark
Ġauszu Ã¼ben
Ġabzu geben
Ġersch wert
Ġersch Ã¼t
ĠMeinungs Ã¤uÃŁerung
Ġpun ished
ĠbetrÃ¤cht liche
Ġgesellschaft liche
Ġult imate
ĠNG O
Ne hmen
amer ikanischen
Jed och
Jed enfalls
ĠKlar stellung
ĠSee le
fu hren
Ġcompla ints
ĠBetrugs fÃ¤lle
ĠEntscheidungs findung
Ġfu els
Ġwert volle
ĠHindern is
ĠBen achteil
Ġtransl ated
Ġthorough ly
Ġcalc ulated
Ġvergleich bar
ĠMeeres umwelt
Ġsal mon
ĠSÃ¤ uber
Ġkorre kte
fÃ¤ll igkeit
herr schaft
ĠspÃ¤t estens
Ġtaxpay er
ĠspÃ¼r bar
Ġabol ished
ĠmiÃŁ achtet
Ġadvis ers
Ġderog ation
Ġanticip ate
Ġbomb ing
ĠHerkunfts land
Ġintoler ance
person en
Gem Ã¤ÃŁ
ĠVert agung
Ġflood s
ĠUC ITS
arbeits losigkeit
Ġillustr ates
ĠWechsel kurs
ĠBab itz
Ġautonom ous
ĠSachverstÃ¤nd igen
Ġcustom ers
ĠComp uter
ĠSchwÃ¤ che
ĠDiox in
Ġindirect ly
ĠPlenars itzung
ĠGemeinschaftspolitik en
ĠSofort hilfe
Ġdistingu ish
Ġdisappoint ment
Ġcol our
ĠverzÃ¶ gert
ĠVorgÃ¤n ger
ĠRedebeit rag
Ġol ive
ĠTunis ia
ĠArme e
ĠverlÃ¤ng ern
Ġdictators hip
Ġaltern atives
ĠInformationstechnolog ie
ĠWork ing
ĠeinschlÃ¤g igen
ĠplÃ¤ d
ĠSant a
ĠCas aca
Ġserb ischen
ĠSÃ¼doste uropa
ĠTragÃ¶ die
Ġsubscr ibe
Menschen rechts
ĠBur ma
ĠVerhaltensk odex
Ġconfidential ity
Ġjahre lang
Mitglied staaten
Ġtagt Ã¤glich
ĠMich el
ĠBern ard
ĠFF H
ĠNap olitano
ĠZerst Ã¶rung
ĠTar if
ĠInterpret ation
Ġpharm aceut
Ġapproxim ation
Ġbeauft ragt
ĠKorre ktur
ĠJac ques
tha ft
Ġindisp ensable
ĠMilitÃ¤ ra
appe ared
Ġinterf ere
ĠIndik atoren
Ġwissens bas
Ġingred ients
ĠnÃ¶rd lichen
ĠStÃ¤r ke
ĠVerschlechter ung
Ġgratul iere
ĠunmiÃŁ verstÃ¤ndlich
ĠRisikok apital
ĠIzquier do
Ġunamb igu
ĠSout hern
Ġmehrheit lich
ĠKaupp i
TatsÃ¤ch lich
ĠOost lander
ĠOEC D
ĠMenschenwÃ¼r de
B ed
D am
E ach
E WG
K ein
N either
V om
V ere
V erg
W ann
d is
e v
f le
i xt
i ating
i ably
l i
l ike
m ie
o her
o hl
s itz
s agen
t okoll
v iertel
Ġ ungen
Ġ 99
Ġ Ã¤ndert
en ge
er zeugung
er mÃ¤cht
in sel
Ġd read
Ġt reiben
Ġt ensions
Ġa ro
on ung
is ations
is ons
un st
Ġw a
at ches
ie in
or es
an lage
Ġm ic
Ġm ort
Ġm ith
Ġm iddle
Ġm aster
Ġf ire
Ġf ibre
Ġf Ã¶deral
le are
Ġp atter
Ġp aÃŁt
Ġn ein
Ġn uts
Ġan c
Ġan te
Ġan zust
Ġan zusprechen
Ġan scheinend
Ġc ommen
Ġc ry
Ġun iver
Ġun klar
Ġv it
Ġv olks
as i
Ġbe heben
us hing
ir ies
ig ant
ra cies
ĠA bend
ĠP ort
ĠP feil
ĠP hilosoph
ĠP ersÃ¶n
ĠS ow
ĠS TO
ĠS ection
ĠM illion
ĠM ugabe
sch lagen
sch riften
sch Ã¤tzung
ĠB rov
ul den
Ġzu geben
Ġzu fÃ¤llig
Ġzu stimmt
Ġwh istle
ĠK L
ĠK ur
ĠK ir
ĠK roat
Ġl as
Ġl isted
ĠR obin
ĠR Ã¼ckt
ĠF inger
ĠV ieh
ĠC roat
Ġge folgt
ff ekte
Ġcon form
Ġcon stitutions
Ġcon vey
Ġcon ferences
Ġver liehen
ĠH Ã¤nden
est ock
Ġpro secutor
Ġer mitteln
Ġer teile
Ġst ood
Ġst retch
Ġauf rechtz
ĠVer weis
ĠVer lagerung
ĠVer luste
ĠD ra
ĠD est
ĠD ial
ĠL ord
ĠL yn
pp Ã¤nen
sp ir
sp otential
ĠT est
ĠT ragen
ĠT ode
ĠT DI
ĠT schech
Ġdem zufolge
ak er
Ġex agger
Ġco d
qu elle
ann ter
ant wortet
lie fer
ĠSt reben
we i
err en
ĠN O
ĠN am
ĠN ation
Ġsh oul
be teil
ĠAn ze
ens werte
Ġaus zuschlieÃŁen
Ġum hin
Ġdo g
heit lichung
ĠAus b
In c
ue ller
Ġent legen
Ġent nehmen
ĠEr suchen
Ġour s
Ġag ieren
ĠEnt tÃ¤us
ĠEnt lassungen
Ġunter liegt
Ġcomp lying
Ġac ced
Ã¤t igen
Ġdis appeared
ĠGe fangenen
Ġlike wise
Ġinc ur
zu halten
zu heben
Ġgen annte
Ġalle ged
Ġzw ingt
nah ms
ĠEin setzung
wer ter
wer ke
ap able
Ġsp ot
Ġweit reichen
Ġges te
Ġup hold
Ġout bre
Ã¤hr t
Ġexp osed
Dies em
Ġind es
fe cted
fe hle
ituation en
fr on
ĠVerb renn
schlieÃŁ ungsantrag
Ġ3 50
Ġrec ruit
Ġacc el
Ġrel ative
ĠÃľber setzung
Ġgr Ã¼
Ġref lection
ĠAuf sto
Ġoff ensicht
Ġbest anden
Ġass urances
ss ysteme
Ġro les
Ġfest gehalten
ĠSe ppÃ¤nen
pro jekte
isk rimin
Un less
Ġhand elte
ac ism
Ġweiter gehen
Ġbis weilen
Ġher um
Ġens ures
ĠSp itze
Ġzwe ier
uer halten
Ġreal e
Ġobject ion
Ġwen de
zeug nisse
ĠOr igin
Ġneg lect
ĠHer z
Ġensure d
Ġtrans form
Ġtun nel
ĠBeit rÃ¤gen
Ġlaw ful
Ġ6 2
bal anced
man gel
ĠSchutz maÃŁnahmen
Ġmin es
Ġmin imal
ĠAl ten
Ġbed acht
markt es
ĠzurÃ¼ck kehren
ĠGer ichten
Ġlang wier
Ġeing reifen
hol ders
gew innen
Ġcontrib ut
Ġcommun it
Ġinde bted
Ġreform ing
Ġbrauch e
ĠÃ¤uÃŁ ert
ĠFund ament
Ġstru ktur
Ġequ ilib
gre mien
Ġintegr ating
ĠfÃ¼hren de
Ġadv ise
maÃŁ nahme
Ġze ugt
verstÃ¤nd nis
Ġstruct ured
ĠRed nern
Ġaufge zeigt
Ġoffen er
Ġloc ation
ĠInd ivid
Ġben achbar
ĠhÃ¶ re
Ġmonth ly
ĠMehr werts
ĠBel ange
ĠUN IC
Ġcreat ive
Ab gesehen
Ab kommens
av ier
Ġliberal ised
Ġpass ion
ĠNe ben
ĠIs lam
ĠMed ik
Ã¤ren te
fang s
Ġguid ance
voll es
Hier bei
Ġenc ounter
akt ions
ĠItal iens
ĠFest setzung
Ġpoll uted
Ġgute m
Ġwahr haft
Ġemph atically
ĠRisik om
ĠGeschÃ¤fts verkehrs
Ġzie he
Ġdiskut ierten
ĠInvest oren
ĠLebensmittel behÃ¶rde
Ġlab els
Ġmer its
Ġverst Ã¶ÃŁt
Ġfl ight
Ġsever ely
ĠGew inne
Ġcontinu ous
Ġiniti ate
Ġpoor er
Ġassess ed
Ġbeg leitet
Ġeingehen der
Ġanalys ed
Ġmodern ise
Ġdest o
Ġoffer ing
ĠunabhÃ¤ng iger
Ġfocus ing
Ġfort unately
Ġprofit able
Ġindic ating
Ġbel astet
ĠVers auerung
ĠhÃ¶ch stens
schreit et
Ġrun s
Ġattemp ted
Ġmis ery
Ġstar ving
200 2
200 5
Ġsy mbolic
ĠVorgehen s
Ġauthor ising
Ġrad ically
chter t
Ġveh icle
Ġthreat ens
Ġdeath s
Ġrestrict ion
Ġcurren cies
ĠWerte gemeinschaft
Ġalong side
ĠNational ismus
ĠFern ando
Ġschle chte
Ġzufrieden stellen
ĠAbfall bewirtschaftung
Ġwonder ful
Ġet abl
Ġsk andal
Ġdepend ing
ĠgrundsÃ¤tz lichen
Ġmoral ische
ĠChe chen
Ġspeed y
Ġsonst ige
Ġannoun cement
Ġeffizient en
ĠEing reifen
ĠBÃ¼ ro
Ġbeabsicht igen
Ġoptim al
Ġenfor ced
Ġart ificial
ĠKommissionsprÃ¤sident en
ĠAuft reten
Ġsubmit ting
ĠGel dern
ĠÃľbergangs zeit
ĠEnts te
ĠImp uls
ĠImp ulse
ĠMeinungs freiheit
ĠArbeitszeit gestaltung
Ġadapt ation
Ġdro hen
Ġdre w
ĠUmwel thaft
Ġhervorragen d
Ġcompl iment
ĠzurÃ¼ckge gangen
ĠBefÃ¼r wor
ĠResolution en
ĠElement en
ĠzukÃ¼nft ig
Ġenvis age
ĠVorsorgeprinzip s
Ġisol ation
Ġreiter ated
Ġvert ical
program men
program ms
Ġdiss emin
Ġdepart ment
Ġslow ly
ĠPo sten
Ġmobil isieren
Ġhom osex
Ġkoh Ã¤rente
Ġfil m
ĠEinwander ungs
ĠEmissions hÃ¶chst
Ġkurzfrist igen
ĠErk enntnisse
Ġdistort ion
Ġdistort ions
ĠDienstleistungs aus
rot tung
Ġstre am
ĠSum men
ĠLandwirtschafts ausschuÃŁ
Sol che
Ġerad icate
Ġcharge d
Ġunreal istisch
Ġjeopard ise
Ġreass ure
Ġkr imine
ĠglÃ¼ck licherweise
Ġliber ty
arbeits zeit
Ġrecognis ing
Ġfam ous
Ġanspruchs vollen
ĠBab itsky
Ġverdeut lichen
Kurz um
ĠImm un
ĠUrspr ung
ĠSachverstÃ¤nd iger
Ġren ational
Ġheik len
Ġzweif els
ĠÃ¶konom ischen
ĠRefer endum
Ġaccommod ate
Ġberuf liche
Ġprivile ged
Ġdesper ately
bezogen en
ĠGrundprinzip ien
Ġphilosoph y
Ġvigor ous
Ġargu ed
Ġherange zogen
Ġsuspic ion
ĠFrÃ¼h jahr
Ġgetrenn te
Ġliv estock
ĠSteu ers
Ġteleph one
ĠMerkmal e
ĠUmsch ichtung
Ġcorpor ate
Ġconvict ion
aspe kte
Ġersuch e
Ho ffentlich
ĠVersp Ã¤t
ĠFischereise ktor
ĠStrafverfolg ung
Ġfinger pr
Ġcorn erst
ĠStÃ¼r me
Ġgentechn isch
ĠpalÃ¤stinens ischen
Ġkne w
Ġabzusch affen
Ġzwing end
ĠChair man
Ġmanager ial
Ġrepro cessing
Person ally
ĠSah ra
ĠDopp el
Ġreput ation
ĠPartners hip
Wes halb
Ġwis dom
Ġinse curity
Ġresc ue
Ġschnellst mÃ¶glich
Ġcleans ing
Ġinfrin gement
Ġoste uropÃ¤ischen
ĠKÃ¶r ner
ĠBaron ess
Similar ly
ĠMade ira
ĠClin ton
ogh urt
Ġlandf ill
ermÃ¤cht igungen
ĠSTO P
Ġaufrechtz uerhalten
Ġoutbre ak
ĠAufsto ckung
Ġequilib rium
ĠUmwelthaft ung
ĠEmissionshÃ¶chst grenzen
1 8
5 24
C AT
E P
E EC
F l
H ave
L iebe
M ex
P rop
P rodu
S F
S ein
S Ã¼d
T ake
W or
W ollen
b us
b org
d am
d Ã¤m
g ent
g ol
g ht
h or
i pping
i hood
k ter
k rise
k atalog
k raine
l ib
l ary
l iberal
l usses
l abelling
p her
p feiler
r annt
s ely
t il
v iew
w ies
w ith
w ahr
w ish
w ait
z esses
in formation
in tegration
Ġd rittens
Ġt act
Ġt ail
is er
is al
un dern
Ġw ise
Ġw ine
Ġw under
Ġs qu
Ġs olle
Ġs ine
ie hlt
or i
re ut
Ġb lie
Ġb rachte
Ġm arkt
al ts
Ġf eder
ar ischen
ro g
Ġp hr
Ġp apers
Ġn ar
Ġan setzen
Ġc ash
Ã¼ tern
Ġun schuld
Ã¤ le
st ar
st ick
om ing
Ġbe denk
ll or
ur er
ĠE he
us ing
ed a
ed ed
Ġz ielen
Ġein tritt
ĠA v
ĠA llt
ĠA lar
ĠP utin
ĠS on
ĠS ociety
Ġg igant
Ġre chten
ol umen
am mer
ul iert
ber gen
ct ure
gen eration
gen ehm
ĠK asch
ĠK enntnisse
Ã¼r en
Ġl ifel
Ġl Ã¤cher
Ġk enn
Ġk Ã¶rper
ĠF ourt
ĠF eind
ĠF ront
ĠF unktionen
ĠF Ã¼lle
Ġden k
Ġha us
ĠC ad
ĠC ast
ĠC EN
ĠC ambod
ĠG l
Ġge handelt
de hnung
ĠU kraine
Ġcon ver
Ġcon fron
ver trÃ¤ge
Ġver ification
Ġver haftet
ĠH Ã¤
ĠH ud
ĠH imm
Ġpro ceeding
Ġst ich
Ġauf geb
Ġauf gebaut
ĠW ien
ĠW ieben
ĠVer fe
ĠVer wir
ĠVer markt
ĠVer trieben
ĠD up
ĠL ib
ĠL Ã¼cken
Ġne utr
ow ina
ive aus
Ġes c
for schung
Ġse ch
Ġse es
Ġse vere
sp ra
sp lit
ĠT ues
ĠT ruppen
Ġdem agog
Ġle hne
Ġco incineration
Ġr iver
ĠSt ock
Ġvor gebracht
Ġy ield
ck ed
ungs zeitraum
err er
ĠN iger
Ġab schlieÃŁ
Ġab zubauen
Ġsh op
ĠAn sehen
ĠAn leger
ain streaming
Ġat roc
Ġaus nahms
ad or
ad et
ad ow
uf ung
Ġwie viel
ĠFra cht
ĠBe eintrÃ¤cht
ard o
Ġent ity
Ġent senden
dern falls
ĠEr m
Ġag ents
Ġen rich
ational isierung
Ġunter laufen
Ġunter graben
igh ter
igh teen
Ġch amber
Wir tschaft
ute te
Ġste ad
Ġste igt
ĠGr Ã¶ÃŁen
Ġpos ed
Ġinc apable
Ġalle v
ĠSie g
Ġimp liz
ĠEin halt
ĠCoun try
wer bst
Ġbes etzten
ap se
Ġte uer
au x
Ġwork er
ement s
Ġout lines
Ġexp ed
Ġhin fÃ¤llig
Ġwo hnen
lÃ¤ gen
Ġnew ly
auf nahme
bar r
ĠUnter zeichnung
ĠMenschen recht
iÃŁ heit
ĠGrund werte
Ġnational ism
Ġintern ally
ov ina
Ġacc omp
ĠLe iden
Ġgew achsen
Ġgr as
Ġgr and
ues a
Ġdisc rep
Ġemp fehle
Ġar ises
Ġunder est
Ġrep ublic
Ġrep rodu
Ġend ing
Un til
stÃ¤nd igen
fÃ¼ g
Ġwirk ungs
Ġaut on
Ġaut umn
kon ting
kon zept
ĠUmwelt katastrophe
Ġzwe ifel
Ġzwe imal
Ġlo op
Ġtransp osed
ĠMe ÃŁ
Ġgesch ickt
Wh ether
ĠMon tre
ĠHer bst
ĠVerein heitlichung
Be ispiel
ĠTeil ung
Ġgest ure
Ġbesch lieÃŁt
ĠArbeits lose
man den
spro jekte
abil ities
Ġ8 6
Ġexpress es
ĠFre il
Ġ7 2
Ein erseits
Ġbed ing
ĠzurÃ¼ck gehen
Ġpl at
Ġir r
par agraph
ĠBesch leun
gre g
Ġ15 8
Ġspeak s
Ġ12 84
ĠZukunft s
Ġallgemein em
Ġgem eldet
Ġcomple tion
Ġenlar ge
raum s
ĠAustri ans
ĠVerwalt ungsverfahren
Ġinform al
Ġkle ines
Ġdef ect
Ġdraft sman
Ġann immt
zahl ungen
Man che
ĠGesetz geber
Ġerne uten
less ly
Ġpass ieren
Ġzahl t
Ġbenefit ing
Ġdisp ose
Ġdisp osed
ĠEx ekut
02 8
ĠMar s
ĠMar fil
ĠAmer ikanern
ĠWieder ver
ĠGleich gewichts
amb ur
Ġcivil ised
akt iven
Ġwahr genommen
ĠZug estÃ¤nd
Ġexpect ing
Ġcent uries
Ġcirc le
Ġfound ations
ĠVolks wirtschaften
ĠMin ute
ĠNahrungs kette
duc ation
St at
Ġgra ve
Ġanalys iert
ĠMenschenrechts kommission
ĠCo x
ĠHuman ressourcen
Ġlimit ations
03 7
Ġdest abil
Ġverein baren
Ġerheb licher
Ġbeha ve
Ġakt uell
Ġinnov ations
ĠInstrument s
ĠInstrument ar
ĠKomprom isse
Ġhead s
Ġsex uelle
Ġblo ÃŁ
Ġsan ction
Ġbevor zug
Ġirgend wo
ĠPartner schaften
Ġhistor ischer
Ġethn ischer
ĠKr is
Ġeinheit liches
Ġincorpor ating
ĠAugen merk
Ġrenew ables
este hen
Ġauthor ise
Ġpat ients
rehen sible
Ġuner wÃ¼n
Ġ198 4
Ġ198 8
Ġconsult ing
Ġcondem ning
ĠTier futter
Ġsepar ately
gÃ¼lt ig
ĠKonflikt ver
Ġgering eren
ĠFern ndez
Ġanzu gehen
Dem zufolge
Ġmiss ed
ĠVerhalten s
ĠVorbereit ungs
ĠprÃ¤ vent
Ġempf unden
Ġempf iehlt
Ġumwelt politischen
Ġexplo ited
ĠSy ri
ĠPersonal politik
Ġage ing
Ġec os
sprÃ¼ chen
Ġrespond ed
Ġsinnvoll er
Ġem barr
ĠMitarbeit ern
ĠErwÃ¤ hnung
Ge b
Ġbr ut
Ġerr ors
fÃ¤hr t
Ha ben
mon th
ĠImp f
Ġcondition al
Ġergeben den
Ġpatent ing
ĠSpe zial
ĠVerf assungen
ĠordnungsgemÃ¤ÃŁ en
Ġreact ions
Ġoffiz ielle
ĠSh etland
Jed es
Ġstor age
Ġunterst reicht
anad a
Ġpostpon ing
Ġclean ing
Ġcompla int
Ġdeleg ations
ĠAkt ien
Ġruss ische
ĠPresse freiheit
Ġenjoy ed
ĠTrans it
ĠTrans fers
ĠSign ale
ĠVorbe ugung
Ġexception ally
Ġsupposed ly
ĠstÃ¤r kt
Ġoccup ation
ĠMart n
Ġretain ed
ĠauÃŁen politischen
ĠMand ats
Ġvergleich en
Ġinterpre ters
Ġschwed ische
ĠAbÃ¤nder ungsantrag
Ġcount less
Ġstattf and
Ġorient ieren
Ġpermit s
Ġkurzfrist ige
Ġerleicht ert
iox id
Ġadvis ory
Ġdoll ars
ĠJe wish
ĠzulÃ¤ss igen
Ġverantwortungs bewuÃŁ
Ġobjekt ive
Ġbeseit igt
Ġshame ful
Ġtank er
ĠgeschÃ¤ tz
Ġvoranz ubringen
Ġdur ation
ĠSchnell hardt
ĠTemp eratur
ĠStraft aten
Ġents orgt
Ġded icated
Ġchemical s
Ġentreprene ur
ĠMot or
Ġconcent rated
Ġawait ing
Ġpersu ade
Ġersta unt
mutz ungen
ĠMod alitÃ¤ten
Ġredund ancies
Ġpflanz lichen
ĠKranken h
Ġexec ution
Ġdetaill ierte
ĠMiÃŁverstÃ¤nd nis
ĠverfÃ¼g baren
Ġhypoc rit
Ġgemeinschaft licher
Ġprivile ge
Ġdesper ate
Ges tern
Ġdrug s
Ġdiplomat ischen
wass ers
Ġhung er
ĠDikt atur
ĠTelekommun ikation
Ġaward ing
Ġcatastrop he
Ġunequivoc ally
Ġprosec ution
ĠZin ss
Ġmanip ulation
Ġnewsp apers
ĠSubst anzen
Ġgesonder te
Ġirak ische
ĠStaatsange hÃ¶rigen
Res olution
ĠUns ere
ĠInspe ktion
invest itionen
ĠKonkur renz
ĠElektriz itÃ¤ts
disc rimin
Ġnuk leare
umin osen
Ġerb racht
ĠAufent halts
Ġprag mat
Ġpertain ing
ĠBehaupt ung
Ġpollut ants
undertt ausende
Certain ly
ĠGanz es
Ġmorg igen
ĠPhÃ¤n omen
Ġerh ielt
Ġentschuld igen
Ġspong iform
ĠSpezif ik
ĠFal sch
Ġbask ischen
ĠArmuts bekÃ¤mpfung
Ġsummar ise
ĠGÃ¶te borg
ĠDu isenberg
ĠEntfern ung
ĠGefÃ¤hr dung
ĠBesorg nisse
ĠTrink wasser
ĠHav ar
ĠZustÃ¤ndigkeits bereich
ĠNordir land
aest ors
ĠAB B
ĠNichte in
ĠQuÃ¤st oren
ĠProduktpir aterie
coun try
Ġwro te
ĠNass au
ĠInner es
Ġpron oun
Ġveter inary
ĠBabitz k
ĠPhilosoph ie
ĠRobin son
ĠCroat ia
ĠEntste hung
ĠFourt ou
ĠHud ght
ĠWieben ga
ĠTues day
ĠBeschleun igung
6 7
A r
A part
E missionen
N L
R M
S om
Z w
Z ug
b and
c ern
c all
g ungs
h erein
h undert
i Ã¶sen
j et
l s
l im
m ir
m ind
m inistr
m Ã¼t
p ot
r ight
r ichtet
t im
w id
w ner
w issen
y ers
z ute
Ġ /
in ations
Ġd uly
Ġt at
ch ard
Ġa ston
es ter
Ġs id
re den
an kt
an bau
Ġb ol
Ġb ab
Ġin ne
Ġo wner
Ġm Ã¤cht
Ġf lieÃŁen
Ġe kl
Ġe gal
le m
le v
le hen
le ments
Ġh Ã¶rt
Ġn ennt
Ġan wend
Ġc ite
Ġc rimin
Ġc aution
Ġun b
Ã¤ en
Ã¤ men
Ã¤ hern
st ab
st rÃ¤
st rom
st Ã¤nden
Ġdie t
Ġbe le
Ġbe halten
Ġbe aut
ĠE hr
ĠE conomy
Ġein ander
ĠA ct
ĠP op
em ination
em issionen
ĠS A
ĠS ud
ĠS aat
ĠS CR
im ittel
el den
Ġre vers
Ġre aff
ol ved
sch iff
sch reiben
ĠB al
ĠB ig
ĠB oy
ul ichen
rop ortion
il ungen
ber at
Ġzu gewiesen
gen de
ĠK ub
ĠK urz
ĠK Ã¶rper
Ġl aps
ĠR ein
ĠR asse
Ġk Ã¼nst
ĠF asch
ĠF uster
ĠF usionen
ĠF Ã¼ÃŁen
ĠF errer
ĠV ien
Ġwe ib
Ġge ared
Ġver bergen
ĠH ow
ĠH Ã¼ter
Ġer wor
ach es
ach ts
Ġst a
Ġst ab
Ġst ore
Ġauf gest
ĠW en
ĠW HO
ĠVer an
ĠVer gemeinschaft
ĠVer pack
ĠD Ã¼r
Ġde eds
ess im
la w
Ġj Ã¼d
ĠZ weiten
Ġse ed
sp lan
ĠRe ich
Ġle ist
if ul
if unktion
ant ly
Ġr ush
Ġr ender
ĠSt Ã¼tz
ne imittel
Ġvor zusehen
ib l
ib r
ib be
ungs verfahrens
aus setzung
Ġsich ert
uÃŁ en
ug nissen
ĠN II
Ġab laufen
Ġab used
ĠIn s
ĠIn koh
Ġres id
Ġres ignation
Ġaus b
Ġaus reicht
Ġaus wirkt
Ġum zu
Ġdo ors
ĠFra geste
ist ik
ĠSch le
ĠSch afen
ĠBe ifall
ĠAus lands
ĠAus sprachen
ĠAus dehnung
In ner
Ġthere of
ĠJ o
ĠJ ur
ĠJ ud
ĠJ avier
eren zen
Ġreg imes
se x
ĠVor entwurf
ran gern
Ġhe gen
ĠEr ziehung
ĠEr rungen
Ġinter med
ou d
Ġfa c
Ġfa ktisch
Ġen em
Ġen cep
ĠAb sÃ¤tze
ĠAb wicklung
Ġunter stellt
rit ter
Ġcomm od
ĠBericht erstattung
Ġsa cr
ok ing
ub b
ĠGr Ã¶n
oc o
ĠGe fÃ¼
ĠGe legenheiten
lin ing
Ġconc ur
ĠO t
ĠO pport
ĠReg ister
ĠEin k
ĠEin sicht
Ġint ra
Ġweit reichenden
Ġges unde
rat ors
Ġout line
Ġwar nen
leich en
Ġhier mit
chn itten
ĠMenschen ver
Ġsub vention
ĠVerb Ã¤nde
fol io
gel d
ĠLe vel
Ġprodu ces
Ġgew inn
ĠZeit ungen
ĠÃľber schreit
Ġmark s
leg uminosen
ĠAussch luÃŁ
Ġrep ay
Ġrep lies
Ġganz em
Ġass et
Ġgemein t
Ġfest legt
geordne ten
ĠSe g
ĠSte el
fin it
isk y
Ġho ff
kehr ungen
ĠRechts ausschuÃŁ
ĠKo hl
Ġresol ute
Ġtechn ically
Ġgu ided
Ġsozial istischen
ĠBÃ¼rger rechte
ĠBÃ¼rger beauftragten
Ġselbst Ã¤nd
Ġtransp orted
Ġreal istische
chie ben
Ġele ph
Ġreason ably
ĠMein e
zus atz
Ġausge glichen
Ġget Ã¤t
Ġtrans ferring
wÃ¤ chen
ĠStand ard
ys is
ĠAl ger
Ein en
Ġsupp ose
hol ung
hol fen
hol ding
hm ir
Ġabs or
Ġkonk urr
Ġintegr ieren
Al ban
ĠgehÃ¶r te
Ġerst recken
ĠStra fen
ikan ischer
ĠFisch fang
ĠStruktur politik
Ġgovern ed
scheiden d
Ġaccord ed
Ġgem isch
ĠRegel ungs
ĠRegierungs bildung
Ġimm unity
Ġhervor gerufen
Ġhervor rufen
Ġzusammen fassen
ennt nissen
ged acht
Ġben ennen
Dar f
ĠBel grade
gang s
Ġern annt
ĠVertre ters
Ġaddress es
Ġdisp roportion
ĠRep rÃ¤sent
Ġpop ul
Ġangenommen e
Ġteil genommen
Ġteil zunehmen
ĠGeld es
ĠWahl kamp
ĠWahl kreis
ĠWasser qualitÃ¤t
ĠWasser ressourcen
Ġident ification
Ġident ifying
zug reifen
ĠFortsch ritten
ĠHo her
ĠÃľberein kunft
Ġopt imum
Ġnie manden
ĠQu ote
ĠQu elle
Ġundert ook
verb indungen
Ġfore front
Ġarbeit s
ĠKomp lex
Ġbedeut end
Ġret ten
Ġfound ation
Ġverw altet
ĠWach samkeit
ĠGew issen
Par agraph
Ġbre eding
Ġvis iting
opp ing
opp elt
fre ien
ĠGru pp
Ġlimit ation
Ġcla uses
ĠFreiheit lichen
Ġstaat licher
Ġsolidar isch
Ġtradition elle
nehm ung
ĠStrukturfonds mittel
ĠStrukturfonds verordnung
Ġconcl udes
ĠRes ult
orr ies
ĠVers icherung
uter ungen
pre is
under te
ĠPe oples
Ġlegitim en
ĠVÃ¶lker mord
Ġfunktion ierenden
Ġsec ured
ĠKern anlagen
Ġstaff ing
ĠKampf es
Ġine qual
llos en
Ġbilater aler
Ġzentral er
Ġ198 5
Ġconsult ations
ĠBeschÃ¤ftigungs mÃ¶glichkeiten
Ġspok es
produ kt
produ ctive
DA C
Ġprof ession
bed enk
Ġenable d
Ġjur istisch
ĠDeut schen
ĠGesundheits fÃ¼rsorge
Ġzul Ã¤ÃŁt
Ġdeep ening
ĠspÃ¤ter en
Ġvoraus gesetzt
Ġvoraus setzt
gesetz ten
ĠSchwe igen
Ġempf ind
Ġbein ahe
ĠKons olidierung
Ġnied riger
Ġanerk ennt
Ġgeschlossen en
Ġec olog
ĠausfÃ¼hr licher
Ġinten se
ĠTerr n
Ġdeliver ing
ĠKat al
Ġgeograph ische
Ġgesetz liche
Ġexcess ively
ĠInst anzen
ĠBeamten stat
ĠAngol an
Ġprefer ential
ĠSto ff
ĠBot schafter
Ġsystemat ische
ĠRechnungshof s
ĠRechnungshof es
Ġcooper ating
Ġged rÃ¤ngt
ĠInsel regionen
Ġclass es
ĠÃľbergangs fristen
Ġemb ry
Ġeinsch lagen
Ġexcl ude
ĠAd resse
Ġperman ently
Ġjetz ige
Ġeinzus tellen
ĠBegriff e
ĠBegriff s
Ġharm less
Ġunc lear
Ġbound aries
Ne xt
ĠTr ib
Ġminister ial
Ġsymp t
ĠIC CAT
Ġfrag ment
Ġcompla in
ound ed
ĠKonsult ationen
nÃ¼p fen
ĠTer mine
uche lei
Ġinte llig
ĠPflanzen fet
Ġsimpl ified
Ġnachzu kommen
Ġmig rants
Ġjun ge
ugg ling
Ġdiss emination
Ġvertra uens
Ġvieler lei
ĠGeneraldire ktionen
Ġmobil ise
Kon ferenz
ĠInnov ationen
ĠSchuld igen
Ġpreced ence
ĠBedÃ¼rf nissen
Ġrass istische
ĠParitÃ¤t ische
ĠÃ¤lter e
ĠKrie ge
ĠLang zeit
ĠEinwanderung spolitik
Ġinev itable
ĠCar ibbe
ĠGlÃ¼ck wunsch
bring ung
Ġdeliber ately
Ġanticip ated
Ġobjekt iv
Ġgenie ÃŁt
Ġengag ieren
Ġdomin ated
Ġvalid ity
Ġtank s
Ġtank ers
ĠED D
ĠStahl industrie
Ġvorn herein
Ġzivil en
ĠWeiter fÃ¼hrung
ĠTrag weite
ĠEURO DAC
bl ow
Ġdemograph ischen
ĠFÃ¤h igkeiten
Yes terday
ĠBla ir
Ġacqu ire
Ġdisappear ance
ĠDien stag
Ġtheoret isch
ĠEuropar at
Ġherrschen den
ĠkohÃ¤r enten
mod ified
Ġjo ined
Ġscandal ous
Ġcommend able
ĠausdrÃ¼ck en
Sow ohl
ĠAusgleich s
Ġupd ate
Ġenforce able
Ġanhalten de
Ġcance lling
ĠInvestitions bank
ĠPlenars aal
Ġperpet rated
Ġkontinuier lich
Ġnament lich
ĠÃľ bel
Ġbiolog ischen
ĠProp aganda
ĠMult is
Ġconce al
ĠSchad stoffe
Ġengl ische
vereinbar ungen
ĠTelekommun ikations
ĠDiff erenzen
Ġcancel led
ĠOpt ionen
Ġenthusi ast
ĠProgrammplan ung
risik en
Ġanp assen
Ġrid iculous
Ġmisunder standing
Ġdevast ating
Ġrela unch
Ġrare ly
Ġeingesch lagen
Ġmittelfrist ig
mel de
Ġjustit iellen
ĠgewÃ¶hn lich
Ġirgendwel che
Ġaufricht ig
Ġbrid ge
Ġtort ure
Ġvet o
ĠCong ress
ĠGrundrecht scharta
ĠOperation en
Ġaufer legt
ĠArz neimittel
ĠErlÃ¤ uterungen
Ġendors ed
KÃ¶nn ten
Ġunus ual
verpflicht ungen
ĠAusbild ungs
Ġmagn ific
Ġperce ived
Ġsumm ary
Ġerstaun lich
ĠPet itions
ĠGÃ¼lt igkeit
Ġeingest uft
Ġbewaff neten
Ġunverz ichtbar
Ġbewe gt
Ġindustrie llen
ĠZur Ã¼ck
Ġacid ification
ĠHaushaltsvor entwurf
Ġarbitr ary
Ġintell igence
ĠKas hmir
ĠhÃ¤uf iger
Ġdub ious
Ġearm arked
ĠMur cia
verl ust
ĠNuk lear
seek ers
Ġappra isal
Ġdischar ges
Ġdread ful
Ġanzust reben
ĠBrov ina
ĠKroat ien
ĠEnttÃ¤us chung
Ġnar row
ĠKasch mir
ĠVerwir rung
ĠVertrieben en
ĠMontre al
ĠFreil assung
ĠHudght on
ĠVien na
Inner halb
Ġencep halopath
Ġsacr ific
Ġinequal ities
ĠCaribbe an
4 2
4 9
B est
B Ã¼rger
E X
E bene
G F
G ruppe
I r
K K
M ean
N ichts
P re
T ur
a ppen
a ven
b usiness
c end
d est
d acht
d igten
f aktor
g Ã¼ter
h Ã¼
l ist
n Ã¼gen
p flanzen
r asch
s ein
v able
z Ã¤hl
z onen
Ã ľ
in ity
in nung
in strumente
Ġd rag
Ġd ying
Ġt ab
Ġt ied
Ġa chte
is ierungen
Ġw uÃŁ
Ġw Ã¼ÃŁ
Ġs n
Ġs em
Ġs kept
at ischen
at ri
re de
re ts
re isen
an ter
Ġb Ã¼r
Ġb are
Ġb io
Ġin forme
Ġm ache
Ġf als
Ġf rieden
Ġe ighteen
le iden
le vant
ent ive
Ġh um
Ġh oc
Ġh ielt
Ġh ars
Ġn Ã¼tzt
Ġan k
Ġc yn
ge fÃ¤hr
Ġun a
Ġun auf
Ġun kontroll
Ġv ort
Ġv age
Ġv ierte
as us
Ġbe lÃ¤uft
ll i
ĠE mb
ĠE ducation
ir gend
Ġz eich
ra els
ĠA qu
ĠA rab
em pt
ic op
ic ious
ĠS n
ĠS and
Ġg as
Ġg au
Ġg ift
Ġg ulf
ĠM asch
eit ert
icht linie
el ter
el and
el zen
Ġre ct
sch ra
ĠB ran
ĠB alt
ĠB ombard
ĠB uesa
lich sten
gen den
gen ce
ĠK now
ĠK ambod
Ã¶ se
Ã¶ tet
Ġl orries
ĠR unde
ĠF lan
ĠF luÃŁ
ĠF eld
ĠF aser
Ġden kt
Ġfor cing
ĠV elzen
ĠC riminal
ĠC ollege
Ġwir kt
ĠG F
ĠG il
ĠG az
Ġge op
Ġge teilt
Ġge grÃ¼ndet
Ġge antwortet
de hnen
ben i
Ġver trag
and als
Ġst agn
Ġauf stellen
ĠW este
Ġnot es
ĠVer gabe
ĠD M
ĠL ichte
ĠL achs
ĠL Ã¼cke
Ġde gress
ĠUn klar
op fer
pp ich
Ġwer fen
Ġes cape
ĠZ um
Ġse ats
sp aren
ĠT Ã¤ter
ak ter
Ġex tern
ĠRe gen
if er
if eration
if ikation
Ġr isen
Ġall iance
Ġsu it
ck ten
aus stattung
we ge
hen de
ĠÃ¼ber sehen
ĠÃ¼ber trieben
ĠIn spect
ĠIn haft
Ġme x
Ġme al
ĠAn al
Ġres idents
ges ucht
Ġat trib
Ġaus sp
Ġaus schlieÃŁ
Ġaus zusetzen
Ġaus schlag
Ġaus macht
Ġsch ade
Ġsch reiben
Ġsch icken
Ġsch Ã¤tze
Ġcom fort
gr Ã¼nde
ĠSch ein
ĠSch rift
ĠSch eitern
ĠBe wert
ĠAus stattung
ĠJ an
ze hnt
se ud
Ġman cher
ĠAr ch
ĠBer end
Ġent w
ĠEr ster
ĠEr reichen
Ġinter action
Ġwor ries
ip tion
Ġqu asi
ud able
ud rÃ¼cken
Ã¤r z
Ã¤r er
ĠParlament sprÃ¤sident
Ġunter zogen
Ġnach ge
Ġch ief
Ġcoun ting
Ġcomp atibility
con te
Ã¶r ter
ank ungen
Ġpos iti
ass elbe
oc aust
Ġinc oher
ĠReg ions
Ġpre dom
ĠEin ver
wer ken
Ġbes ides
Ġpolic ing
ĠComm ittees
sam e
iert es
Ġweit est
ag te
ide ut
Ġhin dern
Ġwo hin
fÃ¼hr enden
teil te
ĠKon ventionen
utz er
ĠDe parte
ĠDe ponien
Ġhier archy
auf wand
Ġind igen
Ġev il
lan ge
ĠMenschen leben
Ġsub jected
fl ug
Ġkon tra
Ġkon zert
fr Ã¼
ĠWir tschaften
Der ivate
Ġdirect or
ĠGemein de
Ġrec over
ĠZeit ung
ĠEuropa wahlen
atz en
ĠAuf wand
ĠAuf teilung
Ġfre ier
hand ed
str ich
Ġsocial ist
ĠTh ors
Ġrespon sibly
Ġro b
Ġro lling
ĠSe cond
ĠSte hende
pro ben
pro jekten
Ġla x
Ġla udable
ĠRechts etzung
An statt
oth ing
kl us
fÃ¼ gen
geben d
Ġaut omatic
Ġlegisl ature
Ġger aum
ĠSp ionage
uer ungen
Ġfo ol
Ġlo hnt
Ġgleich zeit
Ġgleich gÃ¼ltig
Ġange geben
Ġreal isieren
Ġhel icop
Ġgesch afft
Ġobject ively
Ġthro w
Ġcar bon
Ġatt itudes
ĠFl chard
zeug nissen
Ġausge weit
Ġausge legt
ĠHer den
Ġget Ã¶tet
zeich nungen
Ġtrans missible
Ġform ing
Ġdemoc racies
own ers
ĠHand hab
ĠHaushalts linien
Ġgut he
Ġrat ifizieren
Im mer
Ġbetr ie
Ġ8 2
Ġserious ness
ĠRecht fert
Ġkomm ent
Ġextre men
Ġgeb Ã¼hren
Ġgeb ieten
ĠWelt krieg
Ġvoll zieht
bene fit
ĠBet rieben
ĠBet onung
Ġta pe
Ġta ught
Ġsupp lies
Ġeing angs
ĠThe orie
Ġir ische
01 3
ĠVerantwort lichkeiten
ĠBesch wer
Ġabs ent
Ġagree ing
Ġrev ise
Ġmil est
Ġdown ward
Ġdefin ite
Ġintegr ierte
ĠBes etzung
recht licher
kÃ¤mp ft
Ġerst reckt
ĠReform prozeÃŁ
Ġoper ates
Ġcl im
Ġless on
zÃ¼ gen
Ġappropri ately
Ġunderstand able
Ġaim ing
Ġabsol uten
Ġorganis ational
ĠDemokrat ien
Ġdet ract
Ġdort hin
ĠHe uchelei
Ġadministr ativen
Ġern sten
Ġexc ise
Ġexc iting
ĠSitz ungs
leist ungs
ĠEmp fÃ¤nger
ĠIs raels
02 0
ĠArbeitsp lan
ommend ation
Ġmen schen
ĠGeld f
ĠMil cher
ĠWahl be
Ġrequest ing
Ġsur ve
last ung
Ġrecommend s
ĠRei hen
folgen den
ĠLuft qualitÃ¤t
Ġdist anz
Ġcoordin ating
To o
Ġpress ures
ĠSicht weise
Ġeth ischen
Ġdring enden
Ġernst haften
Ġdep endence
ĠErzeug nis
ĠGesch lechts
ĠProt okolle
ĠAut ob
Ã¼ssel ung
plan s
Ġencour agement
son sten
Ġtotal itarian
Ġnam es
Ġvis its
Ġbeg leiten
Ġbeg nÃ¼gen
Ġdurchge fÃ¼hrte
opp eln
Ġheraus gestellt
Ġbetroffen e
Ġmodern ising
03 3
Ġcomb ining
ĠAnt i
Ġli quid
Ġappe als
ĠIntegr itÃ¤t
Ġakt ual
Ġtradition ell
Ġtop ics
Ġbl atant
Ġrene wed
ĠVers ion
Ġeinheit lich
ĠErfolg s
Ġattemp ting
ĠWhite head
Ġmis use
Ġobserv ance
Ġdistrib ut
ĠVÃ¶lker gemeinschaft
Ġsy nerg
Ġpotential ly
ĠEisenbahn netz
pl Ã¤ne
ĠPlenum s
Ġalloc ating
Ġmess ages
ĠAsyl politik
ĠMiÃŁ wirtschaft
ĠVerkehrs un
Ġdev ote
Ġweak er
ĠerhÃ¶ h
ĠZivil bevÃ¶lkerung
Ġemer ge
Ġprof ile
Ġ24 0
Ġten der
Ġjen es
ĠGesundheits schutz
ĠHaider s
ĠWiederauf nahme
ij s
ĠBef ried
Ġintens iver
Ġvorher gehenden
ĠKu wait
ĠFahr zeugen
ĠIm beni
Ġbill iger
Ġapprec iated
Ġumwelt schÃ¤d
ĠKons ument
ĠfÃ¤ hig
Ġexplo iting
ĠSy nerg
ĠSpiel regeln
Ġstattfinden den
ĠVoll endung
Ġrepla cing
Ġunmittel bare
ĠBestand teile
ĠhÃ¶her er
ĠInst abilitÃ¤t
ĠKontin u
ĠErwÃ¤ gungs
Ġoptim istisch
Ġaufzu heben
Ġignor ing
Ġignor ieren
ser klÃ¤rung
Ġged ient
ĠÃĦr m
ĠÃľbergangs zeitraum
ĠEnts endung
Ġverurs achten
Ġinterpret iert
ĠCharak ters
Ġmoder ate
Ġadvoc ated
ald a
Ġ197 3
Ġehrgeiz igen
chsel n
ĠAngriff e
Ġelimin ation
Ã¶konom ische
Ġlay s
Ġattend ed
Ġattend ance
Ġgegenseit ige
lit ten
sh ire
erzeug nissen
Ġniemand em
Ġverz ichtet
Ġinsist ing
Ã¶p fung
ĠangekÃ¼nd igte
Ġbelong ing
Ġvorrang ige
bef ugnis
kur b
Ġkn appen
ĠnÃ¼tz liche
ĠVice conte
Ġcorrespon d
Ġdefic its
ĠMart nez
vorsitz enden
ĠRo jo
Ġirgendein e
Ġcalc ulation
Ġcalc ulations
omet res
Ġattra ctive
Ġbedauer licherweise
Ġendeavour s
Ġfederal ist
Ġverwe igert
Ġdramat ischen
Ġdramat ically
schl Ã¼sse
Ġorient iert
Ġtransnational en
Ġbedeutsam e
ĠAssozi ierung
Ent schlieÃŁungsantrag
Ent scheidend
modell s
Ġhil ft
Ġkil ometres
Ġsteuer lichen
Ġcourage ous
Ġverschle chtert
Ġgl uten
Ġsinc ere
ĠfÃ¼hr enden
Ġzuge geben
ĠAuseinander setzungen
Ġobjekt iven
Ġberuhen den
Ġfried lichen
ĠKriegs verb
ĠGesam th
ĠWohn sitz
Ġpunish able
ĠDire kt
ĠRechtsrahmen s
Ġleid et
Ġvoranz u
Ġtie fer
Ġsil ent
Ġmultilater alen
ĠAg entur
wohn ern
zent ren
Ġdurchschnitt lichen
ĠAufsicht s
Ġrefus ing
ĠBeschrÃ¤n kung
ĠmakroÃ¶konom ische
Ġheik le
ĠUnternehmer geist
ĠUmweltz eichens
ĠErfordern isse
Ġanhalten den
ĠUnionsbÃ¼rger schaft
Ġpsych ological
Ġproc laim
ĠTro cken
Ġadmitted ly
ĠunnÃ¶t ig
Ġzun ichte
ĠÃĸk ol
Ġcow s
ĠverzÃ¶ gern
Ġangestreb te
ĠKred it
ĠZuf all
Ġmotiv ated
ĠGesetzgeb ungs
Ġvigor ously
Ġfremdenfeind liche
Ġwiden ing
ĠauslÃ¤nd ischen
Ġunequivoc al
Comp etition
ĠConserv ative
Ġenthusi asm
Ġdisregard ed
ĠEAG FL
Ġimbal ance
Ġimbal ances
verhÃ¤lt nisse
ĠBulgar ien
ĠPyren ees
Ġwiederher zustellen
Ġwissenschaft lich
Part ner
anspruch nahme
ĠSied lungs
ĠwÃ¼rd igen
Ġfrank ly
Ġapolog ise
Ġverheeren den
Ġbesorgniserre gend
Ġinhaft iert
Ġdereg ulation
Ġrecital s
ĠHaushaltskontroll ausschuÃŁ
Ġforecast s
Ġscept ical
Ġexemp lary
Ġschott ischen
Ġappla ud
Ġmonat lichen
Ġmittler weile
Ġdial ysis
Ġalban ischen
ĠDolmet scher
ĠErwerb s
Ġpartial ly
Ġtransatlant ic
Emp fehl
Ġod ds
Ġpled ges
Ġanch ov
ĠKil ome
Ġoffenkund ig
ĠWettbewerbsverzerr ungen
ĠBilligflag gen
ĠMir anda
Ġkanad ischen
ĠgebÃ¼hr end
aktiv itÃ¤ten
Ġcyc le
Ġverabschiede ten
beschrÃ¤n kungen
ĠWurz eln
ĠErleicht erung
ĠMaf alda
defiz it
Weit ere
ĠBritt any
ĠSchÃ¼ ler
Vere hrte
ĠAnze ige
Ġaccel er
ĠgrÃ¼ nen
iskrimin ierung
ĠMehrwerts teuer
ĠImmun itÃ¤t
ĠVermarkt ung
ĠDup uis
ĠNiger ia
ĠGrÃ¶ÃŁen ordnung
Ġgras p
Ġanwend bar
ĠSud an
ĠDÃ¼r re
Ġleist ungs
Ġmagnific ent
Mean while
Ġhars h
ĠEmb ry
Ġpositi ver
ĠHandhab ung
1 2
1 7
6 0
A id
D C
D enken
G ene
G reece
I mp
K opf
M ill
M uch
N ational
N utzen
P r
P rÃ¤sident
S T
V E
W hil
a ute
a ced
b id
b ian
e bene
f at
f ood
g Ã¤ste
h un
h our
h uman
h armon
i pp
i hn
j a
l end
l iers
m akers
n g
n est
n iveaus
o id
o sten
r ations
s ir
s ub
t ig
t ime
u i
v ene
w Ã¤hrung
en cy
in st
in richtungen
un ich
Ġw all
Ġs orgt
Ġs itzt
ie ÃŁen
Ġthe me
or de
an liegen
Ġb rachten
Ġb old
Ġo we
Ġm ud
Ġm iÃŁb
al isierung
ar ia
te enth
Ġe ase
le b
Ġh ushkits
Ġh ingenommen
Ġan geschlossen
Ġan zub
Ġan zusehen
Ġc raft
Ġc ards
Ġc olonial
Ġun zulÃ¤nglich
st abe
st unde
Ġv ice
as pekt
Ġbe geben
Ġbe fragt
ll ulose
ĠE ck
ĠE SV
ĠE lef
Ġz ones
Ġein richten
ĠA ra
ĠP es
ĠP an
ĠP illar
em ic
ĠS am
Ġg alt
Ġg old
Ġg ingen
ut reiben
icht ige
Ġre op
Ġre think
ol f
ol es
sch usses
ten ds
ĠB ord
ĠB rÃ¼
ĠB orr
ul a
ul en
ul ts
ve lling
il ation
ber ufung
Ġzu me
ĠK ernen
ĠK unst
ĠK anada
Ã¶ ver
Ġau st
Ġl end
Ġl uck
Ġda iry
ĠR Ã¼b
ĠR ibe
Ġk ost
Ġk inder
Ġk Ã¤me
ĠF ett
ĠF Ã¶deral
ĠV irus
ĠC ard
ĠC ivil
um ers
ein richtungen
res sen
Ġge le
Th ree
de llen
Ġver se
Ġver hÃ¤lt
Ġver laufen
Ġver lÃ¤uft
ĠH u
ĠH Ã¤n
ĠH ugh
ĠH ushkits
ĠH Ã¼rden
est ag
Ġpro sp
Ġpro mp
Ġer sichtlich
Ġer achtet
Ġer arbeiteten
Ġst ation
Ġst if
Ġauf geben
Ġauf zustellen
Ġauf geschlossen
Ġauf bringen
ĠW a
uld ung
ĠVer g
ĠVer z
ĠVer se
ĠVer ordnungs
ĠD ay
ĠD sir
ĠL ie
ĠL ernen
tr at
Ġse cur
Ġse lling
ĠT ab
ĠT aus
Ġdem ent
Ġdem selben
ak ultur
ĠRe ferenz
ĠRe aktions
Ġle ge
ann e
ĠSt imm
Ġvor ant
Ġvor kommen
Ġvor dringlich
ib es
sen se
sen kung
aus chen
Ġab hÃ¤ngt
Ġab schaffen
Ġsh arp
ĠÃ¼ber mÃ¤ÃŁige
ĠÃ¼ber schreiten
ĠIn anspruchnahme
ĠAn wes
ĠAn lauf
ĠAn wohner
ens ur
ern t
art agung
Ġaus schlieÃŁen
Ġaus zusprechen
Ġaus lÃ¶sen
Ġum geht
ure ichen
ers atz
Ġwas ted
Ġsch ock
Ġsch auen
our ge
our ce
llen ce
ĠSch atten
ĠSch Ã¤tzungen
ĠAus rÃ¼st
Ġreg ain
Ġreg rets
Ġdar zulegen
ĠVor handen
Ġhe il
ĠEr lernen
Ġwor an
ip l
ip erson
Ġen ge
ĠAb stand
Ġunter min
Ġunter zeichneten
ĠBericht es
Ġcomp are
ok ed
ru dence
Ġdis miss
Ġdis abled
iz za
Ġste igern
ass ismus
ĠGe g
Ġalle mal
ress ive
Ġpre condition
aÃŁ te
ĠEin leitungen
rie b
Ġbes prechen
sam en
Ġsp ar
Ġsp lend
Ġges icher
ke eping
Ġout rage
ĠJahr zehnt
ĠÃĦ ng
ri age
Ġleg umes
Ġwo her
ĠeuropÃ¤ isch
Ġhier her
ĠUnter richtung
Ġind ul
Ġop ted
fahr zeug
Ġev olution
ĠMenschen handel
wend ungen
ren zen
Ġper fekt
lar gement
Ġprov es
Ġprov ince
ĠCh a
ĠWir ken
Ġdiff ers
ĠZusammen leben
ov is
ov iet
ken ne
ame ter
ha ust
ĠÃľber setz
ĠÃľber trag
Ġover d
ĠBereich erung
Ġrep ression
ett o
Ġganz es
Ġeinz ug
Ġass ert
Ġass embly
ss itzung
Ġend et
Ġend ang
Ġgemein wohl
inc ing
Ġwant ing
Ġfar mer
Ġhand ful
ac lav
Ġorder s
ĠInter ims
Ġweiter zu
An dernfalls
An sonsten
Ġher z
Ġlie ÃŁen
ĠMittel me
ĠRahmen programm
Ġpar ents
Ġsc andals
ster weiterung
wort hy
Ġgesch wÃ¤cht
red it
Ġverb rannt
ĠHa ut
ĠFinanz ielle
ĠFinanz instrument
ĠFinanz mÃ¤rkten
antwort lich
Ġausge gangen
Ġneg l
Ġprev ail
Ġtr ip
Ġtrans formation
Ġentsp rochen
ĠTeil nehmer
Ġsicher er
Ġlaw yers
Ġke hren
ĠZu weisung
ĠStand ort
spro du
Ġklar gestellt
Ġprom otes
ĠFre md
Ġbek unden
Ġgeb aut
Ġgeb Ã¼hrt
Ġgel ang
Ġvoll ziehen
Wie der
Ġdel ight
Ġ9 7
ĠSozial partner
Ġhelp s
Ġeben dies
ĠgrÃ¶ÃŁ eres
ĠAm ado
Ġanges tellt
Ġequ ipped
emp loyed
Ġfinanz ierten
Ġdefin es
vorsch lÃ¤gen
recht lich
ĠFe ira
ling en
ĠMarkt anteil
Ġread ily
ĠNach richt
ĠNach teile
Ġel f
Ġze igte
Ġallgemein er
Ġinner gemein
ĠLiberal e
ĠLiberal ismus
zÃ¼ gliche
Ġindivid uellen
Ġperiod ic
Ġhervor zuheben
Ġfeel ings
ged anken
ĠEnerg ies
Ġmot ives
ĠErweiterung sprozeÃŁ
ĠFort fÃ¼hrung
Ġapplic ants
Ġsuccess ive
av oured
zuf assen
ifiz ierte
Aus schuÃŁ
Ġexce llence
Ġbesser es
ĠNe ug
ĠDiskuss ions
Ã¤d chen
ĠEx trem
Ġpop ulated
ĠWettbewerbs regeln
ĠMitte ilungen
ĠGeld geber
Ġbehand elten
ĠGleich stellungs
Ġschwer er
Ġparticip ated
drÃ¼ck en
Ġkeep s
ĠLuft verschmutzung
Ġdist urb
Ġviol ent
ĠQu aestors
Ġdring liche
ĠKomp l
prÃ¤ g
Ġmer ger
ĠVolks wirtschaft
ĠVolks gruppen
ĠAuÃŁen hilfe
Ġgener elle
aut ious
ĠGew iÃŁheit
ĠSub vention
Pro blem
Ġschein bar
Ġtransparen te
ĠNahrungsmittel sicherheit
ĠInformations kamp
ĠInformations austausch
ĠbeschÃ¤ft igung
ĠVereinbar keit
ĠKamp agnen
Ġinst ig
Ġtradition ally
Ġhead way
ĠSchwier igkeit
Ġfort un
Ġprofit iert
ĠVers Ã¤um
ĠVers Ã¶hnung
tell ungen
Ġexpla ining
Ġeinheit licher
ĠErfahr ungs
ĠZusatz frage
Ġstar ts
ĠRichtlinien entwurf
200 3
grenz werte
Ġinfl ux
Ġimmig rant
Ġreturn ing
Ġconstit u
afr ika
[...]
