{
  "!": 4,
  "!!": 30020,
  "!)": 43601,
  "$": 5,
  "%": 6,
  "%!": 43602,
  "%,": 10659,
  "%.": 8050,
  "%?": 38396,
  "&": 7,
  "(": 8,
  ")": 9,
  ")(": 32094,
  "))": 3655,
  ")).": 7500,
  "));": 26085,
  "),": 6666,
  ").": 5224,
  "):": 4413,
  ");": 11308,
  ")?": 43603,
  ")]": 11726,
  ")].": 17907,
  ")];": 34146,
  "+": 10,
  "+,": 32095,
  "+-": 28167,
  "+.": 43604,
  ",": 11,
  "-": 12,
  "-,": 8369,
  "--": 14211,
  ".": 13,
  ".)": 3754,
  ".),": 46833,
  ".,": 10230,
  "..": 3786,
  "...": 9889,
  "...,": 47983,
  "....": 31050,
  ".?": 30021,
  "/": 14,
  "0": 15,
  "00": 371,
  "000": 778,
  "0003": 45596,
  "0004": 32995,
  "0006": 39977,
  "0007": 39978,
  "0008": 28776,
  "0009": 25850,
  "001": 9311,
  "0010": 41648,
  "0011": 41649,
  "0012": 33992,
  "0013": 33993,
  "0014": 29478,
  "0015": 23967,
  "0016": 33994,
  "0017": 33995,
  "0018": 29479,
  "0019": 41650,
  "002": 14543,
  "0020": 28633,
  "0021": 39594,
  "0022": 42100,
  "0023": 39595,
  "0024": 32767,
  "0025": 32766,
  "0026": 29649,
  "0027": 34286,
  "0028": 42101,
  "0029": 34287,
  "003": 14544,
  "0031": 34288,
  "0032": 42102,
  "0034": 34289,
  "0036": 42103,
  "0037": 42104,
  "004": 8536,
  "0040": 23940,
  "0041": 29440,
  "0042": 37122,
  "0043": 29441,
  "0044": 29442,
  "0045": 31354,
  "0047": 22924,
  "0048": 27725,
  "0049": 41574,
  "005": 12401,
  "0050": 32765,
  "0052": 34176,
  "0053": 34177,
  "0054": 48325,
  "0056": 37370,
  "0057": 34178,
  "0058": 41936,
  "0059": 34179,
  "006": 9636,
  "0061": 41675,
  "0062": 41676,
  "0063": 34013,
  "0064": 41677,
  "0065": 41678,
  "0066": 34014,
  "0067": 25068,
  "0068": 25069,
  "0069": 26347,
  "007": 12402,
  "0070": 34180,
  "0072": 34181,
  "0073": 34182,
  "0074": 41937,
  "0077": 41938,
  "0078": 29583,
  "008": 14049,
  "0080": 39596,
  "0081": 34250,
  "0083": 29632,
  "0086": 34251,
  "0087": 42061,
  "009": 12792,
  "0090": 34202,
  "0091": 29598,
  "0095": 41974,
  "0096": 34203,
  "0097": 41975,
  "0098": 41976,
  "01": 2158,
  "010": 6221,
  "0100": 40511,
  "0102": 40512,
  "0104": 29329,
  "0105": 22867,
  "0106": 33761,
  "0107": 29330,
  "0108": 33762,
  "011": 12451,
  "0110": 40514,
  "0112": 26423,
  "0113": 34185,
  "0114": 34186,
  "0116": 34187,
  "0117": 34188,
  "012": 13648,
  "0120": 26000,
  "0121": 28996,
  "0122": 34235,
  "0124": 40513,
  "0128": 29622,
  "0129": 34236,
  "013": 20466,
  "0133": 42484,
  "0134": 34558,
  "0135": 28997,
  "0141": 28998,
  "0148": 33310,
  "015": 10744,
  "0151": 41796,
  "0153": 41797,
  "0155": 41798,
  "0156": 29528,
  "0158": 26382,
  "0159": 34084,
  "016": 8764,
  "0160": 29453,
  "0161": 33947,
  "0162": 29454,
  "0163": 29455,
  "0164": 29456,
  "0165": 33948,
  "0166": 29457,
  "0167": 41597,
  "0168": 27734,
  "0169": 29458,
  "017": 14107,
  "0173": 42071,
  "0174": 34259,
  "0176": 34260,
  "0179": 42072,
  "0180": 40515,
  "0181": 40518,
  "0183": 40519,
  "0184": 40516,
  "0194": 40517,
  "0199": 38398,
  "02": 3149,
  "020": 20502,
  "0201": 40736,
  "0202": 27453,
  "0204": 42487,
  "0205": 40742,
  "0207": 36558,
  "0208": 26059,
  "0209": 29801,
  "021": 13446,
  "0212": 26446,
  "0213": 42006,
  "0215": 42007,
  "0216": 42008,
  "0217": 42009,
  "0218": 37432,
  "0220": 40737,
  "0222": 40743,
  "0223": 33449,
  "0240": 40738,
  "0243": 40740,
  "0245": 46668,
  "0246": 33450,
  "0249": 33451,
  "025": 13876,
  "0251": 34247,
  "0252": 31564,
  "0253": 34248,
  "0254": 42047,
  "0255": 40739,
  "0259": 42048,
  "026": 13661,
  "0260": 34237,
  "0261": 42025,
  "0262": 42026,
  "0265": 29623,
  "027": 11831,
  "0272": 41892,
  "0274": 24020,
  "0275": 41893,
  "0276": 41894,
  "0277": 34153,
  "0278": 41895,
  "0279": 41896,
  "028": 19271,
  "0283": 42401,
  "0284": 40741,
  "0289": 34509,
  "03": 4205,
  "0301": 46961,
  "0307": 40945,
  "0308": 40943,
  "0312": 40948,
  "0318": 26123,
  "0323": 33562,
  "0324": 40944,
  "033": 20543,
  "0332": 42491,
  "0333": 42492,
  "0341": 24859,
  "0342": 33563,
  "035": 22807,
  "0352": 37858,
  "0354": 49293,
  "0355": 40946,
  "0357": 40947,
  "036": 36695,
  "037": 19297,
  "0370": 49002,
  "0371": 42402,
  "0372": 42403,
  "0383": 46962,
  "0388": 40949,
  "04": 38397,
  "041": 35012,
  "047": 32097,
  "05": 17109,
  "06": 32096,
  "07": 10793,
  "08": 9285,
  "0817": 41643,
  "0822": 41644,
  "0825": 26333,
  "1": 16,
  "10": 10231,
  "100": 38399,
  "103": 38400,
  "10317": 43372,
  "104": 34059,
  "107": 41737,
  "11": 10916,
  "111": 48132,
  "112": 41812,
  "11350": 34099,
  "116": 41813,
  "12": 20811,
  "124": 32100,
  "12487": 43112,
  "125": 28168,
  "127": 38401,
  "1279": 43373,
  "13": 26723,
  "14": 32098,
  "140": 25385,
  "14094": 26683,
  "15": 16728,
  "16": 30022,
  "17": 20812,
  "18": 18957,
  "19": 32099,
  "198": 43605,
  "199": 1880,
  "1992": 36329,
  "1993": 46231,
  "1995": 40410,
  "1996": 40411,
  "1997": 24719,
  "1998": 14100,
  "1999": 2039,
  "2": 17,
  "20": 5835,
  "200": 4790,
  "2000": 1599,
  "2001": 14386,
  "2002": 18785,
  "2003": 21255,
  "2004": 22021,
  "2005": 18786,
  "2006": 8628,
  "203": 38403,
  "2046": 41222,
  "2096": 41223,
  "2097": 41224,
  "21": 6993,
  "2107": 41376,
  "2108": 41373,
  "2110": 41375,
  "2117": 41379,
  "2121": 41372,
  "2123": 41377,
  "2124": 41374,
  "2126": 41381,
  "2127": 41378,
  "2131": 41383,
  "2150": 41371,
  "2158": 41382,
  "2165": 47550,
  "2167": 33820,
  "2186": 41380,
  "22": 23183,
  "220": 15600,
  "23": 11309,
  "24": 9368,
  "25": 8643,
  "26": 26724,
  "27": 17954,
  "28": 30023,
  "29": 38402,
  "3": 18,
  "30": 5646,
  "300": 38407,
  "31": 38404,
  "34": 38405,
  "35": 12021,
  "350": 26725,
  "351": 48272,
  "39": 38406,
  "4": 19,
  "40": 11156,
  "409": 41841,
  "41": 13107,
  "414": 48399,
  "42": 20126,
  "424": 32101,
  "427": 38408,
  "43": 13533,
  "432": 22213,
  "44": 13534,
  "45": 15939,
  "46": 12730,
  "467": 41964,
  "468": 21401,
  "47": 17955,
  "48": 13972,
  "49": 20127,
  "5": 20,
  "50": 6157,
  "500": 30024,
  "503": 15941,
  "5037": 48659,
  "51": 43606,
  "524": 18958,
  "53": 17956,
  "54": 35013,
  "55": 12924,
  "57": 15940,
  "58": 35014,
  "59": 43607,
  "6": 21,
  "60": 20813,
  "61": 30025,
  "62": 22346,
  "65": 24247,
  "661": 43609,
  "667": 38409,
  "67": 19520,
  "68": 28169,
  "69": 43608,
  "7": 22,
  "70": 25386,
  "71": 38410,
  "75": 30026,
  "77": 24248,
  "78": 24249,
  "8": 23,
  "80": 11879,
  "81": 25387,
  "82": 23184,
  "83": 28170,
  "84": 14459,
  "85": 21529,
  "86": 23185,
  "87": 16729,
  "88": 25388,
  "89": 38411,
  "9": 24,
  "90": 22347,
  "908": 38412,
  "9085": 43374,
  "91": 43610,
  "92": 25389,
  "93": 23186,
  "94": 17957,
  "95": 21530,
  "96": 14460,
  "97": 16730,
  "98": 17110,
  "99": 464,
  ":": 25,
  ";": 26,
  "?": 27,
  "?!": 35015,
  "A": 28,
  "ABM": 38417,
  "AC": 9707,
  "ACP": 24250,
  "AD": 3721,
  "AF": 3107,
  "AG": 12179,
  "AI": 28171,
  "AIDS": 38415,
  "AKP": 24251,
  "AL": 5150,
  "ALE": 14641,
  "AN": 5623,
  "ANAT": 29285,
  "AO": 9816,
  "AOs": 32103,
  "AP": 7908,
  "AR": 8185,
  "ARD": 31336,
  "ART": 33909,
  "AS": 23187,
  "AT": 7397,
  "ATO": 4452,
  "AU": 16731,
  "AVC": 38416,
  "Ab": 2834,
  "Aber": 2238,
  "Abgeordneten": 29078,
  "Abgesehen": 18729,
  "Abkommen": 10511,
  "Abkommens": 18730,
  "Above": 17321,
  "Abs": 40668,
  "Absatz": 46555,
  "AbschlieÃŁend": 4171,
  "Abweich": 46556,
  "Ac": 26726,
  "Access": 38025,
  "According": 7202,
  "Accordingly": 22090,
  "Acht": 38414,
  "Acid": 49582,
  "Act": 30027,
  "Action": 32102,
  "Actually": 38134,
  "Ad": 11023,
  "Add": 31464,
  "Addition": 29540,
  "Additional": 49762,
  "Additionality": 49763,
  "Administration": 48147,
  "Admittedly": 27806,
  "Adoption": 21375,
  "Aff": 43612,
  "AffÃ¤re": 28174,
  "Afr": 9195,
  "Africa": 14941,
  "African": 22941,
  "Afrika": 16258,
  "After": 6551,
  "Ag": 43611,
  "Again": 15942,
  "Against": 26512,
  "Agr": 38413,
  "Agreement": 30028,
  "Agricult": 26727,
  "Agricultural": 49583,
  "Agriculture": 34761,
  "Aid": 20814,
  "Air": 28172,
  "Akin": 23188,
  "Aktion": 28173,
  "Aktionsplan": 49678,
  "Al": 2325,
  "Alas": 36411,
  "Alban": 19803,
  "Albaner": 29784,
  "Albanern": 42443,
  "Albanian": 37736,
  "All": 2297,
  "Alle": 6550,
  "Allein": 24964,
  "Allerdings": 5991,
  "Alles": 14864,
  "Allgemein": 36402,
  "Allow": 10745,
  "Almost": 29020,
  "Along": 36412,
  "Already": 29019,
  "Als": 3516,
  "Also": 9888,
  "Alsthom": 30898,
  "Alstom": 46402,
  "Altern": 46401,
  "Although": 7024,
  "Am": 8310,
  "Amend": 7252,
  "Amendment": 9909,
  "Amendments": 13274,
  "Amer": 22348,
  "American": 26636,
  "Among": 21333,
  "Amongst": 31820,
  "Amsterdam": 47780,
  "An": 1293,
  "Analyse": 21866,
  "Analysen": 45926,
  "And": 2764,
  "Ander": 6746,
  "Andere": 17389,
  "Anderenfalls": 33805,
  "Andererseits": 9356,
  "Andernfalls": 21118,
  "Anders": 22079,
  "Anfang": 45923,
  "Anfrage": 7173,
  "Angaben": 36207,
  "Ange": 36206,
  "Angeblich": 45925,
  "Angesichts": 6882,
  "Angol": 33142,
  "Angola": 34994,
  "Anhang": 40215,
  "Animals": 40216,
  "Anlagen": 40214,
  "AnlÃ¤ÃŁlich": 33141,
  "Another": 9155,
  "Anscheinend": 30762,
  "AnschlieÃŁend": 45924,
  "Ansonsten": 21119,
  "Anstatt": 20409,
  "Anstelle": 25927,
  "Ant": 33140,
  "Any": 8976,
  "Anybody": 47868,
  "Anyone": 17880,
  "Anything": 33961,
  "Anyway": 47867,
  "Apart": 19522,
  "App": 17958,
  "Apparently": 34436,
  "Applause": 37642,
  "Appro": 42327,
  "April": 43614,
  "Ar": 19521,
  "Arbeit": 26588,
  "Arbeitnehmer": 42834,
  "Arbeits": 42833,
  "Are": 10558,
  "Armut": 49021,
  "Art": 9097,
  "Article": 12895,
  "Articles": 47877,
  "Artikel": 16256,
  "As": 1411,
  "Aside": 46012,
  "Ass": 35016,
  "At": 3082,
  "Atlant": 30987,
  "Atlantique": 43076,
  "Attemp": 46646,
  "Auch": 2794,
  "Auf": 3050,
  "Auff": 43613,
  "Aufgabe": 40718,
  "Aufgaben": 36549,
  "Aufgrund": 11241,
  "Aus": 2909,
  "Ausgangspunkt": 40688,
  "Ausgehend": 14873,
  "Ausschusses": 36518,
  "AusschuÃŁ": 21199,
  "Aust": 25390,
  "Austria": 31922,
  "AuÃŁ": 3787,
  "AuÃŁer": 31051,
  "AuÃŁerdem": 3883,
  "AuÃŁerhalb": 49879,
  "B": 29,
  "BC": 15279,
  "BI": 38418,
  "BIP": 35022,
  "BM": 32104,
  "BNFL": 38423,
  "BNO": 38425,
  "BP": 26728,
  "BSE": 23189,
  "BU": 38419,
  "Back": 32106,
  "Bananen": 25393,
  "Bank": 43620,
  "Bas": 16326,
  "Based": 32107,
  "Basically": 24123,
  "Basist": 26520,
  "Basistunnel": 38020,
  "Basistunnels": 38021,
  "Baut": 38422,
  "Bautista": 43376,
  "Be": 1732,
  "Beabsichtigt": 46170,
  "Beamten": 46167,
  "Bearing": 30030,
  "Because": 9406,
  "Bed": 18445,
  "Bedauer": 24150,
  "Bedauerlicherweise": 25366,
  "Bede": 35023,
  "Bedenken": 34461,
  "Bedeutet": 43234,
  "Bef": 33234,
  "Before": 14853,
  "BegrÃ¼ÃŁ": 46171,
  "Behind": 36305,
  "Behrendt": 9251,
  "BehÃ¶rde": 46169,
  "BehÃ¶rden": 46168,
  "Bei": 3118,
  "Beide": 15456,
  "Beides": 40364,
  "Beifall": 36304,
  "Beihilfen": 23734,
  "Beim": 14593,
  "Being": 28940,
  "Beispiel": 19224,
  "Beispiele": 46166,
  "Beispielsweise": 21498,
  "Beit": 26729,
  "Beitritt": 42842,
  "Beitritts": 49584,
  "Bek": 10131,
  "Bekanntlich": 11152,
  "BekÃ¤mpfung": 34049,
  "Bel": 28175,
  "Belg": 34799,
  "Bem": 35019,
  "Ben": 43616,
  "Bendit": 15281,
  "Bene": 38420,
  "Benefit": 43375,
  "Beob": 46164,
  "Ber": 4913,
  "Bereich": 22349,
  "Bereichs": 49247,
  "Bereits": 14147,
  "Berendt": 36780,
  "Bericht": 6738,
  "Berichten": 47125,
  "Berichterstatter": 23895,
  "Berichts": 29227,
  "Berlin": 47124,
  "BerÃ¼cksichtigt": 41068,
  "Bes": 8928,
  "Besch": 24252,
  "BeschluÃŁ": 37928,
  "BeschlÃ¼sse": 49400,
  "BeschrÃ¤n": 43623,
  "BeschÃ¤ft": 38421,
  "Besides": 29466,
  "Besonder": 10783,
  "Besonderes": 48118,
  "Besonders": 11435,
  "Bess": 43619,
  "Best": 20128,
  "Beste": 43622,
  "Bestimmte": 42457,
  "Bestimmungen": 29791,
  "Bet": 6698,
  "Betrifft": 8111,
  "Betrug": 47501,
  "Between": 22078,
  "Bevor": 17738,
  "Beyond": 46165,
  "Beziehungen": 40363,
  "BezÃ¼glich": 17739,
  "Big": 43618,
  "Bilateral": 43624,
  "Bis": 13535,
  "Bisher": 15280,
  "Bislang": 23190,
  "Bitte": 25391,
  "Bl": 35017,
  "Ble": 30029,
  "Bleiben": 35021,
  "Bleibt": 32046,
  "Bombard": 38424,
  "Bon": 43617,
  "Both": 11157,
  "Br": 32105,
  "Brenn": 26730,
  "Brennstoffe": 49585,
  "Brennstoffen": 49586,
  "Brit": 25392,
  "Britain": 49483,
  "British": 31923,
  "Brussels": 43113,
  "Bs": 35018,
  "Bu": 43615,
  "Budget": 43621,
  "Business": 35020,
  "But": 1614,
  "Butter": 33213,
  "By": 7203,
  "BÃ¼rger": 20129,
  "C": 30,
  "CAT": 18959,
  "CE": 32108,
  "CHA": 43630,
  "CIP": 38431,
  "CITES": 23191,
  "CNS": 8507,
  "CO": 3108,
  "COBU": 46652,
  "COD": 7237,
  "COM": 7732,
  "COS": 6893,
  "CP": 4252,
  "CR": 14979,
  "CT": 38426,
  "Can": 9098,
  "Canfranc": 30031,
  "Car": 26731,
  "Care": 43627,
  "Carpegn": 34762,
  "Carpegna": 35010,
  "Cart": 14461,
  "Certain": 15282,
  "Certainly": 19478,
  "Ch": 11880,
  "Chal": 28176,
  "Chaldean": 42924,
  "ChaldÃ¤": 42925,
  "ChaldÃ¤er": 43596,
  "Chancellor": 48256,
  "Changes": 37339,
  "Charta": 25125,
  "Che": 43626,
  "Child": 48255,
  "Children": 25126,
  "Chin": 24253,
  "China": 26667,
  "Christ": 9286,
  "Christdemokraten": 15555,
  "Christian": 12712,
  "Citizens": 28177,
  "Civil": 43628,
  "Cl": 43625,
  "Clear": 9369,
  "Clearly": 9814,
  "Closer": 43634,
  "Co": 22350,
  "Coco": 43632,
  "Coher": 43631,
  "Colle": 38429,
  "Coming": 26733,
  "Comm": 11881,
  "Commerce": 38433,
  "Commission": 5998,
  "Commissioner": 6340,
  "Committee": 34154,
  "Common": 41899,
  "Community": 14957,
  "Comp": 13753,
  "Compan": 32109,
  "Companies": 34923,
  "Compared": 31559,
  "Competition": 20730,
  "Con": 7398,
  "Concern": 21318,
  "Concerning": 23159,
  "Cons": 13973,
  "Consequently": 11142,
  "Consider": 29628,
  "Consideration": 43004,
  "Considering": 49766,
  "Consumer": 42054,
  "Consumers": 21421,
  "Contrary": 33857,
  "Control": 41429,
  "Cooperation": 31836,
  "Coordination": 49248,
  "Cor": 38427,
  "Corm": 11310,
  "Could": 12022,
  "Coun": 26732,
  "Council": 38026,
  "Countries": 49587,
  "Creating": 43635,
  "Crit": 38428,
  "Cross": 43629,
  "Cuba": 32110,
  "Cultural": 35024,
  "Culture": 38430,
  "Curious": 43633,
  "Curr": 28178,
  "Current": 42926,
  "Currently": 42927,
  "Cyprus": 38432,
  "D": 31,
  "DA": 5418,
  "DAC": 19902,
  "DAQ": 36855,
  "DB": 28179,
  "DC": 20815,
  "DE": 7971,
  "DEC": 32111,
  "DF": 28180,
  "DG": 38434,
  "DI": 15283,
  "DP": 38435,
  "DR": 10334,
  "DS": 8508,
  "DY": 43636,
  "Da": 1628,
  "Dabei": 4890,
  "Dadurch": 12180,
  "DafÃ¼r": 10735,
  "Dage": 21531,
  "Dagegen": 22327,
  "Dah": 43641,
  "Daher": 3397,
  "Dam": 18446,
  "Damals": 21485,
  "Damit": 4143,
  "Danach": 17111,
  "Daneben": 30033,
  "Dank": 21532,
  "Danke": 26734,
  "Dann": 6854,
  "Dar": 2726,
  "Daran": 15798,
  "Darauf": 11399,
  "Daraus": 14365,
  "Dare": 38438,
  "Darf": 19823,
  "Darin": 12466,
  "Darum": 7380,
  "Darunter": 36484,
  "DarÃ¼ber": 6189,
  "Das": 720,
  "Dasselbe": 21534,
  "Davon": 12438,
  "Dazu": 6182,
  "DaÃŁ": 11024,
  "De": 13108,
  "Dec": 24255,
  "Decisions": 37929,
  "Del": 22351,
  "Delays": 42583,
  "Delegation": 34214,
  "Delors": 37832,
  "Dem": 5931,
  "Dement": 43643,
  "Demnach": 31225,
  "Democracy": 33741,
  "Democratic": 47355,
  "Demokratie": 36913,
  "Demonstr": 33740,
  "Demonstrationsanlage": 35001,
  "Demzufolge": 19337,
  "Den": 7044,
  "Denken": 20816,
  "Denn": 4431,
  "Dennis": 47013,
  "Dennoch": 7296,
  "Der": 964,
  "Derartige": 21837,
  "Deren": 43642,
  "Derivate": 20385,
  "Derivaten": 36103,
  "Derzeit": 13195,
  "Des": 1696,
  "Desgleichen": 23634,
  "Deshalb": 2058,
  "Despite": 11651,
  "Dessen": 35025,
  "Deswegen": 11807,
  "Deut": 37411,
  "Deutschland": 43345,
  "Develop": 41990,
  "Development": 48400,
  "Did": 43639,
  "Die": 444,
  "Diejenigen": 21781,
  "Dienst": 24254,
  "Dienstleistungsaus": 31888,
  "Dienstleistungsausweis": 38204,
  "Dies": 847,
  "DiesbezÃ¼glich": 17267,
  "Diese": 1663,
  "Dieselbe": 45648,
  "Diesem": 18638,
  "Diesen": 16082,
  "Dieser": 3796,
  "Dieses": 4944,
  "Diesmal": 36061,
  "Different": 43646,
  "Dire": 38440,
  "Direct": 35027,
  "Directive": 43235,
  "Dis": 43637,
  "Disc": 35026,
  "Do": 5930,
  "Doch": 3548,
  "Does": 10314,
  "Dokument": 43647,
  "Dollar": 15943,
  "Dom": 43638,
  "Dort": 13974,
  "Dossiers": 43645,
  "Dra": 38436,
  "Drei": 21533,
  "Dring": 38439,
  "Dringend": 43378,
  "Dritt": 43644,
  "Dritte": 38441,
  "Drittens": 6516,
  "Due": 30032,
  "Durch": 7092,
  "During": 10660,
  "DÃ¶r": 38437,
  "DÃ¶rfler": 43377,
  "DÃ¼r": 43640,
  "E": 32,
  "EA": 28181,
  "EAD": 4072,
  "EADER": 4089,
  "EC": 5932,
  "ECE": 31226,
  "ECHAR": 47357,
  "ECHO": 21282,
  "ECSC": 47356,
  "ED": 14462,
  "EEC": 18961,
  "EF": 10794,
  "EFA": 41804,
  "EG": 10029,
  "EGKS": 48000,
  "EGRA": 41719,
  "EK": 43648,
  "EL": 12731,
  "EM": 30034,
  "EN": 4594,
  "ENER": 16606,
  "EO": 26735,
  "EP": 18960,
  "EQUAL": 26739,
  "ER": 2375,
  "ES": 10030,
  "EU": 6785,
  "EUR": 26253,
  "EWG": 18448,
  "EX": 20130,
  "EXPLANATIONS": 34548,
  "Each": 18447,
  "Ear": 43650,
  "East": 26736,
  "Eastern": 21535,
  "Eben": 14980,
  "Ebene": 20131,
  "Ebenfalls": 17471,
  "Ebenso": 8716,
  "Ebensowenig": 24256,
  "Echelon": 35030,
  "Economic": 26738,
  "Eff": 43652,
  "Effective": 43659,
  "Effekt": 43660,
  "Ehe": 28182,
  "Eigentlich": 28184,
  "Ein": 1947,
  "Eine": 2865,
  "Einem": 33273,
  "Einen": 19794,
  "Einer": 13644,
  "Einerseits": 19236,
  "Eines": 14858,
  "EinfÃ¼hrung": 46264,
  "Einige": 7437,
  "Einkommen": 30036,
  "Eins": 40439,
  "Either": 43655,
  "El": 38442,
  "Ele": 43651,
  "Elekt": 43657,
  "Element": 43654,
  "Emissionen": 19523,
  "Emp": 15944,
  "Empfehl": 20767,
  "Empfehlung": 22314,
  "Employers": 48660,
  "Employment": 42193,
  "En": 6028,
  "Ende": 31229,
  "Endlich": 41254,
  "Enlargement": 24947,
  "Ens": 47369,
  "Ent": 9802,
  "Ents": 26220,
  "Entscheidend": 20671,
  "Entscheidung": 41696,
  "Entscheidungen": 47966,
  "EntschlieÃŁung": 34022,
  "EntschlieÃŁungsantrag": 20670,
  "Entsprechend": 29920,
  "Entw": 31230,
  "Entweder": 38189,
  "Entwicklung": 47965,
  "Environment": 29316,
  "Environmental": 49756,
  "Epidemie": 43662,
  "Equality": 43658,
  "Equally": 26740,
  "Er": 1955,
  "Ereign": 43656,
  "Erforder": 25981,
  "Erforderlich": 29915,
  "Erfre": 21911,
  "Erfreulicherweise": 24215,
  "ErgÃ¤nz": 33278,
  "Erheb": 46275,
  "Erinnern": 36343,
  "Erk": 46272,
  "ErklÃ¤rungen": 33279,
  "Erkrankungen": 46276,
  "Erlauben": 25982,
  "Erst": 14104,
  "Erstaun": 36342,
  "Erstaunlicherweise": 38369,
  "Erste": 40444,
  "Erstens": 4660,
  "Erster": 40445,
  "Erweiterung": 27371,
  "ErwÃ¤": 46274,
  "Erzeug": 46273,
  "Erzeuger": 28973,
  "Es": 721,
  "Especially": 35031,
  "Essential": 45548,
  "Et": 43649,
  "Eth": 43653,
  "Etw": 28183,
  "Etwa": 49679,
  "Etwas": 38081,
  "Euro": 26737,
  "Europ": 2427,
  "Europa": 7493,
  "Europe": 4984,
  "European": 4734,
  "Europeans": 31153,
  "Europol": 46434,
  "EuropÃ¤er": 43661,
  "EuropÃ¤ische": 30035,
  "Ev": 35028,
  "Even": 6822,
  "Event": 32112,
  "Eventually": 49919,
  "Eventuell": 49920,
  "Ever": 35029,
  "Every": 7972,
  "Everyone": 12158,
  "Everything": 27711,
  "Ex": 10559,
  "Examples": 48080,
  "Exc": 41773,
  "Except": 48078,
  "Excess": 37259,
  "Existing": 48079,
  "Exp": 27796,
  "Expenditure": 48082,
  "Experien": 31989,
  "Experience": 34919,
  "Extending": 48081,
  "F": 33,
  "FIN": 16327,
  "FL": 9919,
  "FO": 35032,
  "FOR": 16328,
  "FR": 5174,
  "FYROM": 32116,
  "Fa": 38443,
  "Faced": 28187,
  "Fahr": 35033,
  "Fail": 38445,
  "Failure": 43379,
  "Fall": 15945,
  "Falles": 48661,
  "Falls": 24111,
  "Famil": 32114,
  "Far": 28185,
  "Farm": 28186,
  "Farmers": 31997,
  "Fast": 24257,
  "Fe": 26741,
  "Fehl": 42843,
  "Ferner": 10560,
  "Fest": 43663,
  "Fifthly": 30037,
  "Fifty": 43673,
  "Fight": 43665,
  "Fin": 2795,
  "Fina": 29073,
  "Finally": 3002,
  "Financial": 33406,
  "Finanz": 22750,
  "Finanzierung": 42607,
  "Findet": 38446,
  "Fine": 43666,
  "Finland": 36498,
  "Finn": 43667,
  "Fiori": 38448,
  "First": 2995,
  "Firstly": 4447,
  "Fischerei": 43669,
  "Fishing": 38447,
  "Five": 43664,
  "Fl": 18962,
  "Flachs": 42374,
  "Flax": 38449,
  "Flor": 32115,
  "Flora": 38213,
  "Flower": 48953,
  "Flug": 37690,
  "Fol": 12925,
  "Folgende": 48375,
  "Folglich": 14454,
  "Following": 13754,
  "Food": 21536,
  "For": 2218,
  "Former": 46364,
  "Fort": 17112,
  "Fortsetzung": 37601,
  "Fortunately": 21472,
  "Four": 12539,
  "Fourthly": 14706,
  "Fra": 1653,
  "Fragen": 35034,
  "Fraktion": 5248,
  "France": 25394,
  "Frank": 23192,
  "Frankly": 34646,
  "Frankreich": 34647,
  "Fraternity": 43671,
  "Frau": 1997,
  "Fraud": 25956,
  "Frauen": 28932,
  "Fre": 12732,
  "Free": 38444,
  "Freedom": 41965,
  "Freie": 15585,
  "Frieden": 35036,
  "From": 8311,
  "FrÃ¼": 35035,
  "FrÃ¼her": 38292,
  "Full": 32113,
  "Fund": 26742,
  "Fundamental": 31955,
  "Funding": 43670,
  "Further": 4791,
  "Furthermore": 5172,
  "Future": 43672,
  "FÃ¤": 22352,
  "FÃ¤lle": 29838,
  "FÃ¤llen": 37833,
  "FÃ¶rder": 35037,
  "FÃ¶rderung": 43668,
  "FÃ¼nftens": 23193,
  "FÃ¼r": 3381,
  "G": 34,
  "GA": 13975,
  "GAW": 15271,
  "GC": 5346,
  "GF": 20132,
  "GI": 38450,
  "GM": 28188,
  "GMOs": 38082,
  "GUE": 38453,
  "GVO": 38452,
  "Ganz": 11025,
  "Garant": 43680,
  "Ge": 6949,
  "Geb": 19356,
  "Geben": 43679,
  "Gebie": 31281,
  "Gebiet": 28011,
  "Gebiete": 32090,
  "Gebieten": 42408,
  "GebÃ¤ude": 42409,
  "Ged": 43674,
  "Gefordert": 41362,
  "Gegen": 14659,
  "GegenwÃ¤rtig": 17931,
  "GegenÃ¼ber": 48559,
  "Gehen": 43678,
  "Gel": 26743,
  "Geld": 22354,
  "Gelder": 49588,
  "Geldern": 49589,
  "Gem": 10917,
  "Gemein": 14693,
  "Gemeinsam": 17086,
  "Gemeinsame": 42268,
  "Gemeinsamer": 25246,
  "Gemeinschaft": 48560,
  "GemÃ¤ÃŁ": 18363,
  "Gen": 4526,
  "Genau": 13467,
  "Genauso": 29200,
  "Gene": 20817,
  "Genehmigung": 22316,
  "General": 6437,
  "Generally": 29201,
  "Generals": 47455,
  "GeneralsekretÃ¤r": 26241,
  "GeneralsekretÃ¤rs": 31949,
  "Generalversammlung": 47456,
  "Generell": 36733,
  "Genet": 33601,
  "Genuine": 47027,
  "Ger": 9817,
  "Gerade": 11018,
  "German": 37202,
  "Gern": 35038,
  "Ges": 13109,
  "Gesellschaft": 35039,
  "Gesetz": 29609,
  "Gesetzgebung": 38125,
  "GesprÃ¤": 37412,
  "Gest": 11882,
  "Gestatten": 12340,
  "Gestern": 19444,
  "Gesundheit": 48401,
  "Gew": 18313,
  "Gewalt": 31280,
  "Gewerk": 41363,
  "GewiÃŁ": 22277,
  "Gibt": 17113,
  "Gipfel": 15284,
  "Gipfels": 38455,
  "Given": 12540,
  "Glauben": 24258,
  "Gleich": 5440,
  "GleichermaÃŁen": 36857,
  "Gleiches": 29276,
  "Gleichwohl": 14906,
  "Gleichzeitig": 7144,
  "Global": 28190,
  "Globalisation": 34800,
  "GlÃ¼cklicherweise": 28191,
  "Go": 30038,
  "Gong": 43676,
  "Good": 38451,
  "Gott": 43677,
  "Governments": 34865,
  "Gr": 16732,
  "Grain": 38454,
  "Great": 30039,
  "Greater": 34866,
  "Greece": 20818,
  "Grenz": 32117,
  "Grie": 22353,
  "Griechenland": 23169,
  "Gro": 28189,
  "GroÃŁ": 42928,
  "GroÃŁe": 49680,
  "Grund": 17102,
  "Grundlage": 37600,
  "Grundrechte": 48779,
  "GrundsÃ¤tzlich": 34394,
  "Gruppe": 20133,
  "Gut": 43675,
  "H": 35,
  "HA": 9708,
  "HAR": 43684,
  "HCR": 28194,
  "HEC": 38461,
  "HIM": 35042,
  "HL": 38456,
  "HNE": 23194,
  "HO": 5624,
  "Ha": 7093,
  "Hab": 35040,
  "Haben": 19360,
  "Habitat": 38293,
  "Had": 38458,
  "Haftpflicht": 41396,
  "Haftpflichtversicherung": 43583,
  "Halten": 35041,
  "Handel": 43685,
  "Handelt": 38462,
  "Harmon": 38459,
  "Has": 16329,
  "Hat": 17505,
  "Hauptziel": 47563,
  "Haus": 16330,
  "Haushalt": 27933,
  "Haushalts": 23077,
  "Have": 18963,
  "Having": 9190,
  "He": 3572,
  "Hein": 38457,
  "Heinz": 43380,
  "Helsinki": 43683,
  "Hence": 13319,
  "Her": 11727,
  "Here": 9196,
  "Herr": 679,
  "Herrn": 18154,
  "Hervor": 38460,
  "Hervorzuheben": 43381,
  "Herz": 48244,
  "Herzeg": 14956,
  "Herzegovina": 21440,
  "Herzegowina": 23057,
  "Heute": 6258,
  "Heutzutage": 33495,
  "Hier": 3236,
  "Hierbei": 18741,
  "Hierdurch": 36563,
  "HierfÃ¼r": 31001,
  "Hiermit": 36562,
  "Hierzu": 16151,
  "High": 30040,
  "Hilfe": 35043,
  "Hin": 8429,
  "Hingegen": 27720,
  "Hinsichtlich": 12161,
  "Hinter": 25396,
  "Hinzu": 17871,
  "HinzufÃ¼gen": 37112,
  "His": 28192,
  "Hist": 28193,
  "History": 34801,
  "Hitherto": 43686,
  "Ho": 14981,
  "Hoch": 43682,
  "Hoffen": 31603,
  "Hoffentlich": 18914,
  "Hon": 43681,
  "Hope": 30041,
  "Hopefully": 34867,
  "How": 5625,
  "However": 1582,
  "Human": 15946,
  "Hunderttausende": 43687,
  "Hunger": 43688,
  "HÃ¤tte": 35044,
  "HÃ¤ufig": 26744,
  "HÃ¶": 25395,
  "HÃ¶chst": 49484,
  "HÃ¶hen": 42765,
  "I": 36,
  "IA": 32118,
  "IB": 23195,
  "IC": 14982,
  "IDS": 8786,
  "IE": 25397,
  "IF": 5809,
  "IFE": 5965,
  "II": 7514,
  "III": 15214,
  "IK": 11883,
  "IKA": 48257,
  "IL": 32119,
  "IM": 22355,
  "IN": 11311,
  "INA": 37310,
  "INI": 29545,
  "INTERREG": 23196,
  "IO": 28195,
  "IONS": 29960,
  "IP": 4756,
  "IPC": 9176,
  "IPO": 10994,
  "IPOL": 31463,
  "IS": 12181,
  "IT": 7346,
  "ITES": 13715,
  "ITS": 17394,
  "IV": 28196,
  "IZ": 38463,
  "IZON": 43382,
  "Ich": 438,
  "Ide": 30042,
  "Ideally": 49788,
  "If": 1676,
  "Ihm": 38465,
  "Ihnen": 28197,
  "Ihr": 13976,
  "Ihre": 12023,
  "Ihren": 38466,
  "Ihrer": 42055,
  "Im": 1817,
  "Imagine": 46222,
  "Immer": 20446,
  "Immerhin": 37766,
  "Imp": 20819,
  "Import": 36325,
  "Impro": 29809,
  "Improved": 49773,
  "Improving": 49774,
  "In": 447,
  "Inc": 18604,
  "Incidentally": 34471,
  "Incineration": 48934,
  "Incre": 29752,
  "Increased": 43008,
  "Increasing": 43009,
  "Ind": 13605,
  "Indeed": 5883,
  "Indem": 21783,
  "India": 42021,
  "Indian": 31556,
  "Indianer": 38198,
  "Indien": 39741,
  "Individual": 48451,
  "Industr": 48450,
  "Industrie": 37439,
  "Industry": 37440,
  "Infe": 39740,
  "Infektionen": 43526,
  "Infolge": 28679,
  "Infolgedessen": 45277,
  "Inform": 39739,
  "Information": 25771,
  "Infrastruktur": 35857,
  "Initiative": 9313,
  "Initiativen": 35856,
  "Inn": 39737,
  "Innen": 39738,
  "Inner": 19696,
  "Innerhalb": 20121,
  "Ins": 8958,
  "Insbesondere": 12521,
  "Inseln": 45279,
  "Insgesamt": 17037,
  "Insofern": 11491,
  "Inspektionen": 45280,
  "Inspektoren": 35858,
  "Instead": 9851,
  "Institut": 45278,
  "Institutionen": 30570,
  "Inter": 15717,
  "Interessant": 34334,
  "International": 22585,
  "Interoperability": 34333,
  "Intervention": 48648,
  "Invest": 23479,
  "Investitionen": 49351,
  "Investment": 42654,
  "Investments": 49350,
  "Inwieweit": 25772,
  "Inzwischen": 16460,
  "Ir": 20134,
  "Ira": 38464,
  "Iraq": 43383,
  "Irgend": 37747,
  "Irrespective": 42458,
  "Is": 5257,
  "Israel": 21267,
  "Israeli": 49179,
  "Issues": 43689,
  "Ist": 7306,
  "It": 603,
  "Italien": 39877,
  "Italy": 45454,
  "Its": 13110,
  "Ivoire": 28198,
  "J": 37,
  "JUS": 32121,
  "Ja": 13755,
  "Jac": 43690,
  "Jahr": 32120,
  "Jahre": 30044,
  "Jahrelang": 34868,
  "Jahres": 49921,
  "Jak": 30043,
  "Jakob": 32047,
  "Je": 16733,
  "Jed": 7973,
  "Jede": 17867,
  "Jedem": 47743,
  "Jedenfalls": 18330,
  "Jeder": 10918,
  "Jedes": 19372,
  "Jedesmal": 49013,
  "Jedoch": 18329,
  "Jegliche": 42254,
  "Jetzt": 8248,
  "John": 38469,
  "Joint": 26745,
  "Journal": 38468,
  "Jr": 38467,
  "Jrgensen": 43384,
  "Jugoslaw": 26746,
  "Jugoslawien": 31956,
  "Just": 9610,
  "Justice": 47944,
  "K": 38,
  "KK": 20135,
  "KOM": 7859,
  "KP": 4271,
  "KS": 43691,
  "KW": 30045,
  "KallstrÃ¶m": 21537,
  "Kann": 12024,
  "Kar": 35046,
  "Katastrophe": 38476,
  "Ke": 30046,
  "Kein": 18449,
  "Keine": 24260,
  "Keiner": 37665,
  "Kenn": 14984,
  "Kennzeichnend": 48581,
  "Kennzeichnung": 48580,
  "Key": 49789,
  "Kinder": 28199,
  "Kl": 35045,
  "Klar": 30047,
  "Kle": 38470,
  "Klein": 35049,
  "Know": 38472,
  "Ko": 32122,
  "KohÃ¤renz": 49922,
  "Kollege": 28201,
  "Kollegen": 43695,
  "Kommen": 38471,
  "Kommissar": 24259,
  "Kommissarin": 49401,
  "Kommission": 14983,
  "Kommissions": 34302,
  "Kommissionsmitglied": 38281,
  "Kon": 9197,
  "Konferenz": 19981,
  "Konflikt": 31379,
  "Konflikts": 49898,
  "Kong": 43693,
  "Konkret": 25052,
  "Konting": 33976,
  "Kontingents": 43213,
  "Kontro": 23964,
  "Kontrolle": 37915,
  "Kontrollen": 34680,
  "Konvention": 47893,
  "Kop": 43692,
  "Kopf": 20820,
  "Kos": 35047,
  "Kosovo": 43236,
  "Krank": 28200,
  "Krankheit": 31998,
  "Krieg": 26747,
  "Krise": 16331,
  "Krit": 22356,
  "Kriterien": 26637,
  "Kuba": 38475,
  "Kultur": 38474,
  "Kulturen": 43696,
  "Kurs": 38473,
  "Kurz": 11728,
  "Kurzfristig": 48245,
  "Kurzum": 18883,
  "KÃ¶n": 9099,
  "KÃ¶nn": 15550,
  "KÃ¶nnen": 12522,
  "KÃ¶nnte": 26506,
  "KÃ¶nnten": 20078,
  "KÃ¼nft": 35048,
  "KÃ¼nftig": 43237,
  "KÃ¼rz": 43694,
  "L": 39,
  "LA": 43697,
  "LAF": 3511,
  "LDC": 38483,
  "LDCs": 43385,
  "LEADER": 22358,
  "LIFE": 28202,
  "LIM": 32125,
  "LP": 30048,
  "LT": 15285,
  "La": 43698,
  "Ladies": 10441,
  "Land": 23197,
  "Lang": 26749,
  "Lange": 38478,
  "Langfristig": 34763,
  "Large": 35050,
  "Lassen": 5532,
  "Last": 6304,
  "Lastly": 8496,
  "Later": 38479,
  "Laut": 25398,
  "Le": 6484,
  "Leb": 36961,
  "Lebensmittel": 41312,
  "Lebhafter": 43330,
  "Lediglich": 43707,
  "Leg": 23198,
  "Legal": 34648,
  "Legisl": 34649,
  "Legislation": 38285,
  "Leider": 7853,
  "Leinen": 13536,
  "Leit": 43701,
  "Lesen": 38481,
  "Less": 38477,
  "Let": 3722,
  "Letz": 14724,
  "Letzt": 24261,
  "Letzte": 31590,
  "Letzten": 24262,
  "Letztendlich": 26477,
  "Letzter": 25201,
  "Letztere": 49476,
  "Letzteres": 49477,
  "Letztlich": 28097,
  "Liberal": 22357,
  "Liberalisation": 29839,
  "Lie": 26748,
  "Liebe": 18964,
  "Liegt": 38027,
  "Liest": 43706,
  "Life": 43704,
  "Like": 11440,
  "Likewise": 34131,
  "Lim": 43700,
  "Lis": 30049,
  "Lisbon": 32048,
  "Lissabon": 32124,
  "List": 43702,
  "Listen": 38480,
  "Liz": 43703,
  "Local": 35051,
  "Log": 32123,
  "Logischerweise": 49923,
  "Look": 28203,
  "Looking": 31999,
  "Lothringen": 28204,
  "Loud": 38482,
  "Luft": 43705,
  "LÃ¤nder": 10232,
  "LÃ¤ndern": 10440,
  "LÃ¼": 43699,
  "M": 40,
  "ME": 25399,
  "MEDA": 49485,
  "MENT": 31924,
  "MU": 7307,
  "MV": 35052,
  "MW": 38484,
  "Ma": 32126,
  "Mac": 43716,
  "Macedonia": 43114,
  "Machen": 32128,
  "Mad": 38486,
  "Madam": 2380,
  "Madame": 43387,
  "Mail": 21539,
  "Mails": 38491,
  "Mainstreaming": 38493,
  "Making": 38489,
  "Malt": 26751,
  "Malta": 28130,
  "Man": 2893,
  "Manch": 46583,
  "Manche": 19261,
  "Manchmal": 30974,
  "Many": 7893,
  "Mar": 28205,
  "Marg": 15947,
  "Margallo": 16325,
  "Maritime": 49681,
  "Mark": 38488,
  "Markt": 43717,
  "Mary": 32127,
  "Mat": 38485,
  "Math": 22359,
  "Mathies": 23170,
  "Matthews": 43386,
  "May": 12182,
  "Maybe": 27833,
  "Maz": 30051,
  "Mazedonien": 32049,
  "MaÃŁ": 43714,
  "MaÃŁnahmen": 30052,
  "Me": 9011,
  "Mean": 20136,
  "Meanwhile": 20806,
  "Meas": 41613,
  "Measures": 31366,
  "Mechanismus": 41614,
  "Med": 12025,
  "Mediterranean": 13098,
  "Mehr": 11285,
  "Mehrere": 26400,
  "Mehrfach": 48183,
  "Mein": 2349,
  "Meine": 4832,
  "Meinem": 46409,
  "Meinen": 30903,
  "Meiner": 5551,
  "Meines": 8224,
  "Member": 13320,
  "Members": 21410,
  "Men": 13977,
  "Menschen": 14458,
  "Menschenrechte": 31583,
  "Menschenrechts": 18403,
  "Menschenrechtskommission": 25270,
  "Mention": 43715,
  "Mer": 43709,
  "Mex": 18965,
  "Mexico": 25279,
  "Mexiko": 31742,
  "Mich": 16734,
  "Might": 38487,
  "Mil": 26750,
  "Mill": 20821,
  "Millionen": 34566,
  "Millions": 31803,
  "Mind": 43712,
  "Minister": 30050,
  "Mir": 7909,
  "Mit": 2477,
  "Mitglie": 11948,
  "Mitglied": 14959,
  "Mitglieder": 31495,
  "Mitgliedern": 37348,
  "Mitgliedschaft": 37508,
  "Mitgliedstaaten": 18408,
  "Mitt": 35057,
  "Mitte": 43713,
  "Mittel": 9440,
  "Mittelmeer": 14684,
  "Mitteln": 22139,
  "Mittlerweile": 38294,
  "Mitunter": 36448,
  "Mo": 43708,
  "Modell": 38490,
  "Mold": 26752,
  "Moldau": 49590,
  "Moldova": 34764,
  "Moment": 26753,
  "Momentan": 28131,
  "Mon": 43710,
  "More": 5441,
  "Moreover": 6946,
  "Morgantini": 38492,
  "Morgen": 28206,
  "Most": 12026,
  "Motion": 25400,
  "Moving": 35060,
  "Mozamb": 35058,
  "Mozambique": 38295,
  "Mr": 640,
  "Mrs": 5824,
  "Much": 20822,
  "Munich": 35059,
  "Must": 35053,
  "Mut": 43711,
  "MuÃŁ": 23199,
  "My": 3479,
  "MÃ¤rkten": 43718,
  "MÃ¶": 17506,
  "MÃ¶chte": 24136,
  "MÃ¶ge": 34417,
  "MÃ¶glich": 21538,
  "MÃ¶glicherweise": 25326,
  "MÃ¼n": 35054,
  "MÃ¼nchen": 43238,
  "MÃ¼nd": 35056,
  "MÃ¼ssen": 35055,
  "N": 41,
  "NARD": 43723,
  "NAT": 43722,
  "NE": 21540,
  "NF": 43719,
  "NFL": 11884,
  "NG": 11441,
  "NGL": 12531,
  "NL": 19524,
  "NO": 32129,
  "NP": 32130,
  "NS": 7801,
  "NT": 4098,
  "NTER": 4323,
  "NTERREG": 4339,
  "Nach": 2439,
  "Nachdem": 12838,
  "Nally": 23200,
  "Nap": 38495,
  "Napoletano": 43388,
  "National": 20823,
  "Nationale": 49130,
  "Natur": 13321,
  "Naturally": 16303,
  "Nature": 35062,
  "NatÃ¼rlich": 5123,
  "Naz": 32132,
  "Ne": 7700,
  "Near": 43720,
  "Neben": 13322,
  "Nebenbei": 41996,
  "Need": 15866,
  "Needless": 16721,
  "Neg": 28207,
  "Negotiations": 34802,
  "Nehmen": 18327,
  "Nein": 15601,
  "Neither": 18450,
  "Netz": 38494,
  "Neu": 47695,
  "Neue": 41476,
  "Neun": 47696,
  "Never": 6517,
  "Nevertheless": 6853,
  "New": 26277,
  "Next": 19957,
  "Neyra": 41477,
  "Nicht": 8186,
  "Nichts": 20137,
  "Nichtsdestotrotz": 34549,
  "Nie": 12542,
  "Niemals": 48340,
  "Niemand": 14707,
  "Niemandem": 48561,
  "Ninety": 43724,
  "No": 6747,
  "Nob": 23201,
  "Nobody": 25351,
  "Noch": 11568,
  "Nochmals": 41871,
  "Non": 12541,
  "None": 32131,
  "Nonetheless": 13100,
  "Nor": 10031,
  "Nord": 12926,
  "Nordic": 17066,
  "Nordische": 23020,
  "Norm": 30053,
  "Normal": 34039,
  "Normally": 49790,
  "Not": 9287,
  "Note": 38496,
  "Nothing": 23202,
  "Notwendig": 31384,
  "Now": 5597,
  "Nowadays": 31198,
  "Num": 35061,
  "Numerous": 38296,
  "Nun": 5392,
  "Nunmehr": 23854,
  "Nur": 6823,
  "Nutzen": 20824,
  "NÃ¼sse": 43721,
  "O": 42,
  "OEL": 35065,
  "OGAW": 43729,
  "OL": 14985,
  "OLAF": 22360,
  "OM": 5045,
  "ON": 35063,
  "OR": 14463,
  "OU": 35064,
  "OX": 11885,
  "OY": 32133,
  "Ob": 5320,
  "Ober": 43725,
  "Obgleich": 16623,
  "Obviously": 11844,
  "Obwohl": 9507,
  "Occ": 43726,
  "Oder": 17959,
  "Of": 4817,
  "Off": 16332,
  "Offen": 23203,
  "Offenbar": 37868,
  "Offensichtlich": 17484,
  "Office": 4683,
  "Oft": 25401,
  "Often": 32134,
  "Oftmals": 42766,
  "Ohne": 10032,
  "Oil": 38499,
  "On": 2160,
  "Once": 9488,
  "One": 4037,
  "Only": 8551,
  "Op": 26754,
  "Opinion": 49591,
  "Or": 12183,
  "Organ": 25137,
  "Organe": 49470,
  "Organisation": 42754,
  "Ort": 43727,
  "Os": 4719,
  "Other": 9818,
  "Others": 34024,
  "Otherwise": 16268,
  "Our": 3920,
  "Out": 38498,
  "Over": 11158,
  "Overall": 27808,
  "Oz": 38497,
  "Ozone": 43728,
  "P": 43,
  "PA": 38500,
  "PE": 5321,
  "PGI": 43734,
  "PL": 17114,
  "PLA": 42269,
  "PLANAT": 29716,
  "PLANATIONS": 30016,
  "PLOY": 34395,
  "PLUS": 48780,
  "POL": 16333,
  "PSE": 38506,
  "PT": 6994,
  "Paket": 28208,
  "Par": 3965,
  "Paradox": 33538,
  "Paradoxically": 43204,
  "Paragraph": 19861,
  "Parallel": 23782,
  "Parlament": 46900,
  "Parliament": 4755,
  "Parliamentary": 47081,
  "Part": 14725,
  "Partei": 46899,
  "Particular": 42114,
  "Partner": 20742,
  "Partnern": 48562,
  "Partnerschaft": 28034,
  "Parts": 40887,
  "Past": 43731,
  "Pat": 35066,
  "Patentrichtlinie": 43239,
  "Pe": 12543,
  "Peace": 48343,
  "Peat": 48341,
  "Pension": 38507,
  "People": 14708,
  "Per": 8717,
  "Perhaps": 9283,
  "Person": 16735,
  "Personally": 18929,
  "Personen": 48743,
  "PersÃ¶n": 28209,
  "PersÃ¶nlich": 29961,
  "Peter": 48342,
  "Pflanzen": 32136,
  "Pierre": 38509,
  "Pl": 12733,
  "Plan": 32135,
  "Plath": 13102,
  "Please": 14464,
  "Plus": 38504,
  "Point": 24263,
  "Policy": 35067,
  "Polit": 23204,
  "Political": 30055,
  "Politik": 17115,
  "Politiken": 34396,
  "Politisch": 37869,
  "Politische": 42624,
  "Portug": 26755,
  "Portugal": 28132,
  "Pos": 25402,
  "Positiv": 37974,
  "Post": 30054,
  "Postal": 49791,
  "Poul": 38508,
  "Poulenc": 43391,
  "Poverty": 38510,
  "Pr": 20825,
  "Pra": 38502,
  "Praktisch": 43389,
  "Pre": 20138,
  "Pres": 8051,
  "President": 8784,
  "Presidents": 29420,
  "Prevention": 31786,
  "Prinzip": 34567,
  "Prinzipiell": 43224,
  "Privat": 49131,
  "Pro": 4059,
  "Probably": 40903,
  "Problem": 21231,
  "Problematik": 42529,
  "Problems": 40901,
  "Produ": 18967,
  "Producers": 42376,
  "Produzenten": 42375,
  "Professor": 36675,
  "Program": 11674,
  "Programm": 10883,
  "Programme": 25122,
  "Programmen": 29562,
  "Programmes": 37327,
  "Programms": 17906,
  "Progress": 40902,
  "Projects": 46921,
  "Projekt": 22801,
  "Projekte": 29168,
  "Projekten": 46920,
  "Projekts": 49292,
  "Prom": 43730,
  "Prop": 18966,
  "Proper": 48954,
  "Proposal": 26578,
  "Proposed": 48955,
  "Prote": 46919,
  "Protokoll": 23786,
  "Protokolls": 34677,
  "Prov": 23785,
  "Provided": 37908,
  "Providing": 42675,
  "Prozesses": 33545,
  "ProzeÃŁ": 17788,
  "PrÃ¤sident": 20826,
  "PrÃ¤sidentschaft": 49132,
  "PrÃ¼": 43732,
  "Ps": 38501,
  "Public": 23205,
  "Punkt": 22361,
  "Punkte": 43733,
  "Purs": 38505,
  "Pursuant": 43390,
  "Put": 38503,
  "PÃĸ": 10561,
  "Q": 44,
  "QU": 6095,
  "QUAL": 6127,
  "Qu": 5187,
  "Quadras": 33661,
  "Quant": 47198,
  "Que": 38511,
  "Queir": 43392,
  "Question": 7141,
  "Questions": 29253,
  "Quite": 13263,
  "Quote": 47199,
  "R": 45,
  "RA": 26756,
  "RB": 5877,
  "RBAN": 5929,
  "RC": 32137,
  "RD": 43735,
  "RE": 3503,
  "REG": 4338,
  "RIP": 32139,
  "RK": 26757,
  "RM": 19525,
  "RO": 8312,
  "ROM": 10661,
  "RP": 30056,
  "Ra": 23206,
  "Racism": 28211,
  "Racist": 43740,
  "Rahmen": 38516,
  "Rail": 43738,
  "Rapid": 43739,
  "Rapporteur": 25352,
  "Rass": 38515,
  "Rassismus": 28212,
  "Rat": 21541,
  "Rather": 17960,
  "Re": 3237,
  "Reading": 36565,
  "Rec": 16577,
  "Recent": 40760,
  "Recently": 31660,
  "Recht": 22772,
  "Rechts": 22773,
  "Rechtsvorschriften": 37856,
  "Recommendation": 22255,
  "Red": 35068,
  "Ref": 46695,
  "Reference": 40759,
  "Reform": 31002,
  "Reg": 6296,
  "Regarding": 12686,
  "Regardless": 33770,
  "Regeln": 36564,
  "Regelung": 33466,
  "Regelungen": 33467,
  "Regierung": 27634,
  "Regierungen": 41284,
  "Regime": 27635,
  "Regimes": 36937,
  "Region": 24955,
  "Regional": 26232,
  "Regionale": 49567,
  "Regionen": 24956,
  "Regrett": 29334,
  "Regrettably": 30011,
  "Rein": 38513,
  "Rel": 25403,
  "Relating": 49487,
  "Relations": 49486,
  "Rem": 23207,
  "Remember": 24229,
  "Rene": 43737,
  "Rep": 32138,
  "Report": 10298,
  "Reports": 48037,
  "Republik": 49924,
  "Res": 14212,
  "Research": 38519,
  "Resolution": 19462,
  "Resolutionen": 26587,
  "Respect": 37461,
  "Respon": 42076,
  "Ret": 35069,
  "Revolution": 46696,
  "Richt": 8718,
  "Richtig": 33944,
  "Richtlinie": 10222,
  "Richtlinien": 31360,
  "Right": 30058,
  "Rind": 43736,
  "Ro": 38512,
  "Road": 43393,
  "Robles": 23208,
  "Rom": 24264,
  "Roma": 42693,
  "Romano": 42694,
  "Ru": 30057,
  "Rufen": 38518,
  "Ruijten": 32050,
  "Runde": 38517,
  "Russ": 28210,
  "Russia": 34803,
  "Rute": 38514,
  "Rutelli": 43394,
  "RuÃŁland": 32140,
  "S": 46,
  "SA": 9370,
  "SC": 14465,
  "SD": 28213,
  "SE": 2415,
  "SEC": 23686,
  "SEK": 29035,
  "SF": 18968,
  "SM": 38520,
  "SO": 25404,
  "SP": 6748,
  "SPA": 27654,
  "SPAR": 12147,
  "SR": 38521,
  "SSE": 43747,
  "ST": 20827,
  "START": 42505,
  "SU": 32141,
  "SV": 7457,
  "Sad": 21542,
  "Sadly": 25327,
  "Safety": 32144,
  "Sagen": 38526,
  "Sahar": 25411,
  "Saharan": 26686,
  "San": 43742,
  "Sanktionen": 38529,
  "Say": 38524,
  "Saying": 43395,
  "Sc": 14726,
  "Sch": 4253,
  "Schauen": 40965,
  "Schen": 43745,
  "SchlieÃŁlich": 6626,
  "Schlimmer": 36708,
  "SchluÃŁ": 46981,
  "Schne": 36706,
  "Schon": 16598,
  "Schottland": 46982,
  "Schutz": 33572,
  "Schweden": 31091,
  "Schwier": 36707,
  "Science": 42115,
  "Scientific": 48563,
  "Scot": 37496,
  "Scotland": 43349,
  "Screening": 48564,
  "Se": 2866,
  "Seattle": 33420,
  "Sech": 26043,
  "Sechs": 46565,
  "Sechstens": 29917,
  "Second": 33419,
  "Secondly": 3671,
  "Seen": 40677,
  "Sehen": 33418,
  "Sehr": 12646,
  "Seien": 29082,
  "Sein": 18969,
  "Seine": 25409,
  "Seiner": 34487,
  "Seit": 6950,
  "Seitdem": 27667,
  "Seite": 33816,
  "Seitens": 47542,
  "Sektor": 38528,
  "Selbst": 6341,
  "SelbstverstÃ¤ndlich": 8039,
  "Semit": 30060,
  "Semitic": 43022,
  "Semitism": 49792,
  "Ser": 38523,
  "Setting": 43748,
  "Setzen": 35073,
  "Seven": 46564,
  "Several": 25412,
  "Sh": 12927,
  "Shame": 34206,
  "She": 10562,
  "Shea": 48083,
  "Sheikh": 34072,
  "Should": 16300,
  "Sicher": 14466,
  "Sicherheit": 25406,
  "Sicherheits": 28113,
  "Sicherheitsrats": 38080,
  "Sicherlich": 23049,
  "Sie": 1500,
  "Similar": 17961,
  "Similarly": 18944,
  "Since": 6062,
  "Sind": 12184,
  "Sinn": 43746,
  "Six": 28214,
  "Sixthly": 42929,
  "Skandal": 38530,
  "Sm": 30059,
  "Small": 38135,
  "So": 1689,
  "Sobald": 24266,
  "Social": 17735,
  "Society": 28216,
  "Sod": 35070,
  "Sodann": 38297,
  "Sofern": 40350,
  "Sog": 25405,
  "Sogar": 26684,
  "Sol": 10442,
  "Solange": 14189,
  "Solche": 18868,
  "Soll": 8855,
  "Sollen": 28934,
  "Sollte": 11559,
  "Sollten": 21335,
  "Som": 19526,
  "Some": 6158,
  "Something": 31762,
  "Sometimes": 29771,
  "Somit": 14213,
  "Sonder": 35071,
  "Sonst": 32145,
  "Sorgen": 35072,
  "Sort": 43744,
  "Sound": 46148,
  "South": 26759,
  "Soviel": 25410,
  "Sow": 12027,
  "Soweit": 16291,
  "Sowohl": 20029,
  "Sozial": 33225,
  "Sp": 14727,
  "Spain": 29653,
  "Spanien": 31591,
  "Spe": 16334,
  "Speaking": 31645,
  "Special": 32143,
  "Specific": 42228,
  "Specifically": 37564,
  "Speed": 48706,
  "Speziell": 48707,
  "Sprechen": 38527,
  "SpÃ¤ter": 34294,
  "St": 3955,
  "Staat": 26115,
  "Staaten": 7447,
  "Staatliche": 42817,
  "Staats": 46891,
  "Stand": 23781,
  "Standards": 42674,
  "Standort": 49373,
  "Start": 46890,
  "Stat": 19290,
  "State": 31068,
  "Statt": 15819,
  "Status": 26583,
  "Ste": 43743,
  "Stellen": 26758,
  "Steuer": 13756,
  "Still": 27509,
  "Stimmen": 29156,
  "Stimmt": 36664,
  "Str": 13323,
  "Stra": 24265,
  "Straight": 49402,
  "Strasbourg": 37428,
  "Strategie": 37427,
  "StraÃŁburg": 42695,
  "Stre": 38525,
  "Strict": 41997,
  "Stru": 24054,
  "Struktur": 26664,
  "Strukturen": 49580,
  "Strukturfonds": 49581,
  "Stud": 31069,
  "Studies": 49881,
  "Stunden": 40885,
  "Sub": 7204,
  "Subject": 8044,
  "Subsid": 31292,
  "Subsidiarity": 49895,
  "Subsidies": 49894,
  "Subventionen": 47584,
  "Success": 43749,
  "Such": 9288,
  "Sum": 32142,
  "Summa": 34924,
  "Support": 30061,
  "Surely": 13537,
  "Sw": 38522,
  "Sweden": 28215,
  "Sy": 43741,
  "System": 16736,
  "Systems": 25407,
  "SÃ¤mt": 25408,
  "SÃ¤mtliche": 26685,
  "SÃ¼d": 18970,
  "SÃ¼dafrika": 37691,
  "T": 47,
  "TA": 10662,
  "TB": 43750,
  "TC": 12028,
  "TE": 25413,
  "TH": 35074,
  "TO": 2519,
  "TS": 17507,
  "TSE": 35075,
  "TSI": 48825,
  "TT": 21543,
  "Tag": 43756,
  "Tagung": 32147,
  "Take": 18971,
  "Taking": 30062,
  "Tal": 43753,
  "Tats": 24267,
  "Tatsache": 25367,
  "TatsÃ¤ch": 17962,
  "TatsÃ¤chlich": 18441,
  "Tausende": 35076,
  "Tax": 43758,
  "Te": 13111,
  "Tech": 37413,
  "Techn": 31541,
  "Technolog": 27858,
  "Technologien": 49670,
  "Technology": 49669,
  "Teil": 48402,
  "Tell": 38533,
  "Test": 32146,
  "Tests": 25416,
  "Th": 232,
  "Thank": 5942,
  "Thanks": 23874,
  "That": 1496,
  "The": 339,
  "Their": 14046,
  "Then": 9128,
  "There": 1303,
  "Therefore": 5216,
  "These": 2584,
  "They": 2727,
  "Thiery": 39292,
  "Think": 44728,
  "Thir": 39290,
  "Third": 6242,
  "Thirdly": 6549,
  "This": 635,
  "Those": 9938,
  "Though": 39291,
  "Thous": 30388,
  "Thousands": 32067,
  "Three": 20952,
  "Through": 14787,
  "Throughout": 31596,
  "Thus": 16825,
  "Tiere": 43757,
  "Time": 38532,
  "Timor": 35077,
  "To": 3504,
  "Tod": 6824,
  "Today": 6992,
  "Todesstrafe": 47519,
  "Together": 22787,
  "Tom": 25414,
  "Tomorrow": 26687,
  "Too": 20518,
  "Tour": 28217,
  "Tourism": 32000,
  "Tr": 43751,
  "Tra": 21544,
  "Tradition": 49198,
  "Trains": 42542,
  "Tran": 25415,
  "Trans": 22362,
  "Transfers": 49249,
  "Transparency": 37975,
  "Transparenz": 42767,
  "Tro": 43754,
  "Trotz": 8370,
  "Trotzdem": 14427,
  "Truppen": 38534,
  "Trust": 35078,
  "Trustfonds": 38298,
  "Tun": 43752,
  "Tur": 20139,
  "Turkey": 23144,
  "Turkish": 49070,
  "Turning": 17508,
  "Tw": 38531,
  "Twenty": 43396,
  "Two": 17116,
  "TÃ¤glich": 35079,
  "TÃ¼r": 43755,
  "U": 48,
  "UA": 35080,
  "UC": 38535,
  "UE": 10795,
  "ULT": 35081,
  "UN": 43759,
  "UR": 21545,
  "URBAN": 30064,
  "URE": 43761,
  "URSO": 34584,
  "US": 17509,
  "UTS": 25417,
  "Ult": 38536,
  "Ultimately": 43397,
  "Um": 4229,
  "Umwelt": 24861,
  "Un": 1244,
  "UnabhÃ¤ngig": 17713,
  "Unanimity": 40189,
  "Und": 2528,
  "Under": 11159,
  "Understand": 48166,
  "Undoubtedly": 46467,
  "Unemployment": 45888,
  "Unfortunately": 6971,
  "Ungeachtet": 30750,
  "Unklar": 45887,
  "Unless": 18663,
  "Unlike": 30749,
  "Uns": 3008,
  "Unser": 5992,
  "Unsere": 5716,
  "Unseren": 40704,
  "Unserer": 10772,
  "Unseres": 36916,
  "Unter": 6360,
  "Unternehmen": 21293,
  "Unterschiedliche": 47432,
  "UnterstÃ¼tz": 31252,
  "UnterstÃ¼tzen": 49891,
  "UnterstÃ¼tzung": 49892,
  "Untersuchung": 41292,
  "Until": 19205,
  "Up": 28218,
  "Upon": 43760,
  "Ur": 30063,
  "Urheberrechts": 49793,
  "Urs": 43762,
  "V": 49,
  "VA": 38537,
  "VC": 17963,
  "VE": 20828,
  "VIII": 25419,
  "VO": 6159,
  "VP": 8249,
  "Vaclav": 43765,
  "Van": 32148,
  "Various": 26760,
  "Ver": 5369,
  "Verb": 25418,
  "Verbindung": 49488,
  "Verd": 43763,
  "Vere": 18452,
  "Verehrte": 20789,
  "Verehrter": 48913,
  "Verein": 30065,
  "Vereinbarungen": 38136,
  "Verfahren": 23852,
  "Verg": 18453,
  "Vergangene": 47253,
  "Vergessen": 24151,
  "Verglichen": 37666,
  "Verhandlungen": 27588,
  "VerhÃ¤lt": 29269,
  "VerhÃ¤ltnis": 32033,
  "Verkehr": 31184,
  "Vermutlich": 36849,
  "Verordnung": 23851,
  "Verpflichtet": 41156,
  "Vers": 32149,
  "Versammlung": 49925,
  "Verschiedene": 47254,
  "Verst": 28219,
  "VerstÃ¤nd": 32001,
  "VerstÃ¤ndlicherweise": 34920,
  "Vert": 32150,
  "Vertrag": 8430,
  "Vertrages": 49927,
  "Vertrags": 13290,
  "Vertreter": 49926,
  "VertrÃ¤ge": 23853,
  "VertrÃ¤gen": 36848,
  "Very": 18288,
  "Viel": 6552,
  "Viele": 7746,
  "Vielen": 7399,
  "Vieles": 36970,
  "Vielleicht": 8244,
  "Vielmehr": 21297,
  "Vier": 12544,
  "Viertens": 14200,
  "Viol": 35083,
  "Violence": 43240,
  "Virus": 43764,
  "Voggenhuber": 24268,
  "Voll": 35082,
  "Vom": 18451,
  "Von": 5722,
  "Vor": 4215,
  "Voraussetzung": 33565,
  "Vorhaben": 36698,
  "Vorhin": 46974,
  "Vorschlag": 26124,
  "Vorschriften": 36699,
  "W": 50,
  "WF": 17117,
  "WG": 17964,
  "WU": 11569,
  "Wach": 43767,
  "Wahr": 28220,
  "Wahrscheinlich": 29962,
  "Wales": 38541,
  "Wann": 18454,
  "Waren": 43771,
  "Warum": 7701,
  "Was": 2049,
  "Wasser": 23210,
  "Waste": 46309,
  "Water": 24269,
  "We": 467,
  "Weder": 28222,
  "Wegen": 28688,
  "Weggen": 17239,
  "Weil": 15402,
  "Weit": 17965,
  "Weiter": 13112,
  "Weitere": 20786,
  "Weiterhin": 15587,
  "Wel": 7094,
  "Welche": 8501,
  "Welchen": 33831,
  "Welcher": 41397,
  "Welches": 26260,
  "Well": 11775,
  "Welt": 38540,
  "Wem": 38538,
  "Wen": 23209,
  "Wenige": 49319,
  "Weniger": 34650,
  "Wenn": 1506,
  "Wenngleich": 33192,
  "Wer": 6197,
  "Werden": 12144,
  "Wert": 43768,
  "Werte": 26228,
  "Wes": 17118,
  "Wesentlich": 48781,
  "Weshalb": 18934,
  "West": 38539,
  "Wettbewerb": 28221,
  "Wh": 1550,
  "What": 2155,
  "Whatever": 21890,
  "When": 4932,
  "Where": 10854,
  "Whereas": 48124,
  "Whether": 19220,
  "Which": 22682,
  "Whil": 20829,
  "While": 9973,
  "Whilst": 21520,
  "Who": 14343,
  "Whole": 46094,
  "Why": 7433,
  "Wichtig": 13978,
  "Wichtige": 43775,
  "Wichtiger": 43776,
  "Wie": 2003,
  "Wieder": 21157,
  "Wieviel": 36355,
  "Will": 7974,
  "Wir": 557,
  "Wird": 10482,
  "Wirk": 35933,
  "Wirklich": 43292,
  "Wirtschaft": 19158,
  "Wirtschafts": 42393,
  "Wissen": 30066,
  "Wissenschaft": 43023,
  "With": 3035,
  "Within": 14367,
  "Without": 11403,
  "Wo": 13757,
  "Woche": 43774,
  "Wohl": 37443,
  "Wollen": 18973,
  "Wom": 43766,
  "Women": 17966,
  "Womit": 35084,
  "Wor": 18972,
  "Woran": 37692,
  "Worauf": 48957,
  "Worin": 48956,
  "Work": 23211,
  "Working": 37870,
  "World": 34488,
  "Worte": 43770,
  "Worum": 35085,
  "Would": 15286,
  "Wurde": 38542,
  "WÃ¤hrend": 10033,
  "WÃ¤hrungs": 43773,
  "WÃ¤re": 15602,
  "WÃ¤ren": 43772,
  "WÃ¼n": 43769,
  "WÃ¼rde": 21546,
  "WÃ¼rden": 30067,
  "WÃ¼rttemberg": 25420,
  "X": 51,
  "Y": 52,
  "YROM": 10919,
  "Year": 43777,
  "Yes": 11026,
  "Yesterday": 20015,
  "Yet": 7860,
  "You": 3074,
  "Young": 43778,
  "Your": 14467,
  "Yugoslav": 35086,
  "Yugoslavia": 38299,
  "Z": 53,
  "ZB": 9289,
  "ZE": 26761,
  "Zahl": 25421,
  "Zahlreiche": 31925,
  "Ze": 43779,
  "Zeit": 26762,
  "Zeitalter": 42844,
  "Ziel": 16737,
  "Ziele": 43781,
  "Ziffer": 43783,
  "Zimbabwe": 43782,
  "Zone": 17967,
  "Zu": 4272,
  "Zuallererst": 46992,
  "Zudem": 10132,
  "Zuerst": 33576,
  "Zug": 19528,
  "Zugang": 49022,
  "Zuge": 43780,
  "Zugleich": 25292,
  "Zum": 4144,
  "Zumindest": 40927,
  "ZunÃ¤chst": 5933,
  "Zur": 6667,
  "Zus": 23212,
  "Zusammen": 13979,
  "Zusammenarbeit": 25189,
  "Zusammenfassend": 31567,
  "ZusÃ¤tz": 29851,
  "ZusÃ¤tzlich": 32043,
  "Zuvor": 46991,
  "Zw": 19527,
  "Zwar": 11570,
  "Zwe": 10233,
  "Zweck": 41738,
  "Zwei": 15243,
  "Zweifellos": 17428,
  "Zweit": 3816,
  "Zweite": 46848,
  "Zweitens": 3907,
  "Zweiter": 46849,
  "Zwischen": 21503,
  "Zwischenzeitlich": 49197,
  "[": 54,
  "[BOS]": 1,
  "[EOS]": 2,
  "[PAD]": 0,
  "[UNK]": 3,
  "]": 55,
  "].": 38543,
  "a": 56,
  "aal": 17510,
  "aals": 43785,
  "aat": 3942,
  "aaten": 7045,
  "aats": 35089,
  "ab": 276,
  "aba": 44878,
  "abaso": 39417,
  "abbau": 28548,
  "abe": 1576,
  "abei": 4377,
  "abel": 4822,
  "abelling": 6050,
  "abels": 22521,
  "aben": 21547,
  "abend": 38546,
  "abet": 30446,
  "abeten": 46111,
  "abfÃ¤lle": 16430,
  "abfÃ¤llen": 24467,
  "abgabe": 25687,
  "abgaben": 35639,
  "abgeordne": 13154,
  "abhÃ¤ng": 3152,
  "abhÃ¤ngig": 16573,
  "abhÃ¤ngigen": 33452,
  "abhÃ¤ngigkeit": 30992,
  "abil": 1858,
  "abilisation": 40403,
  "abilities": 19231,
  "ability": 1566,
  "abilitÃ¤t": 5956,
  "abilitÃ¤ts": 33258,
  "abin": 13592,
  "abinet": 21413,
  "abkommen": 5306,
  "abkommens": 14272,
  "abl": 16835,
  "ablan": 32661,
  "able": 530,
  "abled": 18133,
  "ablen": 14799,
  "abler": 21717,
  "ables": 7770,
  "abling": 9550,
  "ablish": 1692,
  "ably": 2382,
  "abor": 10465,
  "aborate": 27041,
  "abot": 12784,
  "abotage": 25156,
  "abouts": 44881,
  "abrik": 32662,
  "abriken": 44882,
  "abrischen": 44880,
  "absatz": 25686,
  "abschluÃŁ": 25688,
  "abschlÃ¼sse": 39415,
  "abschnitte": 39416,
  "absetzung": 35640,
  "absicht": 6497,
  "absichtigt": 41313,
  "abstimmung": 16031,
  "abstimmungen": 35642,
  "abteilung": 44879,
  "abwÃ¤rts": 35641,
  "ac": 1256,
  "aca": 14846,
  "acc": 21863,
  "accession": 11931,
  "ace": 2034,
  "acea": 36359,
  "aced": 20831,
  "acent": 40192,
  "aces": 28224,
  "aceut": 17748,
  "ach": 262,
  "achbar": 17622,
  "ache": 1985,
  "ached": 35606,
  "achen": 1239,
  "acher": 8799,
  "achers": 28521,
  "aches": 19639,
  "aching": 10819,
  "achlÃ¤ss": 15055,
  "achs": 7357,
  "achse": 32629,
  "achsen": 16832,
  "acht": 1156,
  "achte": 14794,
  "achteil": 7594,
  "achten": 5262,
  "achter": 32628,
  "achtet": 5734,
  "achteten": 32630,
  "achth": 28522,
  "achts": 19640,
  "achtung": 5799,
  "achtungen": 45843,
  "achtungs": 45844,
  "achtungsstelle": 16899,
  "achverstÃ¤nd": 28523,
  "achverstÃ¤ndigen": 34817,
  "acies": 21864,
  "acio": 5613,
  "acious": 40193,
  "acism": 18665,
  "acist": 36192,
  "acity": 27294,
  "ack": 995,
  "acke": 30698,
  "acked": 28813,
  "acken": 24619,
  "ackfleisch": 25885,
  "acks": 28812,
  "ackt": 27293,
  "aclav": 21114,
  "act": 1283,
  "acted": 14583,
  "acter": 7071,
  "action": 4989,
  "actions": 11642,
  "active": 9573,
  "actively": 40203,
  "activity": 36199,
  "actorily": 24656,
  "actory": 8340,
  "acy": 6228,
  "ad": 400,
  "ada": 24514,
  "adam": 2097,
  "adays": 14058,
  "added": 39676,
  "ade": 1433,
  "aded": 15712,
  "adel": 23464,
  "adem": 16855,
  "aden": 4527,
  "ader": 10234,
  "ades": 11918,
  "adet": 19139,
  "adies": 2510,
  "adig": 17235,
  "ading": 15392,
  "admium": 30541,
  "ado": 18119,
  "ador": 19138,
  "adors": 32812,
  "adow": 19140,
  "adox": 12793,
  "adras": 32813,
  "adrat": 39674,
  "adresse": 39675,
  "ads": 10705,
  "adurch": 10957,
  "advant": 9950,
  "advised": 35816,
  "ady": 32811,
  "ae": 32151,
  "ael": 30068,
  "aem": 35087,
  "aemia": 38300,
  "aest": 17511,
  "aestor": 48826,
  "aestors": 19499,
  "af": 5225,
  "afe": 22364,
  "afel": 23838,
  "afeln": 41119,
  "afen": 10664,
  "afety": 23213,
  "aff": 1792,
  "affen": 1735,
  "afft": 6540,
  "affung": 3192,
  "affungs": 24713,
  "affÃ¤re": 40387,
  "affÃ¤ren": 46214,
  "afka": 41120,
  "afr": 5097,
  "afranca": 23839,
  "afrika": 21261,
  "afrikanische": 29243,
  "afrikanischen": 22830,
  "afrikanischer": 47183,
  "after": 28225,
  "ag": 756,
  "aganda": 11790,
  "agar": 36024,
  "agd": 17685,
  "age": 544,
  "aged": 3415,
  "agel": 35927,
  "agement": 2015,
  "agements": 14298,
  "agen": 3238,
  "agentur": 32984,
  "agenturen": 36025,
  "ager": 11729,
  "agern": 39960,
  "agers": 14309,
  "ages": 1517,
  "agg": 28768,
  "agger": 15744,
  "aggons": 32026,
  "agh": 32982,
  "agine": 45578,
  "aging": 4784,
  "agn": 9753,
  "agna": 41688,
  "agne": 9858,
  "agnen": 15743,
  "agnos": 17887,
  "agnosetests": 24145,
  "ago": 25843,
  "agog": 14072,
  "agogen": 39961,
  "agogie": 29635,
  "agon": 16490,
  "agra": 43784,
  "agraph": 4432,
  "agre": 28769,
  "ags": 13830,
  "agschale": 45579,
  "agt": 1827,
  "agte": 20363,
  "agten": 21816,
  "ague": 10965,
  "agung": 10172,
  "agungen": 32983,
  "ah": 355,
  "ahar": 22553,
  "ahara": 9635,
  "ahe": 14541,
  "ahead": 34285,
  "ahen": 9468,
  "ahl": 906,
  "ahlung": 13598,
  "ahm": 39573,
  "ahme": 10703,
  "ahmen": 1339,
  "ahn": 3075,
  "ahne": 35739,
  "ahnen": 12594,
  "ahnsinn": 23732,
  "ahnt": 33444,
  "ahnung": 35740,
  "ahr": 418,
  "ahre": 1936,
  "ahren": 8882,
  "ahrenden": 35830,
  "ahrt": 10708,
  "ahrts": 30546,
  "ahrtsorganisation": 38163,
  "ahrung": 21771,
  "ai": 3164,
  "aid": 17119,
  "aign": 6198,
  "ail": 1570,
  "ailability": 46108,
  "ailand": 21892,
  "ailed": 6811,
  "ailing": 27340,
  "aill": 11442,
  "aille": 33207,
  "ails": 9658,
  "ain": 388,
  "ainen": 21759,
  "ains": 45166,
  "ainst": 45167,
  "ainstreaming": 19135,
  "aint": 28653,
  "air": 1761,
  "aire": 10665,
  "aired": 30069,
  "aires": 30829,
  "airo": 7028,
  "airs": 33238,
  "aiss": 35088,
  "aissance": 38301,
  "ait": 4511,
  "ajo": 38547,
  "ak": 320,
  "aka": 6282,
  "akadem": 44976,
  "akar": 23422,
  "akas": 25719,
  "ake": 539,
  "aked": 21735,
  "akei": 28714,
  "aken": 12788,
  "aker": 18582,
  "akers": 17219,
  "akes": 3020,
  "akespeare": 33434,
  "aket": 12057,
  "akete": 35926,
  "aketen": 39830,
  "akets": 27071,
  "akh": 35696,
  "aking": 1552,
  "akis": 7714,
  "akrieg": 44975,
  "akt": 3341,
  "akte": 7362,
  "akten": 9467,
  "akter": 20284,
  "akterien": 49089,
  "akteure": 22095,
  "akteuren": 47620,
  "aktheit": 40793,
  "akthrough": 33479,
  "aktik": 33478,
  "aktion": 7347,
  "aktionen": 9290,
  "aktions": 18743,
  "aktiv": 16738,
  "aktive": 40792,
  "aktiven": 19279,
  "aktiver": 46731,
  "aktivitÃ¤t": 30070,
  "aktivitÃ¤ten": 20778,
  "aktor": 5474,
  "aktoren": 16624,
  "akult": 39502,
  "akultur": 20992,
  "akuum": 23423,
  "aky": 44974,
  "akzept": 10359,
  "al": 120,
  "ala": 15314,
  "alais": 42154,
  "alan": 21615,
  "aland": 24337,
  "alas": 44166,
  "alation": 44167,
  "alb": 12363,
  "alban": 30211,
  "alcohol": 38851,
  "alcul": 44170,
  "ald": 7525,
  "alda": 20623,
  "aldien": 41450,
  "aldo": 33865,
  "ale": 2264,
  "alem": 35287,
  "alen": 3383,
  "alent": 15630,
  "alente": 46740,
  "aler": 6269,
  "ales": 5574,
  "alf": 38847,
  "algam": 44171,
  "algin": 35288,
  "alia": 23272,
  "aliberal": 26858,
  "alid": 38848,
  "alien": 6953,
  "alienable": 41364,
  "alin": 30210,
  "aling": 35286,
  "alisation": 38849,
  "alisierung": 20877,
  "alisten": 32323,
  "alition": 11330,
  "alitions": 23273,
  "ality": 3179,
  "alitÃ¤t": 4061,
  "alitÃ¤ten": 15008,
  "alk": 1512,
  "alkohol": 24692,
  "all": 458,
  "alle": 2973,
  "alled": 3350,
  "allel": 5805,
  "alleled": 46603,
  "allen": 2490,
  "aller": 24534,
  "allererst": 26676,
  "allgemein": 45290,
  "alling": 10364,
  "allo": 14550,
  "allstrÃ¶m": 10478,
  "ally": 657,
  "aloniki": 25502,
  "alous": 28336,
  "als": 2130,
  "alt": 933,
  "altar": 25876,
  "alte": 32322,
  "alten": 4018,
  "alter": 11735,
  "alters": 35289,
  "alterung": 30212,
  "altet": 7405,
  "altete": 38850,
  "alteten": 22426,
  "alth": 1850,
  "althy": 33257,
  "alties": 33035,
  "alts": 19025,
  "altung": 3184,
  "altungen": 23554,
  "alty": 28800,
  "alu": 4326,
  "aluable": 29189,
  "aluation": 47001,
  "alued": 29188,
  "alues": 44168,
  "aluierung": 47002,
  "alus": 14752,
  "aly": 35285,
  "alys": 15007,
  "alyse": 7258,
  "alysen": 44169,
  "am": 179,
  "ama": 9305,
  "amago": 39122,
  "amal": 32468,
  "aman": 24407,
  "amant": 15661,
  "amb": 3257,
  "ambel": 31008,
  "amber": 5451,
  "ambia": 29109,
  "amble": 39120,
  "ambod": 12472,
  "ambur": 19277,
  "ame": 1020,
  "amen": 1265,
  "ament": 314,
  "amental": 1908,
  "amentally": 15376,
  "amente": 8339,
  "amenten": 32703,
  "amer": 7925,
  "amerika": 25013,
  "amerikanische": 41511,
  "amerikanischen": 18328,
  "ames": 14504,
  "ameter": 21094,
  "ameters": 25889,
  "ami": 26943,
  "amil": 2177,
  "amiliar": 46352,
  "amin": 23334,
  "amination": 26944,
  "aming": 44521,
  "amit": 3790,
  "amity": 44522,
  "amm": 5762,
  "amme": 39119,
  "ammen": 785,
  "amment": 17171,
  "ammer": 19058,
  "ammern": 27607,
  "ammert": 33726,
  "ammes": 39121,
  "ammlung": 36893,
  "ammt": 13485,
  "ammten": 47330,
  "amount": 15662,
  "amp": 994,
  "ampagne": 30697,
  "ampenlicht": 45739,
  "ampere": 6968,
  "ampf": 45737,
  "ampi": 40086,
  "amples": 45738,
  "ampshire": 40087,
  "ams": 14774,
  "amt": 2361,
  "amte": 21675,
  "amten": 25592,
  "amter": 35452,
  "amts": 23335,
  "an": 113,
  "ana": 5189,
  "anach": 7651,
  "anad": 8057,
  "anada": 19375,
  "anagement": 14227,
  "anagements": 44118,
  "anal": 32300,
  "analyse": 32302,
  "anan": 3847,
  "ananen": 6813,
  "anatismus": 44120,
  "anbau": 19562,
  "anbaus": 38819,
  "anbha": 32305,
  "anbieter": 26845,
  "anbietern": 44119,
  "ance": 675,
  "anced": 4512,
  "ancellor": 45508,
  "ancen": 6862,
  "ances": 7000,
  "ancial": 9615,
  "ancies": 13550,
  "ancing": 11036,
  "ancker": 25493,
  "anct": 30198,
  "ancy": 15003,
  "and": 261,
  "anda": 8664,
  "andal": 7528,
  "andals": 20264,
  "ande": 6826,
  "andel": 10947,
  "andels": 9548,
  "andelt": 28520,
  "anden": 3481,
  "ander": 2286,
  "anders": 29013,
  "anderten": 46383,
  "andez": 27662,
  "andi": 28519,
  "andid": 2888,
  "andidat": 24780,
  "andidaten": 5960,
  "andie": 35604,
  "andinav": 16831,
  "anding": 44821,
  "andlung": 35605,
  "ando": 17202,
  "andos": 44822,
  "andrak": 30418,
  "ands": 5482,
  "andt": 15054,
  "andte": 44820,
  "andten": 27028,
  "ane": 11583,
  "aneben": 22415,
  "anen": 22414,
  "aner": 38815,
  "anes": 38816,
  "anf": 8122,
  "anforderungen": 13997,
  "anfranc": 26293,
  "ang": 559,
  "angabe": 25803,
  "angaben": 30602,
  "anganlagen": 35934,
  "ange": 1076,
  "angeb": 30199,
  "angebote": 49807,
  "angebots": 49808,
  "angehen": 16890,
  "angehÃ¶rige": 45794,
  "angehÃ¶rigen": 25898,
  "angeinrichtungen": 24630,
  "angelegenheiten": 28836,
  "angelegte": 40135,
  "angelung": 45793,
  "angen": 3676,
  "angere": 45411,
  "angered": 35935,
  "anges": 3637,
  "angestellten": 46802,
  "anging": 7719,
  "angleich": 30601,
  "angleichung": 32076,
  "angriff": 32301,
  "angriffe": 35262,
  "angriffen": 38818,
  "angs": 6833,
  "angt": 10450,
  "angu": 30600,
  "ania": 15625,
  "anien": 28318,
  "anierung": 35261,
  "animity": 38820,
  "anische": 10674,
  "anischen": 7755,
  "ank": 607,
  "anke": 9647,
  "anken": 3901,
  "ankens": 30613,
  "anker": 39883,
  "anko": 30612,
  "anks": 32935,
  "ankt": 19561,
  "anktionen": 21608,
  "ankungen": 20348,
  "anlage": 18489,
  "anlagen": 10571,
  "anliegen": 20871,
  "anmar": 32303,
  "ann": 333,
  "anna": 39533,
  "annahme": 45012,
  "anne": 20996,
  "annehm": 10591,
  "annei": 42517,
  "annel": 39534,
  "annen": 23431,
  "anner": 6104,
  "annes": 30490,
  "anning": 32735,
  "annt": 1845,
  "annte": 6564,
  "annten": 3215,
  "annter": 18586,
  "anntes": 40402,
  "anntlich": 10739,
  "annual": 12980,
  "annung": 28603,
  "anny": 25727,
  "ano": 12942,
  "anon": 24328,
  "anp": 17538,
  "anpassung": 42298,
  "anpflanz": 48830,
  "ans": 1005,
  "ansatz": 33064,
  "anschlag": 30201,
  "anschreiten": 44117,
  "ansion": 14571,
  "anspruch": 14747,
  "anspruchnahme": 20743,
  "ansprÃ¼che": 32304,
  "ansprÃ¼chen": 35263,
  "anst": 12358,
  "anstalten": 21397,
  "anstaltung": 26418,
  "anstieg": 41930,
  "anstren": 48317,
  "answer": 45746,
  "ansÃ¤ss": 40094,
  "ant": 335,
  "antast": 16847,
  "ante": 1938,
  "anteil": 13124,
  "anteile": 24723,
  "anteilmÃ¤ÃŁig": 48403,
  "anten": 6999,
  "anter": 20178,
  "antic": 28604,
  "anting": 45013,
  "antini": 15070,
  "antischen": 39535,
  "antitÃ¤t": 30491,
  "antly": 19662,
  "anto": 32736,
  "antra": 27083,
  "antrag": 1547,
  "antreten": 45014,
  "antrÃ¤ge": 26843,
  "antrÃ¤gen": 44116,
  "ants": 3560,
  "antwort": 1587,
  "antwortet": 18587,
  "antwortlich": 21135,
  "antwortung": 10084,
  "anu": 3528,
  "anwal": 26844,
  "anwalt": 38817,
  "anwaltschaft": 28134,
  "anwendung": 30200,
  "any": 14746,
  "anz": 548,
  "anzahl": 39833,
  "anze": 5326,
  "anzen": 5054,
  "anzes": 32907,
  "anzig": 11496,
  "anzler": 21794,
  "ap": 722,
  "apable": 18630,
  "apan": 9044,
  "apas": 28759,
  "ape": 10663,
  "aped": 22622,
  "apel": 45551,
  "aper": 3032,
  "apers": 13189,
  "apes": 45549,
  "apest": 32971,
  "apeut": 41792,
  "apid": 36008,
  "apie": 39950,
  "apier": 32970,
  "aping": 16876,
  "apit": 30643,
  "apital": 9318,
  "app": 3747,
  "appar": 36636,
  "apparat": 23770,
  "appe": 15948,
  "appeared": 18425,
  "appen": 20140,
  "apping": 46831,
  "appropri": 13457,
  "appte": 40848,
  "apro": 45550,
  "aps": 2813,
  "apse": 19172,
  "apt": 6591,
  "apter": 27218,
  "aput": 28760,
  "aqu": 38544,
  "ar": 122,
  "ara": 7152,
  "arable": 44193,
  "arak": 6557,
  "arakter": 21298,
  "arant": 30223,
  "arante": 2224,
  "arantee": 23673,
  "arat": 16773,
  "aratch": 44195,
  "arau": 30224,
  "arbeit": 873,
  "arbeite": 40028,
  "arbeiten": 3782,
  "arbeitende": 40029,
  "arbeitenden": 23547,
  "arbeiter": 18165,
  "arbeitern": 33017,
  "arbeitet": 4133,
  "arbeitete": 22634,
  "arbeiteten": 14564,
  "arbeits": 11212,
  "arbeitslosigkeit": 18367,
  "arbeitszeit": 18877,
  "arbeitszeiten": 48175,
  "arbeitung": 4032,
  "arbeitungs": 33016,
  "arbon": 32327,
  "arch": 6636,
  "arche": 35297,
  "archie": 17546,
  "archy": 16637,
  "ard": 457,
  "ardants": 35863,
  "arder": 5844,
  "arding": 11359,
  "ardless": 32858,
  "ardly": 39750,
  "ardo": 19145,
  "ards": 2272,
  "are": 779,
  "ared": 2404,
  "aren": 2606,
  "areness": 10091,
  "arent": 4844,
  "arenten": 18012,
  "arently": 10573,
  "arenz": 4456,
  "ares": 7153,
  "aret": 13831,
  "arez": 15745,
  "arf": 3769,
  "arg": 13336,
  "arge": 1486,
  "argument": 35299,
  "ari": 7706,
  "aria": 20878,
  "arian": 4415,
  "arians": 15633,
  "ariante": 26137,
  "ariat": 12701,
  "arien": 24346,
  "aries": 11453,
  "arily": 5444,
  "aring": 4255,
  "ario": 13558,
  "arios": 26278,
  "arious": 14000,
  "arische": 38867,
  "arischen": 19027,
  "arismus": 35298,
  "arity": 26859,
  "aritÃ¤t": 23279,
  "arium": 44194,
  "ark": 739,
  "arked": 13828,
  "arks": 21812,
  "arkt": 1271,
  "arm": 1668,
  "armaÃŁnahmen": 30818,
  "arme": 25504,
  "armee": 42772,
  "armon": 2457,
  "arn": 2657,
  "arnt": 26028,
  "aro": 24345,
  "around": 44196,
  "arp": 18009,
  "arr": 18010,
  "array": 44197,
  "arre": 30222,
  "arren": 21620,
  "arrlichkeit": 42328,
  "arrt": 38868,
  "ars": 4975,
  "arse": 44192,
  "art": 392,
  "arta": 2513,
  "artagung": 21016,
  "arten": 13127,
  "arter": 2229,
  "arters": 30889,
  "artet": 18011,
  "artgras": 45173,
  "arth": 13167,
  "artig": 23458,
  "artige": 10594,
  "artigen": 15080,
  "artiger": 39662,
  "artiges": 30533,
  "artigkeit": 30532,
  "artikel": 35810,
  "artite": 28655,
  "artment": 45172,
  "arum": 6793,
  "ary": 575,
  "arz": 12945,
  "as": 145,
  "asbourg": 6599,
  "asc": 10579,
  "asch": 3966,
  "asche": 26907,
  "aschen": 32388,
  "aschisten": 40888,
  "ascist": 29521,
  "ascists": 37262,
  "ase": 846,
  "ased": 2019,
  "asemissionen": 44339,
  "asen": 10933,
  "aser": 12040,
  "asern": 44335,
  "ases": 2440,
  "ash": 8380,
  "ashed": 41556,
  "ashes": 23306,
  "ashing": 44337,
  "ashion": 15874,
  "asi": 18514,
  "asiatischen": 48925,
  "aside": 32389,
  "asie": 25545,
  "asien": 22456,
  "asil": 21645,
  "asing": 2868,
  "asion": 14489,
  "asionally": 48536,
  "asions": 44334,
  "asive": 24371,
  "ask": 2906,
  "asm": 15988,
  "asmus": 42196,
  "aso": 35377,
  "ason": 1495,
  "asonable": 24689,
  "aspe": 14766,
  "aspekt": 20894,
  "aspekte": 18912,
  "aspekten": 26479,
  "aspekts": 42508,
  "ass": 617,
  "assa": 45459,
  "assador": 24566,
  "assadors": 35957,
  "asse": 7587,
  "asselbe": 20350,
  "assem": 30618,
  "assen": 848,
  "assend": 7277,
  "asser": 2585,
  "asses": 14819,
  "assing": 15733,
  "assion": 30617,
  "assismus": 21053,
  "assment": 23517,
  "assoni": 13388,
  "assung": 1743,
  "assungen": 5795,
  "assungs": 9958,
  "assungsverfahren": 30619,
  "ast": 561,
  "aste": 14490,
  "asted": 44336,
  "asten": 21798,
  "aster": 14817,
  "astern": 11624,
  "astes": 25804,
  "astet": 10934,
  "asteten": 32390,
  "asting": 39845,
  "astricht": 7882,
  "astung": 10270,
  "astungen": 14299,
  "asures": 23305,
  "asury": 44338,
  "asus": 20204,
  "at": 108,
  "ata": 32287,
  "atable": 35255,
  "atal": 10142,
  "atalog": 14437,
  "atami": 28315,
  "atanen": 32290,
  "atant": 17999,
  "atast": 3141,
  "ataster": 40733,
  "atastrop": 3187,
  "atastrophe": 33461,
  "atastrophen": 30995,
  "atch": 6233,
  "atches": 18486,
  "ate": 306,
  "ated": 804,
  "ateful": 7220,
  "ateg": 1196,
  "ategie": 3289,
  "ategien": 10846,
  "ategor": 5311,
  "ategory": 9969,
  "atell": 16036,
  "atellite": 29687,
  "ately": 1843,
  "atem": 38795,
  "aten": 488,
  "atenden": 23495,
  "ateness": 39790,
  "atente": 28697,
  "ater": 1112,
  "aterial": 3602,
  "aterie": 12617,
  "aters": 8731,
  "ates": 478,
  "atever": 8002,
  "ath": 2428,
  "athan": 40585,
  "athem": 29038,
  "ather": 8194,
  "athie": 24755,
  "athol": 32289,
  "atholic": 23687,
  "athy": 40584,
  "atib": 25488,
  "atibility": 16770,
  "atibilitÃ¤t": 42770,
  "atible": 8055,
  "atic": 4158,
  "atical": 35254,
  "atically": 18000,
  "aticism": 46950,
  "atics": 38798,
  "atik": 5211,
  "atim": 35252,
  "ating": 1202,
  "atinos": 28314,
  "ation": 183,
  "ational": 512,
  "ationalisierung": 19152,
  "ationen": 3137,
  "ations": 493,
  "ationsanlage": 32880,
  "ationslager": 30585,
  "atis": 3594,
  "atisch": 35253,
  "atische": 26838,
  "atischen": 20173,
  "atischer": 38796,
  "atisf": 3906,
  "atisiert": 23760,
  "atisierungen": 24826,
  "atismus": 32288,
  "ativ": 3687,
  "ative": 745,
  "atively": 7650,
  "ativen": 2566,
  "ativer": 13123,
  "atives": 2262,
  "ativitÃ¤t": 40839,
  "atlant": 12939,
  "atlantischen": 48378,
  "ato": 7754,
  "atom": 9202,
  "ator": 3331,
  "atore": 44093,
  "atoren": 10754,
  "atoria": 46727,
  "atorien": 40789,
  "atories": 22776,
  "atorisch": 46726,
  "atorische": 23743,
  "atorischen": 24807,
  "atorium": 16155,
  "ators": 3835,
  "atory": 3861,
  "atos": 44091,
  "atre": 44090,
  "atri": 20174,
  "ats": 1172,
  "atsÃ¤ch": 3104,
  "att": 2183,
  "atte": 17536,
  "atten": 4935,
  "attens": 44094,
  "atter": 813,
  "attered": 36051,
  "attering": 36050,
  "atters": 28785,
  "attet": 7808,
  "attete": 35256,
  "atteten": 44096,
  "attform": 22720,
  "attformen": 36377,
  "attle": 5388,
  "attra": 38797,
  "atts": 44092,
  "atum": 14224,
  "atur": 3166,
  "ature": 5843,
  "atured": 44095,
  "atures": 12555,
  "atz": 1062,
  "atzen": 20391,
  "atzidakis": 11090,
  "atzung": 45778,
  "atÃ¼rlich": 4894,
  "au": 752,
  "auben": 36021,
  "auber": 21815,
  "aubt": 25424,
  "auc": 25841,
  "aucht": 38545,
  "aue": 13113,
  "auen": 6018,
  "auer": 4542,
  "auern": 5426,
  "auernd": 47272,
  "auert": 15102,
  "auerung": 17684,
  "auf": 838,
  "aufbau": 45638,
  "aufe": 45637,
  "aufen": 9321,
  "auff": 16489,
  "auffassung": 48727,
  "aufgabe": 24601,
  "aufgaben": 12083,
  "aufkommen": 40011,
  "aufnahme": 19183,
  "aufsicht": 30666,
  "aufsichts": 45639,
  "auft": 6112,
  "auftrag": 9685,
  "auftragten": 11290,
  "aufwand": 20374,
  "aufwendige": 45641,
  "aufwendungen": 45640,
  "aufwÃ¤rts": 40012,
  "aug": 15603,
  "augen": 36020,
  "aul": 28223,
  "aum": 2579,
  "aur": 26763,
  "aure": 12343,
  "auro": 39957,
  "aus": 359,
  "ausbildung": 24494,
  "ausch": 6565,
  "auschen": 21004,
  "ausches": 45076,
  "auschs": 27101,
  "auscht": 35748,
  "ause": 754,
  "ausen": 39580,
  "ausend": 10163,
  "ausende": 9948,
  "ausenden": 35749,
  "ausender": 35753,
  "ausfÃ¼hrung": 35751,
  "ausgabe": 45075,
  "ausgaben": 9736,
  "ausgleich": 35750,
  "ausnahme": 32749,
  "auso": 9224,
  "ausrichtung": 35752,
  "ausrÃ¼st": 32752,
  "ausrÃ¼stungen": 49986,
  "aussch": 2465,
  "ausschicken": 46451,
  "ausschusses": 5958,
  "ausschuÃŁ": 3438,
  "ausschÃ¼sse": 23692,
  "ausschÃ¼ssen": 30921,
  "aussetzung": 19672,
  "aussetzungen": 32751,
  "aussichten": 32753,
  "ausstattung": 20294,
  "aust": 8581,
  "austausch": 11426,
  "austauschs": 41576,
  "auswahl": 45077,
  "auswirkungen": 32750,
  "ausÃ¼bung": 39581,
  "aut": 3885,
  "autaire": 13247,
  "aute": 20830,
  "auten": 46873,
  "aution": 6443,
  "autions": 35091,
  "autious": 21228,
  "autob": 33532,
  "autonomie": 46874,
  "auvin": 36022,
  "aux": 19174,
  "av": 2843,
  "aval": 29079,
  "ave": 5778,
  "aven": 20141,
  "avia": 40672,
  "avier": 18731,
  "aving": 35090,
  "avour": 8719,
  "avoured": 21196,
  "aw": 25422,
  "awa": 32152,
  "awning": 30071,
  "ax": 25423,
  "ay": 330,
  "aya": 35710,
  "ayann": 14043,
  "ays": 11909,
  "az": 4453,
  "aze": 22363,
  "azeut": 25339,
  "azeutika": 49479,
  "aziland": 40987,
  "aÃŁ": 697,
  "aÃŁnahmen": 16076,
  "aÃŁt": 3095,
  "aÃŁte": 21058,
  "aÃŁten": 16075,
  "b": 57,
  "ba": 9920,
  "bably": 38556,
  "bac": 35095,
  "back": 16335,
  "backs": 26521,
  "bahn": 4206,
  "bahnen": 21551,
  "bak": 25425,
  "bakir": 29894,
  "bal": 1815,
  "balam": 46221,
  "balance": 40396,
  "balanced": 18686,
  "bald": 10858,
  "balk": 32154,
  "ball": 14986,
  "bally": 26765,
  "ban": 3374,
  "bances": 46738,
  "band": 19529,
  "bank": 5878,
  "banken": 17120,
  "bar": 839,
  "bare": 3956,
  "barei": 24843,
  "baren": 3662,
  "barer": 8013,
  "bares": 16491,
  "bargo": 8972,
  "bargos": 15749,
  "barkeit": 5363,
  "barkeits": 27586,
  "barr": 19184,
  "bart": 10921,
  "barungen": 33010,
  "bas": 13980,
  "based": 8371,
  "basis": 29629,
  "bat": 1581,
  "bati": 40324,
  "bau": 2707,
  "bauen": 9877,
  "bauern": 27425,
  "bauf": 21550,
  "baum": 35096,
  "baup": 22957,
  "baus": 12928,
  "bay": 43789,
  "be": 384,
  "beamte": 28650,
  "beamten": 39639,
  "beauftrag": 27122,
  "beauftragten": 12984,
  "beba": 45151,
  "beck": 45148,
  "becken": 35794,
  "bed": 5502,
  "bedarf": 10008,
  "bedenk": 19904,
  "bedeut": 21274,
  "bedeutend": 25321,
  "bedien": 47286,
  "bedienste": 47287,
  "bediensteten": 29280,
  "beding": 2728,
  "bedingte": 33391,
  "bedingten": 36485,
  "bedingung": 22747,
  "bedingungen": 5062,
  "bedÃ¼r": 26197,
  "bedÃ¼rf": 31192,
  "bedÃ¼rfnisse": 34902,
  "bedÃ¼rftig": 49566,
  "bedÃ¼rftigen": 42821,
  "bef": 8748,
  "befug": 47840,
  "befugnis": 20644,
  "befugnisse": 14431,
  "befugnissen": 33946,
  "befÃ¶rderung": 29452,
  "bege": 39638,
  "beginn": 35796,
  "begrenzung": 35795,
  "begriff": 27120,
  "begÃ¼nst": 30522,
  "behafteten": 39640,
  "behalten": 16449,
  "behandelt": 35797,
  "behandlung": 11489,
  "beherr": 45150,
  "behinder": 35799,
  "behÃ¶r": 5738,
  "behÃ¶rde": 7510,
  "behÃ¶rden": 11685,
  "bei": 1567,
  "beihilfe": 18207,
  "beihilfen": 10282,
  "beihilfenkodex": 26370,
  "bein": 30072,
  "being": 25748,
  "beispiel": 32793,
  "beit": 456,
  "beitrag": 28686,
  "beitritts": 39748,
  "beitrÃ¤ge": 39749,
  "bek": 14054,
  "bekannten": 34252,
  "bekistan": 42065,
  "bekommen": 32792,
  "bekund": 35798,
  "bekÃ¤mpfung": 7275,
  "bekÃ¤mpfungs": 45155,
  "bel": 5533,
  "belastung": 31193,
  "belastungen": 36867,
  "belebung": 13600,
  "bell": 35791,
  "bels": 10034,
  "belt": 35094,
  "belung": 47291,
  "bem": 12185,
  "bemerk": 25138,
  "bemerkung": 37970,
  "bemerkungen": 34712,
  "bemÃ¼hungen": 24025,
  "ben": 245,
  "bend": 6607,
  "bends": 39308,
  "bene": 1971,
  "benefit": 20457,
  "benen": 12214,
  "bengefÃ¤hrdeten": 44750,
  "beni": 20262,
  "bens": 1284,
  "bensmittel": 40204,
  "benso": 2980,
  "bensowenig": 13410,
  "bensÃ¤ch": 28879,
  "benteuer": 44748,
  "benutzer": 44749,
  "beob": 45149,
  "ber": 191,
  "bera": 28448,
  "berat": 19617,
  "berater": 24413,
  "beratern": 31767,
  "beratung": 34526,
  "beratungen": 42431,
  "beraum": 39155,
  "bere": 8261,
  "berechen": 47772,
  "berechnung": 47773,
  "berecht": 9092,
  "berechtigt": 29471,
  "berechtigte": 37154,
  "berechtigten": 31373,
  "berechtigung": 22132,
  "bereich": 2848,
  "bereiche": 8835,
  "bereichen": 11659,
  "bereichs": 46559,
  "bereit": 3124,
  "bereiten": 14617,
  "bereitet": 33447,
  "bereitschaft": 23735,
  "bereitung": 15484,
  "bereitungsanlage": 24796,
  "bereitungsanlagen": 46656,
  "berg": 11749,
  "bergen": 19060,
  "berger": 44557,
  "bericht": 6382,
  "berichte": 15667,
  "berichten": 23339,
  "berichterstatter": 23885,
  "berichterstatterin": 49381,
  "berichts": 30330,
  "berkrankheit": 24414,
  "bern": 26962,
  "bersome": 35471,
  "bert": 39154,
  "berufen": 35470,
  "berufung": 20928,
  "bes": 1438,
  "besch": 8313,
  "beschaffung": 29433,
  "beschlusses": 33918,
  "beschluÃŁ": 23933,
  "beschlÃ¼sse": 47781,
  "beschrÃ¤n": 17121,
  "beschrÃ¤nk": 48782,
  "beschrÃ¤nkungen": 20781,
  "beschÃ¤ft": 7910,
  "beschÃ¤ftigung": 8115,
  "beseitigung": 30788,
  "besetzungen": 46027,
  "besiedelten": 46026,
  "besitzer": 23610,
  "besondere": 1635,
  "bess": 32153,
  "best": 3737,
  "bestand": 11408,
  "bestandes": 48206,
  "bestands": 27493,
  "bestandteile": 48207,
  "beste": 22673,
  "bestehen": 21879,
  "besteuerung": 26644,
  "bestimmung": 12285,
  "bestimmungen": 11121,
  "bestimmungs": 27494,
  "bestrebungen": 33517,
  "bestÃ¤nde": 12481,
  "bestÃ¤nden": 31047,
  "bet": 4818,
  "beteil": 18596,
  "beteiligten": 31726,
  "beteiligung": 25273,
  "betrag": 16194,
  "betrags": 29693,
  "betreiber": 23820,
  "betreibern": 49377,
  "betrie": 11412,
  "betrieb": 29552,
  "betriebe": 13095,
  "betrieben": 23819,
  "betroffen": 33636,
  "betrug": 24890,
  "betrugs": 49455,
  "betrÃ¤ge": 24891,
  "bett": 14468,
  "betten": 47102,
  "between": 36771,
  "beugen": 24505,
  "beugung": 45152,
  "beutet": 35793,
  "bevÃ¶lk": 14055,
  "bevÃ¶lkerung": 14974,
  "bew": 16048,
  "bewegung": 22566,
  "bewegungen": 15709,
  "bewerber": 13381,
  "bewertung": 16049,
  "bewertungen": 45154,
  "bewesen": 27121,
  "bewirtschaft": 35792,
  "bewirtschaftung": 13599,
  "bewirtschaftungs": 38349,
  "bewohner": 32794,
  "bewuÃŁ": 16450,
  "bewuÃŁt": 22245,
  "bewuÃŁtsein": 16852,
  "bewÃ¤ltigung": 31638,
  "bezeichnungen": 30523,
  "beziehen": 11197,
  "beziehung": 5977,
  "beziehungen": 12064,
  "beziffer": 45153,
  "bezogen": 12983,
  "bezogene": 24047,
  "bezogenen": 18896,
  "bezÃ¼": 4781,
  "bezÃ¼ge": 47094,
  "bezÃ¼glich": 16614,
  "bha": 28226,
  "bi": 21548,
  "bian": 20833,
  "bid": 20832,
  "bie": 12545,
  "bied": 43792,
  "bies": 21549,
  "biet": 30074,
  "bieter": 16694,
  "bietern": 31522,
  "bil": 12186,
  "bilanz": 25139,
  "bild": 6907,
  "bilden": 17059,
  "bildende": 48776,
  "bildenden": 27955,
  "bilder": 37356,
  "bildes": 47535,
  "bildet": 47536,
  "bildung": 4090,
  "bildungen": 47537,
  "bill": 35093,
  "bination": 22365,
  "binding": 38559,
  "bindung": 13324,
  "bindungen": 26768,
  "bing": 43786,
  "binnen": 24270,
  "bir": 43787,
  "bisc": 43797,
  "bit": 7747,
  "bk": 38548,
  "bl": 10920,
  "blatt": 22975,
  "ble": 536,
  "bled": 28713,
  "bleib": 30593,
  "bleiben": 10372,
  "bleibt": 23504,
  "blem": 896,
  "bleme": 10170,
  "blemen": 17249,
  "blems": 1611,
  "blichen": 43790,
  "blichkeit": 25426,
  "blick": 2590,
  "blicken": 29049,
  "block": 30075,
  "blok": 48133,
  "blow": 20012,
  "blowers": 29788,
  "blowing": 28018,
  "bn": 38549,
  "bner": 38554,
  "bnet": 38558,
  "bo": 7458,
  "board": 9910,
  "boards": 41439,
  "bod": 8431,
  "boda": 8641,
  "boden": 26767,
  "body": 7308,
  "bogen": 43794,
  "bombe": 38560,
  "bon": 3119,
  "bone": 43791,
  "boot": 47639,
  "bor": 6553,
  "border": 7250,
  "borg": 18975,
  "borger": 33791,
  "born": 43793,
  "borne": 47473,
  "bos": 38552,
  "bot": 43788,
  "boten": 38557,
  "bound": 23912,
  "boundary": 42681,
  "bour": 3045,
  "bourg": 4947,
  "box": 43796,
  "boy": 43795,
  "boys": 47640,
  "br": 8116,
  "bra": 38551,
  "bracht": 38555,
  "bran": 38553,
  "branche": 17969,
  "branchen": 43398,
  "bre": 13114,
  "breaking": 37414,
  "brechen": 17968,
  "brid": 41528,
  "brigen": 25428,
  "brigens": 26688,
  "bring": 10235,
  "bringen": 5753,
  "bringenden": 48031,
  "bringender": 41211,
  "bringer": 41739,
  "bringt": 16672,
  "bringung": 19995,
  "brit": 8582,
  "britann": 8785,
  "britannien": 47843,
  "bru": 4468,
  "bruch": 9522,
  "bs": 5934,
  "bsite": 17828,
  "bsites": 29310,
  "bst": 1103,
  "bstoffe": 27273,
  "bt": 4486,
  "bte": 38550,
  "bted": 17512,
  "btedly": 10335,
  "bu": 11571,
  "buch": 10563,
  "budget": 26766,
  "budgets": 35097,
  "build": 12339,
  "building": 14962,
  "bul": 26764,
  "bung": 7748,
  "bur": 3627,
  "burg": 3953,
  "burger": 21984,
  "burgh": 14626,
  "burs": 25427,
  "bus": 18974,
  "business": 20142,
  "but": 35092,
  "buÃŁen": 35098,
  "by": 4038,
  "bÃ¼": 14728,
  "bÃ¼cher": 48566,
  "bÃ¼hne": 31592,
  "bÃ¼nd": 30073,
  "bÃ¼r": 5570,
  "bÃ¼rger": 6512,
  "bÃ¼rgern": 18290,
  "bÃ¼ro": 48565,
  "bÃ¼ros": 24085,
  "c": 58,
  "ca": 8372,
  "cacc": 25431,
  "cal": 43798,
  "call": 19531,
  "called": 7095,
  "cape": 17404,
  "car": 28227,
  "card": 21554,
  "care": 30078,
  "case": 26770,
  "casses": 43808,
  "cast": 10035,
  "cation": 43799,
  "cause": 9100,
  "cc": 6444,
  "ccording": 6906,
  "ce": 246,
  "ceable": 44751,
  "cean": 30391,
  "ced": 715,
  "cedented": 17259,
  "cedo": 28757,
  "cedon": 7941,
  "cedonia": 41515,
  "ceed": 3804,
  "ceeding": 16827,
  "cel": 6229,
  "celess": 30080,
  "cellos": 39309,
  "cellose": 39310,
  "cellulose": 28500,
  "cels": 32157,
  "cemeal": 43811,
  "cement": 8187,
  "cen": 3342,
  "cency": 26067,
  "cend": 20143,
  "cent": 7911,
  "cep": 4197,
  "cept": 1119,
  "ception": 8457,
  "ceptions": 33094,
  "ceptive": 33093,
  "cepts": 16595,
  "cer": 26769,
  "cerer": 43806,
  "cern": 19530,
  "cers": 22366,
  "cert": 43801,
  "certain": 30079,
  "ces": 875,
  "cess": 622,
  "cessing": 17675,
  "cession": 10273,
  "ch": 98,
  "chairs": 44050,
  "chan": 2903,
  "chancen": 46584,
  "change": 5371,
  "changes": 16569,
  "changing": 22404,
  "chanis": 4497,
  "chanismen": 7139,
  "chanisms": 7386,
  "chanismus": 11239,
  "chant": 30172,
  "charakter": 25479,
  "chard": 19556,
  "charta": 10801,
  "che": 814,
  "ched": 28297,
  "chel": 10449,
  "chelon": 11299,
  "chem": 28298,
  "chement": 25478,
  "chen": 594,
  "chend": 26826,
  "chenland": 22601,
  "chens": 38756,
  "chenschaft": 13614,
  "cher": 3675,
  "chers": 35227,
  "ches": 3592,
  "chest": 26825,
  "chester": 29133,
  "chez": 21821,
  "chie": 1511,
  "chieben": 19782,
  "children": 23246,
  "chise": 35228,
  "chmal": 10800,
  "chmark": 11034,
  "chn": 872,
  "chnen": 32257,
  "chner": 36065,
  "chnet": 11791,
  "chnitten": 19744,
  "chnolog": 3320,
  "chnung": 5969,
  "chnungen": 17691,
  "chnungs": 36066,
  "chnya": 7883,
  "cho": 15968,
  "chs": 5102,
  "chse": 44049,
  "chsel": 7916,
  "chseln": 20626,
  "chsels": 36809,
  "chselt": 23832,
  "chst": 6267,
  "cht": 506,
  "chte": 426,
  "chten": 1179,
  "chtenstein": 36174,
  "chter": 5103,
  "chtern": 12354,
  "chtert": 18791,
  "chts": 980,
  "chtung": 5132,
  "chtungen": 11202,
  "chung": 15969,
  "chungsman": 44051,
  "cia": 15949,
  "cial": 518,
  "cieren": 43803,
  "ciert": 43804,
  "cies": 4398,
  "cific": 22367,
  "cifically": 32159,
  "cil": 631,
  "ciless": 45480,
  "cilia": 39903,
  "ciliation": 5269,
  "cility": 45481,
  "cill": 43800,
  "cin": 25430,
  "cing": 1818,
  "cised": 43805,
  "cision": 7861,
  "citizens": 38563,
  "ck": 354,
  "cke": 11767,
  "cked": 19126,
  "cken": 3911,
  "ckene": 39572,
  "cker": 10826,
  "ckert": 45066,
  "ckheer": 12061,
  "cking": 28622,
  "cknow": 6711,
  "cks": 13597,
  "cksilber": 31555,
  "ckt": 3608,
  "ckte": 23440,
  "ckten": 20293,
  "ckung": 8955,
  "ckx": 9735,
  "cl": 17513,
  "claimed": 43810,
  "class": 23096,
  "clear": 38562,
  "cluding": 42297,
  "co": 3098,
  "cohol": 30988,
  "colonial": 28228,
  "com": 3259,
  "come": 1958,
  "comer": 31009,
  "comers": 36573,
  "coming": 6257,
  "comm": 38561,
  "commerce": 8373,
  "commun": 10036,
  "communications": 10226,
  "comp": 21555,
  "company": 43809,
  "competitive": 37807,
  "compliance": 42543,
  "con": 576,
  "cond": 1480,
  "condition": 16913,
  "condly": 3604,
  "conf": 35943,
  "coni": 21799,
  "conian": 45427,
  "conom": 845,
  "conomic": 4149,
  "conomy": 18164,
  "consider": 32924,
  "considered": 34987,
  "consum": 25808,
  "consuming": 28122,
  "conte": 20346,
  "continu": 27191,
  "continuation": 34782,
  "contra": 39855,
  "contro": 45426,
  "control": 24560,
  "core": 43802,
  "coun": 17970,
  "counter": 32158,
  "country": 19504,
  "cour": 32156,
  "course": 43807,
  "cover": 18248,
  "covered": 26562,
  "covering": 34454,
  "cow": 21553,
  "cr": 4189,
  "craft": 6855,
  "cre": 30076,
  "cream": 49794,
  "cret": 9198,
  "crit": 35099,
  "crum": 33561,
  "cs": 32155,
  "ct": 192,
  "cted": 1422,
  "cting": 32489,
  "ction": 565,
  "ctions": 2799,
  "ctive": 6101,
  "ctober": 11462,
  "ctor": 32488,
  "ctory": 28449,
  "cts": 23340,
  "ctural": 4600,
  "cture": 19061,
  "cu": 25429,
  "cul": 21552,
  "cultural": 30081,
  "cup": 30077,
  "cur": 1787,
  "curity": 2249,
  "curs": 30837,
  "cury": 30838,
  "cut": 5999,
  "cutting": 47366,
  "cy": 826,
  "cyc": 4999,
  "cycle": 47152,
  "cycling": 6336,
  "cyk": 23545,
  "d": 59,
  "dac": 10037,
  "dach": 30084,
  "dacht": 20145,
  "dain": 43816,
  "dam": 18976,
  "dang": 32161,
  "dangerous": 34925,
  "dar": 38564,
  "das": 30083,
  "date": 24271,
  "dated": 21556,
  "daten": 23214,
  "datum": 26773,
  "dauer": 13759,
  "day": 1152,
  "daÃŁ": 43819,
  "dbour": 38570,
  "dden": 12029,
  "de": 234,
  "dean": 35560,
  "debat": 12775,
  "debatte": 14709,
  "debatten": 29597,
  "decess": 16826,
  "deck": 15050,
  "decken": 14268,
  "deckt": 9545,
  "deckte": 34306,
  "deckten": 27904,
  "deckter": 48588,
  "deckung": 14788,
  "ded": 17514,
  "deed": 5561,
  "deen": 39294,
  "defined": 28499,
  "definition": 39296,
  "defiz": 17614,
  "defizit": 20785,
  "defizite": 42313,
  "dehnen": 20261,
  "dehnung": 19084,
  "deklar": 44731,
  "del": 32160,
  "delegation": 44730,
  "dellen": 20953,
  "dem": 1704,
  "democratic": 30823,
  "demokrat": 36297,
  "demokraten": 10501,
  "demokratischen": 36298,
  "den": 187,
  "denburg": 39150,
  "dence": 15340,
  "dened": 35465,
  "denk": 11593,
  "denken": 5078,
  "denkens": 37324,
  "denkt": 9383,
  "dens": 30329,
  "dent": 8720,
  "denz": 44553,
  "dep": 9461,
  "dependence": 27758,
  "dependent": 12386,
  "deponien": 39295,
  "depth": 15236,
  "der": 178,
  "dere": 6559,
  "derecht": 47474,
  "dered": 26942,
  "dereg": 44520,
  "deren": 28435,
  "dergrund": 13577,
  "dering": 25591,
  "derischen": 39117,
  "derly": 10057,
  "dern": 481,
  "dernfalls": 19148,
  "ders": 2937,
  "dert": 2258,
  "derte": 21674,
  "derten": 22478,
  "derter": 44519,
  "derung": 1658,
  "derungen": 5450,
  "derweise": 39118,
  "des": 6786,
  "dess": 38566,
  "dessen": 32163,
  "dest": 20144,
  "destotrotz": 26601,
  "destoweniger": 37748,
  "det": 9012,
  "dete": 18059,
  "deten": 11476,
  "deter": 44729,
  "determination": 15353,
  "deuropa": 24444,
  "deuropas": 44732,
  "deut": 1762,
  "deutet": 3599,
  "deutig": 36308,
  "deutigkeit": 30830,
  "deutigkeiten": 46181,
  "deutschland": 36309,
  "develop": 17195,
  "developed": 17499,
  "development": 22503,
  "dex": 17613,
  "dez": 10944,
  "di": 2433,
  "diagnosetests": 24758,
  "dialog": 43825,
  "dichte": 30085,
  "dict": 4340,
  "die": 12546,
  "dien": 9441,
  "dienst": 4774,
  "dienste": 7802,
  "diensten": 17041,
  "dienstes": 29218,
  "dienstleistungen": 13686,
  "dienststellen": 36765,
  "diere": 23688,
  "dies": 13758,
  "diesen": 43823,
  "digen": 43815,
  "digt": 15950,
  "digte": 30086,
  "digten": 20146,
  "digung": 32162,
  "dim": 35101,
  "dimension": 28230,
  "dimir": 43241,
  "din": 14469,
  "ding": 4554,
  "dington": 41008,
  "dire": 8856,
  "dis": 18455,
  "disc": 14730,
  "disciplinary": 27896,
  "discrimin": 19468,
  "discrimination": 23130,
  "discriminatory": 37717,
  "diskriminierung": 38572,
  "diskuss": 43829,
  "disp": 28229,
  "disposal": 34804,
  "distance": 38573,
  "disziplin": 15604,
  "dite": 43820,
  "dition": 3375,
  "ditionen": 23745,
  "div": 43814,
  "dle": 30082,
  "dled": 35103,
  "dlich": 26772,
  "dliche": 38568,
  "dling": 43824,
  "do": 12929,
  "dog": 43817,
  "doing": 29601,
  "dok": 12187,
  "dokument": 15576,
  "dokumente": 23001,
  "dokumenten": 42173,
  "dokuments": 34325,
  "dollar": 43827,
  "dom": 5723,
  "door": 48376,
  "dorf": 9371,
  "down": 14729,
  "doyer": 28231,
  "dr": 35100,
  "dra": 43812,
  "drag": 43818,
  "drehen": 43826,
  "drif": 43821,
  "driften": 43822,
  "dring": 11160,
  "dringlich": 14951,
  "dro": 14987,
  "drom": 38567,
  "druck": 2280,
  "drucks": 21932,
  "drÃ¤ngen": 43828,
  "drÃ¼ck": 3400,
  "drÃ¼cke": 36593,
  "drÃ¼cken": 21214,
  "drÃ¼cklich": 4753,
  "drÃ¼ckt": 15287,
  "ds": 1375,
  "dstown": 35104,
  "dt": 16739,
  "du": 516,
  "duc": 3875,
  "ducation": 19289,
  "duct": 32895,
  "dumping": 32164,
  "dung": 13325,
  "dungen": 43813,
  "duous": 35912,
  "durch": 4595,
  "durchschnitt": 41018,
  "dy": 26771,
  "dynamik": 38571,
  "dys": 38569,
  "dÃ¤": 38565,
  "dÃ¤m": 18977,
  "dÃ¤mmen": 42377,
  "dÃ¤mmend": 48958,
  "dÃ¼n": 35102,
  "e": 60,
  "ean": 2684,
  "ear": 633,
  "earing": 21805,
  "east": 17971,
  "eastern": 24272,
  "eb": 11312,
  "eben": 5571,
  "ebene": 20834,
  "ebenen": 41189,
  "ec": 8250,
  "economic": 8721,
  "economy": 43835,
  "ect": 459,
  "ected": 38577,
  "ection": 18126,
  "ecut": 12930,
  "ecuting": 37398,
  "ecutive": 14711,
  "ed": 154,
  "eda": 19045,
  "edded": 39010,
  "ede": 15025,
  "eded": 19046,
  "eder": 3132,
  "ederal": 6489,
  "ederation": 16380,
  "edet": 23312,
  "ediently": 44384,
  "ediglich": 39009,
  "edill": 32402,
  "eding": 2055,
  "edingungen": 40473,
  "edizin": 44383,
  "edly": 30276,
  "ednes": 16381,
  "edom": 2394,
  "edonien": 30277,
  "eds": 14242,
  "edter": 9931,
  "ee": 15951,
  "ees": 7096,
  "ef": 6305,
  "efe": 9442,
  "effect": 23215,
  "effective": 28232,
  "effectiveness": 49320,
  "effects": 42625,
  "effekte": 43836,
  "efficient": 38581,
  "effizienz": 35106,
  "efully": 38578,
  "eg": 5966,
  "ehen": 4573,
  "ehm": 6230,
  "ehn": 16740,
  "ehr": 43830,
  "eich": 2260,
  "eichen": 8159,
  "eichens": 16552,
  "eid": 30087,
  "eiden": 14731,
  "eif": 43831,
  "eifer": 38579,
  "eignet": 22368,
  "eihen": 43834,
  "eil": 25432,
  "eilen": 43833,
  "eilt": 35105,
  "ein": 225,
  "einamer": 12966,
  "einander": 3005,
  "einbuÃŁen": 44704,
  "eind": 4671,
  "eine": 11755,
  "einen": 6709,
  "einfÃ¼hrungs": 44702,
  "eing": 17515,
  "einhalb": 30376,
  "einheit": 17610,
  "einheiten": 25638,
  "einigung": 44700,
  "einkommen": 30377,
  "einnahmen": 32579,
  "einrichtungen": 20949,
  "eins": 32578,
  "einschlag": 44703,
  "einstellung": 44701,
  "einster": 39269,
  "eint": 44699,
  "eintrÃ¤cht": 18055,
  "eit": 171,
  "eite": 16799,
  "eiter": 7263,
  "eitern": 16392,
  "eitert": 20224,
  "either": 6454,
  "eitige": 44504,
  "eitigen": 44503,
  "eitigung": 8522,
  "eits": 2721,
  "ek": 1009,
  "ekt": 1699,
  "ekte": 2400,
  "ekten": 5490,
  "ektor": 14093,
  "ektors": 27351,
  "ekut": 16886,
  "el": 174,
  "ela": 21672,
  "eland": 20227,
  "elbe": 17586,
  "elbst": 1164,
  "elbstÃ¤ndigkeit": 45848,
  "eld": 2011,
  "elden": 19605,
  "eldet": 15465,
  "elected": 30088,
  "election": 35107,
  "electric": 38580,
  "elen": 25588,
  "eless": 2863,
  "elessly": 40675,
  "elessness": 30972,
  "elf": 1806,
  "elfast": 28956,
  "elfen": 15999,
  "elfÃ¶rm": 46218,
  "elho": 24403,
  "eliegen": 16393,
  "elihood": 22476,
  "eline": 17169,
  "elines": 3492,
  "eljahr": 39107,
  "elk": 11590,
  "elkorn": 12911,
  "ell": 10666,
  "elle": 2610,
  "elled": 13574,
  "ellen": 4099,
  "eller": 15288,
  "ellets": 26022,
  "eln": 1714,
  "elos": 44506,
  "els": 1174,
  "elsinki": 4136,
  "elt": 591,
  "elta": 39869,
  "eltaten": 39870,
  "elte": 9124,
  "elten": 4232,
  "elter": 20226,
  "eltern": 39106,
  "elung": 14501,
  "elungen": 44507,
  "elux": 32459,
  "elves": 3364,
  "ely": 647,
  "elzen": 20228,
  "elÃ¤nder": 44508,
  "em": 164,
  "ema": 23323,
  "emann": 9027,
  "emark": 8436,
  "emata": 44448,
  "emaÃŁnahmen": 28414,
  "emb": 5229,
  "embargo": 39050,
  "ember": 482,
  "emble": 35415,
  "emblies": 22029,
  "embly": 6902,
  "embowski": 16993,
  "eme": 25568,
  "emeal": 37980,
  "emek": 39049,
  "emen": 22466,
  "ement": 761,
  "ementioned": 32430,
  "ements": 19176,
  "emethode": 44450,
  "emic": 20907,
  "emin": 11898,
  "eminar": 25128,
  "eminars": 34155,
  "emination": 19598,
  "eming": 44444,
  "emission": 44447,
  "emissionen": 19599,
  "emit": 8062,
  "emitte": 44445,
  "emm": 8866,
  "emost": 10053,
  "emp": 2241,
  "empfinden": 46369,
  "empfÃ¤nger": 36388,
  "empfÃ¤ngern": 46370,
  "emph": 44446,
  "employed": 21167,
  "employment": 29008,
  "empt": 20214,
  "emÃ¤ÃŁ": 35416,
  "emÃ¶glichkeiten": 44449,
  "en": 93,
  "enary": 6306,
  "enc": 38727,
  "ence": 2086,
  "ences": 4556,
  "ency": 20861,
  "end": 323,
  "enda": 32720,
  "ende": 2121,
  "ended": 23426,
  "endem": 30481,
  "enden": 1275,
  "endence": 8461,
  "endency": 27296,
  "ender": 6375,
  "endes": 12789,
  "endet": 9733,
  "endi": 39510,
  "endienst": 35700,
  "endigung": 22538,
  "ending": 4458,
  "endioxid": 21738,
  "endiskriminierung": 27076,
  "endit": 4388,
  "endite": 35699,
  "endium": 39511,
  "endlich": 28594,
  "endorf": 39512,
  "endous": 27075,
  "ends": 32721,
  "endt": 8802,
  "endum": 9387,
  "endums": 22539,
  "endung": 12058,
  "endungen": 32722,
  "ene": 1228,
  "enen": 38728,
  "energie": 44007,
  "eness": 44005,
  "enfalls": 7517,
  "enge": 18473,
  "engt": 38730,
  "enhagen": 9293,
  "enig": 11319,
  "eniger": 35203,
  "ening": 8726,
  "enk": 12034,
  "enkbar": 31500,
  "enke": 32237,
  "enken": 3489,
  "enkt": 8647,
  "enkung": 35204,
  "enlicht": 44006,
  "enn": 434,
  "ennan": 24524,
  "ennbar": 39708,
  "enne": 13119,
  "ennen": 4060,
  "ennend": 45241,
  "enner": 30554,
  "enness": 11358,
  "ennetz": 30555,
  "ennig": 39707,
  "ennium": 13603,
  "enniums": 45244,
  "enniveau": 45242,
  "ennt": 2649,
  "enntnis": 4352,
  "enntnisse": 11114,
  "enntnissen": 19820,
  "ennung": 3701,
  "ennÃ¤he": 45243,
  "enoble": 38731,
  "enommen": 25474,
  "enophob": 5350,
  "enophobia": 33683,
  "enoxid": 44008,
  "ens": 389,
  "ensable": 18117,
  "ensation": 35808,
  "ensektor": 25754,
  "ensen": 38729,
  "ensicht": 4583,
  "ensichtlich": 4972,
  "ension": 2444,
  "ensionen": 21760,
  "ensions": 5238,
  "ensive": 14810,
  "ensur": 21014,
  "enswert": 7670,
  "enswerte": 18598,
  "enswerten": 25753,
  "enswerter": 28654,
  "ensystem": 25752,
  "ensysteme": 21761,
  "ensystems": 45168,
  "ent": 127,
  "entag": 38880,
  "entagon": 38881,
  "ente": 7206,
  "ented": 2943,
  "enten": 3180,
  "enter": 25512,
  "entfrem": 44217,
  "enth": 17547,
  "enthal": 28349,
  "enthalten": 21624,
  "ential": 1648,
  "entials": 40340,
  "entic": 26868,
  "entieth": 28351,
  "entilgung": 44216,
  "entin": 38879,
  "ention": 758,
  "entioned": 23534,
  "entions": 3826,
  "entive": 20189,
  "entlassungen": 28350,
  "entlastung": 32336,
  "entless": 44214,
  "entlich": 1260,
  "entliche": 3521,
  "entlichen": 2054,
  "ently": 1468,
  "entr": 1230,
  "entral": 1734,
  "entrans": 32335,
  "entren": 24351,
  "entribÃ¼ne": 45883,
  "entric": 45882,
  "entrichtlinie": 36185,
  "ents": 1917,
  "entscheid": 5756,
  "entscheiden": 44213,
  "entscheidung": 17824,
  "entscheidungen": 14156,
  "entschlieÃŁung": 24353,
  "entschlieÃŁungsantrag": 44215,
  "entsorgung": 23655,
  "entsÃ¤tze": 46253,
  "entum": 44212,
  "entur": 15975,
  "enturen": 24352,
  "entwick": 5420,
  "entwickeln": 27590,
  "entwickelten": 24924,
  "entwicklung": 8361,
  "entwurf": 6167,
  "entwurfs": 41273,
  "entwÃ¼rfe": 26869,
  "enty": 9377,
  "enz": 1148,
  "enzahl": 33097,
  "enze": 6909,
  "enzen": 2897,
  "eot": 38574,
  "eous": 38576,
  "ep": 2179,
  "epel": 40523,
  "eping": 14108,
  "er": 94,
  "erable": 44011,
  "eral": 1419,
  "erally": 28288,
  "eration": 1118,
  "eratur": 17987,
  "erb": 3036,
  "erbe": 32240,
  "erbitt": 46637,
  "erbrechen": 36545,
  "erc": 4686,
  "erd": 1132,
  "erdem": 2636,
  "erdienst": 27278,
  "erdings": 2425,
  "ere": 210,
  "erechnet": 44647,
  "erecht": 2849,
  "erechtigkeit": 10752,
  "ered": 14477,
  "ereg": 21689,
  "erei": 11181,
  "ereich": 1082,
  "ereichte": 45799,
  "ereien": 35521,
  "ereign": 44646,
  "erein": 1268,
  "ereinhalb": 45904,
  "ereinnahmen": 28875,
  "erell": 35520,
  "eren": 450,
  "erence": 3460,
  "erences": 5945,
  "erenz": 13177,
  "erenzen": 19702,
  "erequis": 13356,
  "erer": 12196,
  "eres": 6307,
  "erfassung": 38737,
  "erfolge": 44013,
  "erfordern": 38738,
  "erg": 1471,
  "ergabe": 23617,
  "ergeb": 23239,
  "ergebnis": 23240,
  "ergebnisse": 26649,
  "ergehen": 28289,
  "erget": 26819,
  "ergie": 14590,
  "erhaltung": 38736,
  "erheb": 38735,
  "erhebung": 30162,
  "erhÃ¶hungen": 44020,
  "erical": 38734,
  "erie": 32238,
  "erien": 2206,
  "erin": 44009,
  "ering": 10798,
  "erisch": 38733,
  "erischen": 28286,
  "erium": 13120,
  "eriums": 44017,
  "erk": 1923,
  "erkannt": 22702,
  "erkenne": 44019,
  "erkennen": 10568,
  "erkennung": 6730,
  "erkenswert": 46255,
  "erklÃ¤rung": 22395,
  "erklÃ¤rungen": 44018,
  "erkt": 30159,
  "erlaubnis": 38739,
  "erleben": 44014,
  "erlegen": 44012,
  "erliche": 35206,
  "ermaÃŁen": 8254,
  "ermost": 16758,
  "ermÃ¤cht": 18475,
  "ermÃ¤chtigungen": 18949,
  "ern": 391,
  "ernal": 25756,
  "ernden": 23457,
  "erne": 28287,
  "ernen": 7581,
  "erner": 6567,
  "ernity": 24507,
  "ernt": 21015,
  "ernÃ¤hrung": 18118,
  "erober": 44016,
  "erog": 32241,
  "eror": 44010,
  "eros": 26818,
  "erous": 3221,
  "err": 365,
  "erral": 25734,
  "errate": 24495,
  "erre": 12352,
  "erren": 18591,
  "errer": 19128,
  "errichtlinie": 45083,
  "erring": 7415,
  "erritorial": 27103,
  "errt": 30510,
  "erry": 23443,
  "errÃ¼t": 39586,
  "ers": 408,
  "ersatz": 21022,
  "ersatzteile": 49151,
  "erschein": 30161,
  "erscheinungen": 49799,
  "erse": 45201,
  "ersed": 45202,
  "erseits": 3094,
  "erson": 1440,
  "erst": 806,
  "erstande": 39996,
  "erstatt": 13398,
  "erstatter": 1554,
  "erstattung": 17072,
  "erstattungen": 26443,
  "erster": 30658,
  "erstÃ¶rung": 36047,
  "ersub": 39686,
  "ersuchen": 39687,
  "ersund": 10070,
  "ersÃ¶n": 14059,
  "ert": 494,
  "ertain": 1126,
  "erte": 11320,
  "erted": 14219,
  "ertem": 32242,
  "erten": 8053,
  "erter": 35205,
  "ertes": 45342,
  "ertia": 25787,
  "ertig": 11777,
  "erto": 16059,
  "ertod": 32881,
  "ertrag": 8009,
  "ertrags": 31333,
  "ertrÃ¤ge": 30160,
  "erts": 32239,
  "erung": 984,
  "erungen": 5935,
  "erunglÃ¼ck": 45727,
  "erungs": 6031,
  "erus": 38732,
  "erusalem": 43402,
  "erv": 780,
  "erve": 4891,
  "ervedly": 32996,
  "erven": 12421,
  "ervice": 45597,
  "ervisory": 45598,
  "ervor": 2588,
  "erwart": 44015,
  "erweise": 4757,
  "ery": 10138,
  "erzeug": 8376,
  "erzeugen": 35207,
  "erzeuger": 15545,
  "erzeugern": 33924,
  "erzeugnis": 41554,
  "erzeugnisse": 17034,
  "erzeugnissen": 20636,
  "erzeugung": 18474,
  "es": 102,
  "esaid": 30177,
  "esch": 497,
  "eschaffen": 45344,
  "eschiff": 39796,
  "eschrÃ¤n": 5241,
  "eschrÃ¤nkt": 7694,
  "eschÃ¤": 1146,
  "eschÃ¤ft": 1234,
  "eschÃ¤tz": 45838,
  "eschÃ¶n": 39795,
  "ese": 469,
  "esearch": 11493,
  "esebene": 35864,
  "eseen": 39755,
  "esehen": 6179,
  "esektor": 45296,
  "esellschaft": 2703,
  "esen": 2854,
  "esene": 35233,
  "esis": 26827,
  "esome": 44058,
  "ess": 288,
  "essaloniki": 25700,
  "essant": 28564,
  "esse": 2773,
  "essed": 35664,
  "essen": 1429,
  "essene": 10160,
  "essens": 27056,
  "essert": 35665,
  "esses": 5652,
  "essim": 19652,
  "essing": 28563,
  "ession": 4761,
  "essions": 15697,
  "essive": 44920,
  "essment": 39457,
  "essor": 14276,
  "esstrafe": 44059,
  "est": 251,
  "esta": 27020,
  "establish": 15357,
  "established": 31617,
  "establishing": 42157,
  "estag": 20963,
  "estalten": 39353,
  "estaltung": 25664,
  "estand": 25663,
  "estands": 32618,
  "estation": 30407,
  "este": 4992,
  "ested": 4324,
  "estehen": 19321,
  "estellung": 36791,
  "esten": 7522,
  "estens": 7049,
  "ester": 19558,
  "estet": 38764,
  "estic": 10255,
  "estil": 39352,
  "estim": 44787,
  "estion": 5233,
  "estions": 12779,
  "estmÃ¶gliche": 39354,
  "estmÃ¶glichen": 35593,
  "estock": 18558,
  "estr": 39351,
  "ests": 4130,
  "estÃ¤nd": 17621,
  "estÃ¤nde": 35592,
  "esy": 35232,
  "esystem": 32262,
  "et": 197,
  "etary": 4957,
  "etch": 35477,
  "ete": 17122,
  "eted": 38575,
  "eten": 9528,
  "eteners": 34002,
  "etent": 22481,
  "etenten": 35479,
  "etests": 23342,
  "eth": 1351,
  "etheit": 39169,
  "etheless": 5986,
  "ether": 1703,
  "ethik": 36219,
  "ething": 2278,
  "ethn": 14508,
  "ethnic": 16312,
  "ethnische": 42097,
  "ethod": 4586,
  "ethode": 36220,
  "ethoden": 36221,
  "etic": 18039,
  "etime": 25602,
  "etimes": 6241,
  "eting": 22482,
  "etit": 35478,
  "etition": 11595,
  "etitive": 28453,
  "etland": 18040,
  "ets": 5510,
  "ett": 1139,
  "etta": 45833,
  "ettbe": 1725,
  "ettbewerb": 1740,
  "ettbewerber": 27352,
  "ette": 6455,
  "etteln": 44571,
  "etten": 13781,
  "etter": 24416,
  "ettering": 14258,
  "ettern": 44570,
  "ettet": 28452,
  "etti": 45834,
  "etticher": 40156,
  "etting": 25908,
  "etto": 21101,
  "ettos": 40155,
  "etts": 44569,
  "etus": 16399,
  "etz": 415,
  "etze": 27131,
  "etzen": 1999,
  "etzliche": 45212,
  "etzt": 856,
  "etzten": 10707,
  "etzter": 35829,
  "etzugang": 45213,
  "etzung": 2277,
  "etzungen": 21769,
  "etzungs": 16857,
  "europÃ¤ischen": 43832,
  "eut": 17516,
  "ev": 18456,
  "evalu": 31721,
  "evaluation": 49910,
  "ever": 858,
  "everal": 24604,
  "everkehr": 17689,
  "evident": 24152,
  "eway": 32165,
  "ex": 6749,
  "exam": 41340,
  "existence": 41341,
  "existent": 47504,
  "exp": 23896,
  "experten": 47505,
  "exploitation": 37910,
  "exporte": 49383,
  "extre": 24971,
  "extrem": 31273,
  "extreme": 49462,
  "extremen": 29888,
  "f": 61,
  "face": 43845,
  "faced": 43856,
  "fach": 2323,
  "fache": 24276,
  "fachen": 32169,
  "faches": 46399,
  "fachleute": 46400,
  "facht": 43842,
  "fachte": 30897,
  "fachung": 13432,
  "fact": 43844,
  "fahr": 859,
  "fahren": 1301,
  "fahrens": 5167,
  "fahrer": 24605,
  "fahrt": 12811,
  "fahrts": 28792,
  "fahrungsgemÃ¤ÃŁ": 40024,
  "fahrzeug": 21078,
  "fahrzeuge": 13624,
  "fahrzeugen": 16493,
  "faktor": 20147,
  "faktoren": 30097,
  "fal": 30089,
  "fall": 1190,
  "falle": 28237,
  "fallen": 5887,
  "fallene": 33112,
  "falls": 1765,
  "falt": 6856,
  "falts": 35114,
  "faltung": 43850,
  "fam": 35108,
  "famil": 43846,
  "fan": 43838,
  "fang": 3193,
  "fangen": 8189,
  "fangene": 31337,
  "fangenen": 16247,
  "fangs": 18738,
  "fare": 10336,
  "farm": 26776,
  "farming": 42845,
  "fascist": 35115,
  "faser": 17972,
  "faserflachs": 27976,
  "fashion": 43854,
  "fassen": 11027,
  "fassend": 22370,
  "fassende": 48148,
  "fassung": 5298,
  "fassungen": 24277,
  "fast": 32167,
  "fat": 20835,
  "father": 43852,
  "favoured": 26779,
  "faz": 32170,
  "fazilitÃ¤t": 43115,
  "faÃŁt": 8188,
  "faÃŁten": 26778,
  "fe": 853,
  "fect": 4951,
  "fected": 18640,
  "fectious": 47136,
  "fee": 45653,
  "fehl": 3233,
  "fehle": 18641,
  "fehlen": 13234,
  "fehler": 27457,
  "fehlt": 46693,
  "fehlungen": 26063,
  "feil": 9240,
  "feiler": 11709,
  "feind": 5393,
  "feindlich": 47259,
  "feindlichen": 41162,
  "feindlichkeit": 6852,
  "feit": 7912,
  "feiting": 41507,
  "fekt": 14563,
  "fektion": 28791,
  "fel": 14988,
  "feld": 7913,
  "felder": 25209,
  "feldern": 37511,
  "felds": 25210,
  "felt": 22369,
  "fen": 656,
  "fenbein": 30625,
  "fence": 5243,
  "fens": 17517,
  "fer": 1869,
  "feren": 1251,
  "ference": 2493,
  "ferences": 14845,
  "ferencing": 45892,
  "ferenz": 1928,
  "fern": 2934,
  "fernen": 23652,
  "fernrede": 46592,
  "ferring": 17124,
  "fers": 8787,
  "ferst": 32168,
  "fert": 4039,
  "fertigt": 9676,
  "fertigte": 31073,
  "fertigten": 29165,
  "fessor": 35112,
  "fest": 30090,
  "festsetzung": 49795,
  "fet": 2147,
  "fety": 2212,
  "feu": 45654,
  "ff": 241,
  "ffair": 2378,
  "ffairs": 2518,
  "ffe": 1402,
  "ffect": 11601,
  "ffected": 5020,
  "ffective": 17055,
  "ffekt": 17721,
  "ffekte": 18551,
  "ffekten": 35566,
  "ffektiv": 33166,
  "ffen": 729,
  "ffens": 44743,
  "ffentlich": 2920,
  "ffentlichkeit": 4086,
  "ffice": 3611,
  "fficient": 35565,
  "ffin": 32591,
  "ffiz": 6457,
  "ffizien": 7395,
  "ffizient": 27646,
  "ffizienten": 41305,
  "ffizienz": 7513,
  "ffreiheit": 39305,
  "fft": 4275,
  "ffte": 30390,
  "ffung": 10157,
  "ffÃ¤re": 22506,
  "fi": 26774,
  "fia": 43841,
  "fibre": 17125,
  "ficial": 28236,
  "fifth": 38583,
  "fig": 28234,
  "fil": 16336,
  "file": 43843,
  "filierung": 42229,
  "fin": 1224,
  "financial": 23591,
  "financing": 36184,
  "finanz": 8820,
  "finanzen": 45874,
  "finanzierung": 11147,
  "finanzierungs": 47849,
  "find": 23216,
  "finde": 25922,
  "finden": 3436,
  "findig": 42626,
  "finding": 30093,
  "findung": 15953,
  "findungen": 30094,
  "fine": 30092,
  "fined": 13015,
  "fining": 40182,
  "finished": 40185,
  "finit": 19767,
  "finite": 40183,
  "finitely": 23141,
  "finition": 30745,
  "finspekt": 40184,
  "fire": 26775,
  "firm": 43848,
  "firmen": 28239,
  "first": 21557,
  "fisch": 24274,
  "fische": 35109,
  "fischerei": 32173,
  "fischung": 30096,
  "fish": 28235,
  "fishermen": 43858,
  "fishing": 30095,
  "fit": 1972,
  "five": 30091,
  "fiz": 6231,
  "fl": 913,
  "flachs": 18171,
  "flag": 12931,
  "flanz": 10966,
  "flanzen": 7328,
  "flation": 23552,
  "flax": 43857,
  "fle": 18457,
  "fledged": 30098,
  "fleisch": 7643,
  "fler": 40051,
  "flich": 24273,
  "fliche": 38582,
  "flichen": 43839,
  "flichkeit": 35111,
  "flicht": 1900,
  "flichten": 24721,
  "flieÃŁen": 32171,
  "flik": 30682,
  "flikt": 16498,
  "flossen": 40053,
  "flotte": 33032,
  "flucht": 36081,
  "flug": 20380,
  "flugzeug": 42481,
  "flugzeuge": 49102,
  "fluous": 24608,
  "flusses": 45699,
  "flut": 40052,
  "fluÃŁ": 6357,
  "flÃ¤ch": 28240,
  "flÃ¤che": 22371,
  "flÃ¤chen": 13326,
  "flÃ¼cht": 33031,
  "flÃ¼ge": 27245,
  "flÃ¼ss": 14318,
  "fo": 28233,
  "foc": 43840,
  "fol": 974,
  "fold": 16503,
  "folg": 2120,
  "folge": 4263,
  "folged": 27250,
  "folgedessen": 29945,
  "folgen": 3433,
  "folgenden": 20514,
  "folgern": 40496,
  "folgt": 3992,
  "folio": 19748,
  "folios": 30692,
  "fon": 14214,
  "fond": 21558,
  "fonds": 2749,
  "food": 20836,
  "foodstuffs": 37774,
  "foot": 42930,
  "for": 310,
  "force": 16843,
  "ford": 6499,
  "forder": 1069,
  "fordern": 5581,
  "fordert": 3301,
  "forderung": 5563,
  "forderungen": 3667,
  "fords": 28576,
  "fordshire": 34819,
  "fore": 682,
  "foren": 35679,
  "forestation": 30469,
  "form": 560,
  "formation": 1079,
  "forme": 18083,
  "formel": 32918,
  "formen": 4147,
  "forms": 5282,
  "formul": 45412,
  "formulierung": 32919,
  "forschung": 19111,
  "forschungen": 28577,
  "fort": 2402,
  "forth": 24751,
  "fortun": 3534,
  "fortunately": 3919,
  "fortune": 46425,
  "forum": 27063,
  "forward": 24476,
  "foss": 43851,
  "founded": 43855,
  "fr": 947,
  "fra": 1657,
  "frage": 2884,
  "fragen": 3480,
  "fragt": 9405,
  "frame": 21899,
  "fran": 35110,
  "frastruktur": 6655,
  "fraud": 33222,
  "frauen": 46136,
  "fre": 4091,
  "frecht": 43847,
  "free": 15289,
  "frei": 5151,
  "freie": 29172,
  "freien": 19866,
  "freier": 40908,
  "freies": 46928,
  "freiheit": 7453,
  "freiheiten": 12298,
  "frem": 31074,
  "fremden": 46929,
  "freund": 10885,
  "freundlich": 34096,
  "freundliche": 48125,
  "freundlicher": 48126,
  "fried": 25433,
  "frieden": 5724,
  "friendly": 17126,
  "frist": 3475,
  "fristen": 16501,
  "fristig": 24816,
  "fron": 18643,
  "front": 7780,
  "froren": 45717,
  "frucht": 36090,
  "frÃ¼": 20383,
  "frÃ¼chten": 42482,
  "fs": 4914,
  "fste": 32166,
  "ft": 259,
  "fte": 2180,
  "fted": 10443,
  "ften": 1768,
  "fter": 1812,
  "ftet": 11572,
  "fth": 32619,
  "ftig": 11479,
  "ftige": 44793,
  "ftigen": 25665,
  "ftigsten": 22987,
  "ftpflicht": 39359,
  "ftware": 25666,
  "fu": 8117,
  "fuhr": 10020,
  "fuhren": 18333,
  "ful": 1536,
  "fully": 3859,
  "fulness": 36274,
  "function": 26777,
  "functioning": 42846,
  "funded": 32174,
  "funden": 9819,
  "fung": 1647,
  "fungen": 15952,
  "fungs": 24275,
  "funk": 15290,
  "funktion": 17518,
  "funktionen": 35113,
  "furt": 28238,
  "fusionen": 32172,
  "futter": 14989,
  "fz": 43837,
  "fÃ¤": 1370,
  "fÃ¤h": 2469,
  "fÃ¤hig": 8226,
  "fÃ¤hige": 13655,
  "fÃ¤higen": 12111,
  "fÃ¤higer": 17757,
  "fÃ¤higkeit": 3752,
  "fÃ¤hr": 7046,
  "fÃ¤hre": 46453,
  "fÃ¤hrt": 19359,
  "fÃ¤ll": 9331,
  "fÃ¤lle": 4033,
  "fÃ¤llen": 6651,
  "fÃ¤llig": 9657,
  "fÃ¤llige": 22944,
  "fÃ¤lligen": 21346,
  "fÃ¤lligkeit": 18349,
  "fÃ¤llt": 11221,
  "fÃ¤lsch": 43853,
  "fÃ¤lt": 6857,
  "fÃ¤ng": 10922,
  "fÃ¤nger": 17123,
  "fÃ¤ngern": 37283,
  "fÃ¶rder": 25434,
  "fÃ¶rdern": 24278,
  "fÃ¶rdernd": 42696,
  "fÃ¶rdernde": 42697,
  "fÃ¶rderung": 16337,
  "fÃ¼": 1330,
  "fÃ¼g": 19207,
  "fÃ¼gen": 20412,
  "fÃ¼gt": 13412,
  "fÃ¼gte": 48996,
  "fÃ¼gten": 37707,
  "fÃ¼hl": 8342,
  "fÃ¼hr": 803,
  "fÃ¼hrbar": 24594,
  "fÃ¼hren": 5017,
  "fÃ¼hrend": 22630,
  "fÃ¼hrende": 25854,
  "fÃ¼hrenden": 20367,
  "fÃ¼hrer": 23539,
  "fÃ¼hrern": 36046,
  "fÃ¼hrt": 1891,
  "fÃ¼hrte": 12248,
  "fÃ¼hrten": 7677,
  "fÃ¼hrung": 1982,
  "fÃ¼hrungen": 45617,
  "fÃ¼hrungs": 7171,
  "fÃ¼llen": 40235,
  "fÃ¼llt": 24664,
  "fÃ¼llung": 13018,
  "fÃ¼nf": 43849,
  "fÃ¼r": 1016,
  "fÃ¼rsorge": 17699,
  "g": 62,
  "ga": 1888,
  "gaard": 33262,
  "gab": 25435,
  "gabe": 2782,
  "gabel": 38591,
  "gaben": 2079,
  "gabens": 36334,
  "gain": 13115,
  "gal": 14990,
  "gam": 32176,
  "gan": 702,
  "ganda": 32178,
  "gang": 2835,
  "gangen": 1545,
  "gangene": 28918,
  "gangenen": 3096,
  "gangs": 19825,
  "gangspunkt": 40669,
  "gani": 28755,
  "gap": 32177,
  "gar": 2540,
  "garant": 18235,
  "garantie": 37658,
  "garantien": 22276,
  "garde": 40604,
  "garine": 40605,
  "garten": 33367,
  "gas": 28242,
  "gasrein": 49682,
  "gasse": 30102,
  "gau": 38587,
  "gbarkeit": 16339,
  "gbarkeiten": 48708,
  "ge": 133,
  "geachtet": 25529,
  "geb": 912,
  "gebaren": 38925,
  "gebaut": 11635,
  "geben": 1344,
  "gebend": 20413,
  "gebende": 22663,
  "gebenden": 40236,
  "gebendes": 45966,
  "geber": 7586,
  "gebie": 8455,
  "gebiet": 9964,
  "gebiete": 9604,
  "gebieten": 13625,
  "gebietes": 47990,
  "gebiets": 25031,
  "gebietsein": 47804,
  "gebildet": 30681,
  "geblich": 25871,
  "geblieben": 24607,
  "gebnis": 15430,
  "gebot": 36079,
  "gebracht": 4082,
  "gebrachte": 45697,
  "gebrauch": 45695,
  "gebunden": 45696,
  "gebung": 4115,
  "gebungen": 40049,
  "geburt": 45698,
  "geburten": 33030,
  "gebÃ¤ude": 36080,
  "gebÃ¼hr": 40050,
  "gebÃ¼hren": 15107,
  "ged": 2666,
  "gedacht": 19821,
  "gedanke": 30948,
  "gedanken": 21189,
  "gedrungen": 46510,
  "geduld": 30947,
  "gef": 44271,
  "gefahr": 35348,
  "gefahren": 22447,
  "gefallen": 30251,
  "gefaÃŁt": 35351,
  "gefe": 38923,
  "gefÃ¤hr": 20197,
  "gefÃ¤hrden": 28021,
  "gefÃ¤hrdeten": 42465,
  "gefÃ¤lle": 32363,
  "gefÃ¤lligkeit": 32364,
  "gefÃ¼": 23300,
  "gefÃ¼ge": 37879,
  "gefÃ¼ges": 37880,
  "gefÃ¼gt": 21630,
  "gefÃ¼hl": 13129,
  "gefÃ¼hrt": 14237,
  "geg": 10243,
  "gegangen": 16780,
  "gegangenen": 28365,
  "gegeben": 15326,
  "gegen": 2887,
  "gegenwÃ¤rt": 24779,
  "gegenÃ¼ber": 46582,
  "gehalt": 15642,
  "gehalten": 15641,
  "gehalts": 38924,
  "geheim": 25530,
  "geheimnis": 34721,
  "gehen": 1311,
  "gehend": 4401,
  "gehende": 11645,
  "gehenden": 13206,
  "gehender": 30765,
  "geht": 6637,
  "gehÃ¶ren": 35350,
  "gehÃ¶rigkeit": 35352,
  "geist": 15983,
  "geister": 17556,
  "geiz": 7352,
  "gekommen": 14487,
  "gekommenen": 48535,
  "gel": 997,
  "gelar": 28364,
  "gelassen": 7426,
  "gelassene": 47635,
  "gelaufen": 44274,
  "geld": 19749,
  "gelder": 21839,
  "geldern": 22640,
  "gele": 1802,
  "geleg": 4019,
  "gelegt": 2391,
  "gelegte": 11124,
  "gelegten": 4886,
  "geleite": 16543,
  "geleitet": 7175,
  "geleiteten": 48729,
  "gelesen": 45740,
  "geln": 4395,
  "gelt": 5712,
  "gelte": 30699,
  "gelten": 21840,
  "gelung": 2979,
  "gelungen": 12612,
  "gelÃ¶st": 11794,
  "gemacht": 25531,
  "geme": 32362,
  "gemein": 1894,
  "gemeinden": 46238,
  "gemeing": 34932,
  "gemeinschaft": 7834,
  "gemeinschaften": 25974,
  "gement": 2245,
  "gemerkt": 22448,
  "gemÃ¤ÃŁ": 5628,
  "gemÃ¼": 44275,
  "gen": 199,
  "genannte": 30337,
  "genannten": 24417,
  "genau": 32496,
  "gence": 20237,
  "gencies": 11465,
  "gency": 4371,
  "gend": 1214,
  "genda": 2373,
  "gende": 19619,
  "gendem": 33116,
  "genden": 20236,
  "gender": 44574,
  "gendes": 6837,
  "gendijk": 15765,
  "gene": 30336,
  "genehm": 19063,
  "genehmigung": 34494,
  "genehmigungen": 34495,
  "gener": 16401,
  "general": 23344,
  "generated": 31648,
  "generation": 19062,
  "genhuber": 13582,
  "genie": 35481,
  "genommen": 1624,
  "genossen": 32498,
  "genossenschaft": 43141,
  "gens": 35480,
  "gensen": 39170,
  "gent": 18978,
  "genutzt": 32497,
  "geoning": 38926,
  "geord": 1194,
  "geordne": 1206,
  "geordnet": 17710,
  "geordnete": 18196,
  "geordneten": 19764,
  "geprÃ¼": 35349,
  "ger": 627,
  "gere": 5836,
  "gerechnet": 24942,
  "gerecht": 17128,
  "gerechte": 24941,
  "gerechten": 31218,
  "gerei": 47335,
  "gereich": 26780,
  "gereicht": 41225,
  "gereien": 13915,
  "gericht": 23518,
  "gerichtet": 17676,
  "gerichts": 17255,
  "gerichtsbarkeit": 42286,
  "gerichtshof": 23094,
  "gern": 3099,
  "gers": 9372,
  "gert": 12188,
  "gerufen": 11080,
  "gerung": 5767,
  "gerungen": 4361,
  "gerÃ¤t": 27199,
  "gerÃ¤te": 32944,
  "gerÃ¼ckt": 39896,
  "gerÃ¼ttelt": 45473,
  "ges": 390,
  "gesagt": 39661,
  "gesamt": 4302,
  "gesch": 1310,
  "gesche": 45169,
  "geschichte": 27306,
  "geschick": 45939,
  "geschlagen": 27305,
  "geschlossen": 4349,
  "geschmack": 33147,
  "geschneider": 45943,
  "geschoben": 45941,
  "geschrieben": 13411,
  "geschritten": 14848,
  "geschwind": 12089,
  "geschÃ¤": 17284,
  "geschÃ¤d": 45940,
  "geschÃ¤ft": 34407,
  "geschÃ¤fte": 22262,
  "geschÃ¼ttel": 45942,
  "gese": 1646,
  "gesehen": 2291,
  "gesellschaft": 4138,
  "gesellschaften": 10384,
  "gesetz": 6076,
  "gesetze": 22865,
  "gesetzen": 35809,
  "gesetzgebung": 11983,
  "gesetzt": 3087,
  "gesetzte": 22059,
  "gesetzten": 19914,
  "gesichts": 6714,
  "gesprÃ¤": 15390,
  "gesprÃ¤ch": 42161,
  "gesprÃ¤che": 23063,
  "gesprÃ¤chen": 26500,
  "gest": 1693,
  "gestalt": 33226,
  "gestaltung": 10856,
  "gestanden": 25959,
  "geste": 16452,
  "gested": 7536,
  "gestell": 45170,
  "gestellt": 2472,
  "gestellte": 17233,
  "gestellten": 10164,
  "gestellungen": 45171,
  "gestern": 25755,
  "gestimmt": 6322,
  "gestÃ¼tzte": 46149,
  "gesucht": 20305,
  "gesundheit": 5607,
  "get": 1026,
  "getan": 22643,
  "getastet": 36124,
  "getauscht": 40100,
  "gether": 2516,
  "getragen": 9150,
  "getroffen": 33070,
  "geud": 21629,
  "gew": 2060,
  "gewalt": 16781,
  "gewerbe": 35353,
  "gewicht": 5889,
  "gewichte": 18221,
  "gewichts": 15782,
  "gewichtung": 27617,
  "gewiesen": 4070,
  "gewinn": 36365,
  "gewinnen": 18699,
  "gewinnung": 27380,
  "gewirkt": 44276,
  "gewogen": 10577,
  "gewogenheit": 11720,
  "gewogenheiten": 48084,
  "gewohnheiten": 28366,
  "gewonnen": 36366,
  "gewor": 44272,
  "gewÃ¤sser": 14488,
  "gewÃ¤ssern": 25532,
  "gewÃ¶hn": 11105,
  "gezogen": 44273,
  "gg": 24279,
  "ggen": 17127,
  "gh": 12344,
  "ghan": 15915,
  "gheit": 35120,
  "ght": 18980,
  "giate": 38590,
  "gibt": 7644,
  "gie": 32175,
  "gieb": 15954,
  "gien": 30101,
  "giene": 25437,
  "gier": 35118,
  "gil": 38584,
  "gin": 1128,
  "ginalisierung": 40154,
  "ging": 6232,
  "gingen": 38589,
  "ginn": 6574,
  "ginnen": 1969,
  "gion": 43859,
  "gipfel": 13761,
  "gipfels": 30104,
  "gis": 35116,
  "giv": 35119,
  "gl": 2563,
  "gland": 43860,
  "gle": 13760,
  "gleich": 1930,
  "gleichen": 12103,
  "gleichgewicht": 36337,
  "gleichgewichts": 40432,
  "gleichheit": 10612,
  "gleis": 25436,
  "glich": 692,
  "gliche": 3686,
  "glichen": 2254,
  "glie": 621,
  "glied": 30620,
  "gliedert": 45471,
  "glÃ¼ck": 4310,
  "gment": 28243,
  "gn": 9921,
  "gnant": 37209,
  "go": 4073,
  "going": 8911,
  "gol": 18979,
  "gone": 24280,
  "gos": 15605,
  "goti": 26781,
  "governing": 46924,
  "government": 3536,
  "governmental": 3557,
  "gow": 38585,
  "gr": 436,
  "gra": 552,
  "graben": 15729,
  "grace": 17670,
  "grad": 9315,
  "gradable": 41651,
  "grade": 13184,
  "graded": 26335,
  "grading": 27185,
  "graf": 45403,
  "gram": 672,
  "gramm": 3633,
  "grant": 22579,
  "graph": 1968,
  "gras": 39710,
  "grass": 45245,
  "grat": 3067,
  "grdens": 39711,
  "gre": 2239,
  "gred": 16338,
  "greement": 8158,
  "greg": 19243,
  "greif": 7177,
  "greife": 27395,
  "greifen": 3914,
  "greifend": 21310,
  "greifende": 13712,
  "greifenden": 13924,
  "greifender": 40876,
  "greifendes": 37016,
  "greiflich": 33839,
  "greift": 17519,
  "gremien": 18709,
  "gremium": 29007,
  "gren": 39709,
  "grennan": 24525,
  "grenz": 4827,
  "grenze": 9393,
  "grenzen": 8139,
  "grenzt": 47106,
  "grenzung": 6405,
  "grenzwerte": 21256,
  "gress": 2148,
  "gricult": 1993,
  "griff": 3912,
  "griffe": 16168,
  "griffen": 4405,
  "gro": 17973,
  "ground": 9101,
  "group": 31705,
  "growing": 30103,
  "groÃŁ": 48873,
  "gru": 3830,
  "grund": 1797,
  "grundlage": 6364,
  "grundlagen": 24714,
  "grundsatz": 25966,
  "grundsÃ¤tze": 33254,
  "gruppe": 7446,
  "gruppen": 5529,
  "grÃ¤": 30100,
  "grÃ¶ÃŁ": 13604,
  "grÃ¶ÃŁe": 32833,
  "grÃ¼nd": 6527,
  "grÃ¼nde": 20317,
  "grÃ¼nden": 14290,
  "grÃ¼ndet": 17384,
  "grÃ¼ndung": 47472,
  "grÃ¼ndungen": 36968,
  "grÃ¼ÃŁ": 45246,
  "gst": 28241,
  "gt": 472,
  "gte": 30099,
  "gten": 35117,
  "gu": 4241,
  "guard": 31088,
  "gue": 38586,
  "guer": 14991,
  "guided": 40961,
  "guin": 24862,
  "gument": 4145,
  "gung": 2930,
  "gungen": 4666,
  "gungs": 19532,
  "gurs": 43861,
  "gut": 10923,
  "gutes": 38588,
  "guts": 35121,
  "gutzumachen": 43862,
  "gy": 23217,
  "gyzstan": 37871,
  "gÃ¤n": 3738,
  "gÃ¤ng": 14732,
  "gÃ¤nge": 33518,
  "gÃ¤ngen": 46830,
  "gÃ¤nger": 27495,
  "gÃ¤ngig": 24086,
  "gÃ¤nglich": 11249,
  "gÃ¤nz": 6847,
  "gÃ¤nzen": 12286,
  "gÃ¤ste": 20837,
  "gÃ¼lt": 5572,
  "gÃ¼ltig": 19332,
  "gÃ¼ltigkeit": 26200,
  "gÃ¼nst": 14992,
  "gÃ¼ter": 20148,
  "gÃ¼tern": 35122,
  "gÃ¼terverkehr": 49071,
  "h": 63,
  "ha": 1042,
  "hab": 7253,
  "habe": 26782,
  "haben": 4565,
  "habens": 28827,
  "haber": 33076,
  "habil": 14470,
  "habilitation": 15928,
  "habitats": 47605,
  "habt": 14170,
  "hael": 45764,
  "haft": 3264,
  "hafte": 6573,
  "haften": 7608,
  "hafter": 16089,
  "haftes": 31010,
  "haftet": 16887,
  "hafteten": 31266,
  "haftigkeit": 22775,
  "haftung": 16578,
  "hagen": 8336,
  "hal": 353,
  "halb": 863,
  "half": 1916,
  "hall": 2096,
  "hallen": 46325,
  "halopath": 14281,
  "halt": 1120,
  "halte": 8075,
  "halten": 952,
  "halter": 23439,
  "haltige": 24640,
  "haltigem": 45821,
  "haltigkeit": 15119,
  "halts": 1488,
  "haltung": 3370,
  "ham": 16742,
  "hammer": 37585,
  "hand": 1081,
  "handed": 20395,
  "handedly": 49106,
  "handel": 7543,
  "handeln": 10967,
  "handels": 8015,
  "handelt": 9052,
  "handelten": 23564,
  "handen": 5152,
  "handlung": 4963,
  "handlungen": 8817,
  "hanf": 25440,
  "hang": 1841,
  "haps": 3135,
  "hard": 12735,
  "hardt": 14202,
  "harm": 32180,
  "harmon": 20841,
  "harmonised": 37775,
  "haufen": 43868,
  "haul": 18184,
  "haupt": 4106,
  "haus": 5897,
  "hause": 23219,
  "hauses": 36908,
  "hausg": 21281,
  "haushalt": 10643,
  "haushalte": 36909,
  "haushalts": 16630,
  "haust": 21095,
  "haustible": 49158,
  "haut": 28826,
  "haven": 33077,
  "hazardous": 27263,
  "haÃŁ": 22372,
  "he": 683,
  "head": 7064,
  "headed": 37003,
  "heads": 47562,
  "hear": 11161,
  "heartedly": 48167,
  "heat": 35982,
  "heb": 3133,
  "hebeln": 46661,
  "heben": 4463,
  "heber": 12078,
  "heberrechts": 48278,
  "hebt": 23736,
  "hebung": 8558,
  "hed": 25438,
  "heer": 11207,
  "heid": 16483,
  "heil": 15097,
  "heiligkeit": 42143,
  "heim": 8212,
  "heit": 431,
  "heiten": 1656,
  "heitlichen": 25766,
  "heitlichung": 18602,
  "heits": 14289,
  "heitsgrad": 42086,
  "heizen": 39934,
  "hel": 35123,
  "held": 21559,
  "helf": 43864,
  "helfen": 28246,
  "hell": 14823,
  "hem": 4684,
  "hemenz": 36747,
  "hemm": 27552,
  "hemmt": 41032,
  "hen": 377,
  "hend": 3316,
  "hende": 20296,
  "hendes": 40785,
  "hened": 45126,
  "her": 296,
  "heran": 30462,
  "heraus": 39467,
  "herd": 22529,
  "here": 3029,
  "herein": 19533,
  "heres": 22530,
  "hergesehen": 35671,
  "hern": 4689,
  "herr": 9466,
  "herren": 35670,
  "herrschaft": 18350,
  "herry": 39468,
  "hersteller": 13159,
  "herstellern": 27059,
  "herstellung": 10161,
  "herz": 28567,
  "herzigen": 42954,
  "hes": 3696,
  "hesion": 4701,
  "het": 10924,
  "hetor": 11304,
  "hib": 9199,
  "hic": 24283,
  "hielt": 30105,
  "hier": 32179,
  "hierarchie": 38214,
  "hig": 16741,
  "high": 38594,
  "hil": 1481,
  "hilf": 12826,
  "hilfe": 2921,
  "hilfen": 2858,
  "hilos": 10083,
  "hilosoph": 10437,
  "him": 38592,
  "hin": 1264,
  "hind": 35127,
  "hinder": 12434,
  "hindert": 18197,
  "hinderung": 12088,
  "hiness": 28874,
  "hing": 2978,
  "hington": 16955,
  "hinken": 38596,
  "hinter": 30756,
  "hip": 2281,
  "hips": 30894,
  "hire": 28245,
  "hist": 35128,
  "hl": 643,
  "hle": 11573,
  "hlen": 6461,
  "hless": 25819,
  "hlt": 8965,
  "hlte": 30623,
  "hlten": 16480,
  "hlung": 32950,
  "hm": 2149,
  "hmarn": 40510,
  "hme": 10133,
  "hmen": 726,
  "hmigung": 9767,
  "hmir": 19799,
  "hn": 1095,
  "hne": 1320,
  "hnen": 3798,
  "hnend": 40143,
  "hner": 9102,
  "hnes": 45813,
  "hnlich": 30728,
  "hnt": 2968,
  "hnte": 36152,
  "hnten": 22652,
  "hnung": 5670,
  "ho": 1893,
  "hoben": 5201,
  "hoc": 23218,
  "hof": 3515,
  "hol": 2050,
  "holbedarf": 36360,
  "hold": 9410,
  "holders": 18698,
  "holding": 19798,
  "holds": 24732,
  "hole": 11102,
  "holen": 12638,
  "holes": 23664,
  "holfen": 19797,
  "holic": 25439,
  "holm": 24731,
  "holt": 16933,
  "holung": 19796,
  "holz": 21915,
  "hom": 24282,
  "hon": 28244,
  "hood": 12446,
  "hor": 18981,
  "horn": 43865,
  "horsam": 48959,
  "hort": 35126,
  "hour": 20839,
  "house": 13538,
  "houses": 28247,
  "how": 12734,
  "hr": 194,
  "hre": 6160,
  "hreb": 16633,
  "hren": 5178,
  "hrendt": 9213,
  "hright": 35472,
  "hrist": 5157,
  "hrlich": 32490,
  "hrough": 32181,
  "hrreich": 44558,
  "hrseite": 35473,
  "hrt": 11463,
  "hrte": 4560,
  "hrten": 8383,
  "hrter": 12764,
  "hrtheit": 31484,
  "hrÃ¤uch": 44559,
  "ht": 360,
  "hten": 35124,
  "huber": 8374,
  "hud": 38593,
  "hul": 35125,
  "hulled": 38302,
  "human": 20840,
  "hun": 20838,
  "hunder": 38595,
  "hundert": 19534,
  "hunderte": 43869,
  "hunderttausend": 43870,
  "hung": 4469,
  "hungern": 33590,
  "hunting": 34568,
  "hut": 43863,
  "hy": 8052,
  "hydro": 26291,
  "hÃ¤": 24281,
  "hÃ¤fen": 43867,
  "hÃ¤lt": 2261,
  "hÃ¤lter": 21561,
  "hÃ¤ltnismÃ¤ÃŁ": 29010,
  "hÃ¤n": 5124,
  "hÃ¤nd": 16340,
  "hÃ¤ndler": 23078,
  "hÃ¤ndlern": 31646,
  "hÃ¤ng": 2353,
  "hÃ¤nge": 22028,
  "hÃ¤ngen": 9794,
  "hÃ¤nger": 21560,
  "hÃ¤ngt": 10203,
  "hÃ¤renz": 43866,
  "hÃ¤uf": 32182,
  "hÃ¤uft": 31889,
  "hÃ¶": 2836,
  "hÃ¶chst": 17762,
  "hÃ¶fe": 40670,
  "hÃ¶h": 26042,
  "hÃ¶he": 30967,
  "hÃ¶hen": 30966,
  "hÃ¶hung": 6776,
  "hÃ¶hungen": 38009,
  "hÃ¶r": 1070,
  "hÃ¶rde": 40128,
  "hÃ¶rden": 33083,
  "hÃ¶re": 14613,
  "hÃ¶ren": 6287,
  "hÃ¶renden": 45788,
  "hÃ¶rig": 45787,
  "hÃ¶rige": 15114,
  "hÃ¶rigen": 10494,
  "hÃ¶riger": 40129,
  "hÃ¶rigkeit": 16094,
  "hÃ¶rigkeiten": 36142,
  "hÃ¶rt": 10380,
  "hÃ¼": 20149,
  "hÃ¼lsen": 34550,
  "hÃ¼t": 10134,
  "hÃ¼tung": 10332,
  "i": 64,
  "ia": 945,
  "iability": 28248,
  "iable": 7309,
  "iably": 18460,
  "iag": 38599,
  "iak": 22373,
  "ial": 315,
  "iale": 30474,
  "ialen": 28585,
  "ialismus": 44954,
  "ialog": 2496,
  "ialogue": 4119,
  "iament": 524,
  "iampi": 43876,
  "ian": 1418,
  "ianaut": 40268,
  "iance": 5725,
  "iances": 27320,
  "iani": 33174,
  "ianischen": 40267,
  "iano": 40266,
  "ians": 4354,
  "iant": 17520,
  "iar": 2234,
  "iard": 38597,
  "iaries": 16551,
  "iarity": 5990,
  "iary": 12932,
  "ias": 23220,
  "iate": 4292,
  "iated": 6858,
  "iately": 6264,
  "iates": 21562,
  "iating": 18459,
  "iation": 2602,
  "iationen": 36462,
  "iations": 11313,
  "iative": 38598,
  "iatory": 30108,
  "ib": 347,
  "iban": 39563,
  "ibbe": 19670,
  "ibe": 5110,
  "ibed": 8208,
  "ibel": 35736,
  "iben": 9013,
  "iber": 1380,
  "iberal": 1532,
  "ibes": 21001,
  "ibet": 7008,
  "ibi": 23438,
  "ibia": 21746,
  "ibility": 5518,
  "ibing": 27098,
  "ibiot": 7716,
  "ibl": 19668,
  "ible": 1871,
  "ibly": 14279,
  "ibout": 39564,
  "ibouti": 43507,
  "ibr": 19669,
  "ibre": 11913,
  "ibt": 895,
  "ibung": 22549,
  "ibungen": 32746,
  "ibungs": 14280,
  "ibut": 32745,
  "ibÃ¼ne": 39565,
  "ic": 165,
  "ica": 2231,
  "icable": 15656,
  "icably": 44451,
  "icacious": 44456,
  "icacy": 36386,
  "icago": 39055,
  "ical": 525,
  "ically": 1608,
  "ican": 3295,
  "icans": 8437,
  "icardo": 39054,
  "icate": 8737,
  "icated": 13571,
  "icating": 23324,
  "ication": 2831,
  "ications": 6601,
  "icature": 44453,
  "ice": 825,
  "iced": 10811,
  "ices": 1649,
  "ich": 114,
  "ichard": 38822,
  "iche": 38821,
  "ichen": 4174,
  "icher": 1089,
  "ichererb": 33089,
  "ichererbsen": 34991,
  "icherheit": 1270,
  "ichern": 18003,
  "ichert": 9110,
  "icherte": 33088,
  "icherung": 6096,
  "icherungen": 17278,
  "icherungs": 9570,
  "ichol": 23263,
  "icht": 172,
  "ichtbar": 12046,
  "ichte": 2225,
  "ichten": 3770,
  "ichter": 35436,
  "ichtet": 3550,
  "ichtete": 13649,
  "ichteten": 12452,
  "ichtig": 10056,
  "ichtige": 20913,
  "ichtigen": 28429,
  "ichtiger": 26938,
  "ichtigste": 27777,
  "ichtigt": 35438,
  "ichtlichen": 39104,
  "ichtlinie": 20225,
  "ichtlinien": 39105,
  "ichts": 1837,
  "ichtsinn": 46226,
  "ichtung": 12045,
  "ichtungs": 35437,
  "ichwort": 21609,
  "icial": 2548,
  "iciary": 21662,
  "icide": 32431,
  "icides": 44452,
  "icien": 5478,
  "iciencies": 14907,
  "iciency": 6662,
  "icient": 2667,
  "icing": 17579,
  "icino": 39052,
  "icious": 20216,
  "icip": 7811,
  "icipation": 47722,
  "icism": 17580,
  "icity": 39051,
  "ick": 538,
  "icken": 10715,
  "ickente": 45387,
  "ickers": 39829,
  "icket": 35925,
  "ickets": 32905,
  "icking": 9646,
  "icks": 9142,
  "ickt": 12567,
  "icle": 2208,
  "icles": 4499,
  "ico": 8063,
  "icop": 20215,
  "icosia": 44455,
  "icrous": 44454,
  "ics": 3678,
  "ict": 1470,
  "icted": 8128,
  "icter": 15995,
  "ictment": 27332,
  "icts": 14496,
  "icular": 32432,
  "iculous": 17166,
  "iculously": 39056,
  "icult": 1192,
  "icultural": 33113,
  "icuous": 39053,
  "id": 200,
  "idable": 39173,
  "idakis": 11047,
  "idal": 23345,
  "idar": 2911,
  "idaten": 26970,
  "iday": 5539,
  "idd": 8068,
  "iddle": 8714,
  "ide": 768,
  "ided": 2004,
  "idee": 39970,
  "idem": 26968,
  "iden": 940,
  "idence": 2780,
  "idences": 40063,
  "idencies": 30686,
  "idency": 2659,
  "ident": 308,
  "identally": 28575,
  "identitÃ¤t": 39479,
  "idents": 6281,
  "ider": 723,
  "ides": 3325,
  "idet": 18041,
  "ideut": 20364,
  "ideweg": 39971,
  "idge": 39171,
  "idi": 44575,
  "iding": 4299,
  "idio": 39175,
  "idious": 39174,
  "idisziplin": 39176,
  "idium": 9835,
  "ido": 10348,
  "idos": 39172,
  "ids": 32499,
  "idung": 10690,
  "idungen": 26969,
  "ie": 109,
  "ieb": 11172,
  "iebe": 13549,
  "ieben": 5647,
  "iece": 28316,
  "ieck": 32291,
  "ied": 959,
  "iedeln": 40076,
  "iedelt": 25881,
  "iedelten": 18176,
  "ieden": 11323,
  "ieder": 2164,
  "iedlung": 40075,
  "iedrig": 30689,
  "ief": 5007,
  "iefer": 26839,
  "ieferung": 26173,
  "iefst": 11539,
  "iefung": 15311,
  "ieg": 12200,
  "iegel": 14745,
  "iegeln": 44098,
  "iegelt": 21605,
  "iegen": 8860,
  "ieh": 15621,
  "iehen": 35258,
  "iehlt": 19019,
  "ieht": 4489,
  "iein": 18487,
  "ieinhalb": 24153,
  "iel": 393,
  "ield": 2825,
  "ields": 9558,
  "iele": 2094,
  "ielen": 3574,
  "iell": 5602,
  "ielle": 4092,
  "iellen": 3228,
  "ieller": 10803,
  "ielles": 47308,
  "iellose": 47309,
  "ielt": 4373,
  "ielte": 24508,
  "ielten": 15081,
  "ien": 405,
  "ience": 6210,
  "iences": 30544,
  "iency": 27129,
  "iene": 9951,
  "ienen": 4541,
  "iens": 6633,
  "ienst": 2046,
  "ienste": 4049,
  "iensten": 35825,
  "iensteten": 13891,
  "ient": 1218,
  "iente": 13172,
  "ienten": 17283,
  "ientific": 15441,
  "ientious": 22659,
  "iently": 40178,
  "ients": 10382,
  "ier": 229,
  "ierbar": 30380,
  "ierbare": 30381,
  "ierbaren": 39274,
  "ierbares": 44714,
  "ierbarkeit": 26999,
  "iere": 4291,
  "ieren": 625,
  "ierend": 9127,
  "ierende": 7278,
  "ierenden": 5165,
  "ierender": 10833,
  "ierendes": 15885,
  "ierens": 30379,
  "ierhuber": 11756,
  "ierigkeiten": 26998,
  "iern": 23378,
  "ierre": 24441,
  "iers": 4643,
  "iert": 738,
  "iertage": 45565,
  "ierte": 2190,
  "iertel": 11943,
  "iertem": 40525,
  "ierten": 2012,
  "ierter": 5903,
  "iertere": 22859,
  "ierteren": 41237,
  "iertes": 20361,
  "iertheit": 32978,
  "iertiger": 45566,
  "ierung": 632,
  "ierungen": 2593,
  "ierungs": 1678,
  "ierungsmaÃŁnahmen": 40347,
  "ierungsrichtlinie": 33224,
  "ierungsverfahren": 46143,
  "iery": 39273,
  "ies": 173,
  "iese": 24402,
  "iesen": 2312,
  "iesene": 26939,
  "iest": 14772,
  "iester": 44505,
  "iet": 5175,
  "iete": 35257,
  "ieten": 4325,
  "ietet": 5731,
  "ieth": 14744,
  "ieties": 11266,
  "ietung": 41112,
  "iety": 2122,
  "ietz": 25489,
  "ieu": 44097,
  "ievski": 44099,
  "iew": 4125,
  "iewed": 15312,
  "ieÃŁ": 16361,
  "ieÃŁen": 20868,
  "if": 327,
  "ifall": 17221,
  "ife": 2126,
  "ifel": 4918,
  "ifelhaft": 41069,
  "ifellos": 5864,
  "ifels": 28601,
  "ifen": 2915,
  "ifer": 20287,
  "iferation": 20288,
  "ifest": 12979,
  "iff": 1130,
  "iffen": 3896,
  "iffer": 8753,
  "ifferent": 23950,
  "iffern": 16513,
  "ifft": 2027,
  "ifiable": 13163,
  "ifiably": 24486,
  "ific": 1001,
  "ifically": 24485,
  "ification": 3068,
  "ifications": 12816,
  "ificial": 18179,
  "ified": 1978,
  "ifies": 13807,
  "ifik": 16040,
  "ifikation": 20289,
  "ifikationen": 29688,
  "ifikations": 25723,
  "ifist": 44999,
  "ifiz": 2886,
  "ifizieren": 12278,
  "ifiziert": 11402,
  "ifizierte": 21198,
  "ifiziertem": 49170,
  "ifizierten": 23721,
  "ifiziertes": 37319,
  "ifizierung": 8230,
  "ifizierungen": 46581,
  "ifizierungs": 17763,
  "ifizierungsgesellschaften": 27973,
  "ifor": 7803,
  "iform": 7254,
  "iforme": 47717,
  "iformen": 35131,
  "ifs": 44997,
  "ift": 3549,
  "ifte": 39525,
  "ifted": 14532,
  "ifteen": 8803,
  "ifter": 44998,
  "ifth": 16156,
  "ifthly": 29691,
  "iftung": 36609,
  "ifty": 40818,
  "iful": 19660,
  "ifunction": 25724,
  "ifunktion": 19661,
  "ify": 2416,
  "ifying": 6618,
  "ifÃ¼hren": 32727,
  "ig": 157,
  "igabe": 39019,
  "igable": 44393,
  "igans": 30282,
  "igant": 18518,
  "igaret": 15650,
  "igation": 25557,
  "igbar": 39017,
  "ige": 480,
  "igem": 14293,
  "igen": 368,
  "igenblatt": 45089,
  "igence": 12595,
  "igend": 8936,
  "igende": 17228,
  "igenden": 17643,
  "igender": 45088,
  "igendienst": 41608,
  "igene": 35756,
  "igenen": 45087,
  "igennÃ¼tz": 35757,
  "igent": 9119,
  "igente": 39587,
  "igentlich": 23316,
  "igently": 39018,
  "igentÃ¼mer": 41624,
  "igenz": 45086,
  "iger": 1055,
  "igere": 21652,
  "igeres": 36134,
  "igerlich": 21846,
  "igern": 12956,
  "igers": 35396,
  "igert": 13568,
  "igerten": 36135,
  "igerung": 9622,
  "igerungen": 30717,
  "igerungs": 28833,
  "igerweise": 14325,
  "iges": 3348,
  "igesch": 44392,
  "igfalt": 44397,
  "igflag": 15993,
  "igh": 555,
  "ight": 651,
  "ighted": 4853,
  "ighteen": 19156,
  "ighten": 9563,
  "ighter": 19155,
  "ights": 811,
  "igible": 44395,
  "igin": 3110,
  "igismus": 44394,
  "igital": 32407,
  "igkeit": 688,
  "igkeiten": 2463,
  "igkeits": 8452,
  "igkeitsfÃ¤lle": 47803,
  "igliani": 39021,
  "iglich": 3789,
  "ign": 840,
  "ignant": 40013,
  "ignation": 16492,
  "igne": 7869,
  "igned": 13835,
  "ignen": 24378,
  "igner": 25862,
  "ignet": 9239,
  "ignete": 31327,
  "ignific": 30667,
  "ignment": 36055,
  "ignung": 30281,
  "igo": 35394,
  "igor": 44391,
  "igra": 35395,
  "igranten": 16791,
  "igration": 44396,
  "igst": 39016,
  "igste": 32406,
  "igsten": 23315,
  "igt": 891,
  "igtausend": 40030,
  "igte": 4194,
  "igtem": 39020,
  "igten": 1793,
  "igter": 16382,
  "igtes": 36068,
  "igu": 10052,
  "igung": 1010,
  "igungen": 5576,
  "igungs": 3639,
  "igungsmÃ¶glichkeiten": 46803,
  "igungspolitischen": 45749,
  "ih": 26783,
  "ihen": 15955,
  "ihil": 38600,
  "ihn": 20843,
  "ihood": 18983,
  "iht": 32184,
  "ij": 5671,
  "ijk": 13694,
  "ijs": 20585,
  "ijten": 31208,
  "ik": 290,
  "ika": 1986,
  "ikal": 39461,
  "ikalien": 21729,
  "ikan": 2383,
  "ikanen": 8982,
  "ikaner": 9875,
  "ikanern": 16556,
  "ikanische": 9253,
  "ikanischen": 4379,
  "ikanischer": 19807,
  "ikanisches": 36424,
  "ikanten": 33341,
  "ikap": 44924,
  "ikares": 18080,
  "ikas": 10588,
  "ikation": 7219,
  "ikations": 9555,
  "ikative": 35667,
  "ike": 612,
  "ikel": 1950,
  "iken": 5681,
  "iker": 21728,
  "ikern": 39463,
  "ikh": 30461,
  "ikistan": 25703,
  "ikmeter": 28566,
  "iko": 9036,
  "ikos": 44923,
  "iks": 24473,
  "iksson": 39464,
  "ikt": 4704,
  "ikte": 39462,
  "iktiv": 43873,
  "ikulture": 25702,
  "il": 190,
  "iland": 39151,
  "ilar": 5305,
  "ilater": 8321,
  "ilateral": 33919,
  "ilation": 20927,
  "ilber": 28447,
  "ild": 916,
  "ilde": 26961,
  "ilden": 23338,
  "ildet": 8278,
  "ildete": 35469,
  "ildeten": 39153,
  "ilding": 45700,
  "ildkr": 28798,
  "ildkrÃ¶te": 49730,
  "ildkrÃ¶ten": 38103,
  "ildren": 16084,
  "ildung": 2754,
  "ile": 1245,
  "iled": 6128,
  "ilee": 45889,
  "ileg": 17521,
  "ilen": 8600,
  "iler": 44555,
  "iles": 21680,
  "ilfe": 24412,
  "ilgung": 25600,
  "ilib": 18037,
  "iliberal": 44556,
  "iling": 16803,
  "ilisation": 35468,
  "ilities": 5479,
  "ility": 842,
  "ilitÃ¤t": 5374,
  "ill": 270,
  "illa": 28533,
  "illance": 23401,
  "illar": 18072,
  "illary": 44858,
  "illas": 44857,
  "illation": 21715,
  "ille": 8524,
  "illed": 17593,
  "illeg": 4872,
  "illen": 28534,
  "iller": 30434,
  "illes": 21714,
  "illet": 47814,
  "illian": 30435,
  "illigen": 28535,
  "illigt": 39405,
  "illigung": 44859,
  "illing": 12783,
  "illion": 1874,
  "illon": 21713,
  "ills": 11483,
  "illt": 23400,
  "illuft": 28536,
  "illusion": 44860,
  "illy": 35626,
  "ilm": 35466,
  "ilnehmer": 39152,
  "ilog": 32487,
  "ilot": 12212,
  "ils": 15036,
  "ilst": 8525,
  "ilt": 2199,
  "iltr": 35467,
  "ilty": 13352,
  "ilung": 3739,
  "ilungen": 19616,
  "ily": 2855,
  "im": 168,
  "ima": 8738,
  "imal": 8065,
  "imals": 35429,
  "imat": 6867,
  "imate": 5849,
  "imated": 23326,
  "imately": 6603,
  "imb": 6639,
  "imbab": 7040,
  "imbabwe": 7345,
  "imbi": 33799,
  "ime": 698,
  "imed": 25580,
  "imedia": 37981,
  "imely": 39081,
  "imen": 39080,
  "imension": 4419,
  "iment": 6239,
  "imentary": 47406,
  "imente": 39082,
  "iments": 17168,
  "imer": 35428,
  "imes": 2549,
  "imiert": 44478,
  "imierung": 21668,
  "imilar": 16798,
  "imin": 1460,
  "imine": 16797,
  "imis": 32447,
  "imited": 26934,
  "imittel": 19604,
  "imity": 22470,
  "imm": 586,
  "imme": 3898,
  "immed": 39866,
  "immen": 1736,
  "immer": 14301,
  "immern": 45436,
  "immig": 35947,
  "imming": 45435,
  "immt": 1701,
  "immte": 14302,
  "immten": 25810,
  "immtheit": 36296,
  "immung": 3406,
  "immungen": 3601,
  "immungs": 18140,
  "immungsverfahren": 39867,
  "imnez": 39083,
  "imon": 25579,
  "imonat": 42779,
  "imony": 32448,
  "imor": 10813,
  "imori": 29530,
  "imp": 14017,
  "implementation": 42058,
  "import": 24395,
  "important": 34693,
  "importe": 48484,
  "impr": 44479,
  "ims": 4256,
  "imt": 30304,
  "imum": 3266,
  "imÃ¼t": 44480,
  "in": 95,
  "ina": 3059,
  "inal": 28290,
  "inard": 28292,
  "inardi": 29964,
  "inary": 10448,
  "inas": 32243,
  "inated": 16759,
  "inating": 44024,
  "ination": 3466,
  "inational": 6789,
  "inations": 19553,
  "inav": 16761,
  "inc": 1198,
  "ince": 1681,
  "inced": 6162,
  "incin": 11506,
  "inciner": 31485,
  "incineration": 12725,
  "incinerators": 49905,
  "incing": 21110,
  "incip": 1342,
  "income": 40171,
  "ind": 298,
  "inde": 30163,
  "inden": 5813,
  "independence": 44028,
  "inder": 1723,
  "indern": 5351,
  "indert": 36301,
  "indest": 3446,
  "indet": 5906,
  "inding": 7360,
  "indlichen": 14530,
  "indlichkeit": 35672,
  "indlichkeiten": 30464,
  "indung": 4101,
  "indungen": 9131,
  "industrial": 39469,
  "industrie": 5033,
  "industry": 44927,
  "ine": 849,
  "ined": 3120,
  "inelli": 33015,
  "inely": 10799,
  "inen": 16357,
  "inens": 11164,
  "inent": 14740,
  "ineration": 44023,
  "inerie": 38742,
  "inery": 21587,
  "ines": 2173,
  "iness": 2690,
  "inet": 24309,
  "ineties": 31891,
  "inety": 42699,
  "inez": 24602,
  "inf": 35208,
  "infarkt": 43243,
  "infected": 44027,
  "infl": 38740,
  "inflation": 30165,
  "inform": 26820,
  "information": 19005,
  "informationen": 31743,
  "informations": 49596,
  "informed": 34766,
  "infrastruktur": 26821,
  "infrastrukturen": 42849,
  "ing": 149,
  "ingang": 44369,
  "inge": 3540,
  "ingen": 3629,
  "ingenommen": 16585,
  "inger": 9930,
  "ingers": 35387,
  "ingle": 2958,
  "ingly": 22459,
  "ings": 960,
  "ingt": 7104,
  "ingu": 9117,
  "ingual": 44370,
  "inhaber": 44029,
  "inhalt": 38741,
  "inhalts": 44025,
  "ini": 11446,
  "iniest": 44026,
  "ining": 3060,
  "inion": 44021,
  "inis": 1207,
  "inister": 1679,
  "inistern": 27289,
  "inistr": 2793,
  "initiative": 15303,
  "initiativen": 30164,
  "inity": 20159,
  "ink": 787,
  "inken": 8453,
  "inkering": 39984,
  "inki": 4132,
  "inking": 12606,
  "inkohle": 39985,
  "inkommen": 24590,
  "inkommens": 45603,
  "inks": 45602,
  "inkt": 21586,
  "inn": 1484,
  "inna": 40288,
  "inne": 3988,
  "inned": 30798,
  "innen": 1992,
  "inner": 8859,
  "innern": 30799,
  "inners": 28909,
  "inning": 21883,
  "innung": 20160,
  "ino": 7647,
  "inoch": 15615,
  "inochet": 16320,
  "inois": 25003,
  "inos": 22397,
  "inqu": 28291,
  "inrichtungen": 20863,
  "ins": 5600,
  "insel": 18476,
  "inseln": 34463,
  "insen": 44022,
  "inst": 20862,
  "instanz": 29810,
  "instanzen": 31804,
  "institute": 24310,
  "institutionen": 28293,
  "instrument": 9374,
  "instrumente": 20161,
  "insula": 29283,
  "insular": 47307,
  "int": 821,
  "inted": 32244,
  "integration": 19006,
  "intens": 16760,
  "intensive": 34383,
  "intensiven": 25240,
  "intensivsten": 37586,
  "intention": 33007,
  "intentioned": 33009,
  "inter": 6308,
  "interesse": 29335,
  "interessen": 15526,
  "interesses": 47425,
  "interest": 47424,
  "intervention": 31246,
  "interventionen": 33771,
  "inth": 25475,
  "intiff": 45627,
  "inting": 21822,
  "intoler": 33008,
  "introdu": 23544,
  "ints": 9106,
  "invest": 14478,
  "investition": 37478,
  "investitionen": 19465,
  "investment": 42095,
  "iny": 22396,
  "inzip": 2080,
  "io": 1620,
  "iod": 2481,
  "iode": 7374,
  "ioden": 33215,
  "iograph": 28925,
  "iographie": 42974,
  "iography": 42973,
  "iol": 16342,
  "iola": 34357,
  "ion": 116,
  "ionage": 13335,
  "ional": 1220,
  "ionale": 40179,
  "ionalitÃ¤t": 30744,
  "ione": 24332,
  "ioned": 38833,
  "ionen": 1181,
  "ionieren": 35270,
  "ions": 380,
  "iop": 4230,
  "ior": 4867,
  "ioren": 43874,
  "iorg": 25441,
  "iori": 22821,
  "iority": 35130,
  "ios": 17129,
  "iose": 35129,
  "iositÃ¤t": 48783,
  "iot": 6995,
  "iothe": 33821,
  "ious": 771,
  "iously": 45593,
  "iox": 9975,
  "ioxid": 19406,
  "ip": 507,
  "ipe": 22374,
  "iperson": 21040,
  "ipf": 2879,
  "ipfel": 9774,
  "ipfels": 24778,
  "ipher": 10711,
  "ipl": 21039,
  "iplik": 35899,
  "iplinary": 21791,
  "ipp": 20842,
  "ipped": 16744,
  "ipping": 18982,
  "iprodu": 45355,
  "ips": 17666,
  "ipt": 17245,
  "iption": 20334,
  "ipts": 45354,
  "ipulation": 24547,
  "ipulationen": 39805,
  "iq": 32183,
  "iqu": 30107,
  "ique": 5098,
  "iques": 13981,
  "iqus": 34926,
  "ir": 155,
  "ira": 9834,
  "irability": 39012,
  "irable": 11457,
  "irac": 32404,
  "iraden": 44389,
  "irassismus": 30278,
  "irat": 44386,
  "iraz": 23313,
  "irc": 3638,
  "ird": 1897,
  "irds": 22461,
  "ire": 970,
  "irect": 11443,
  "irected": 45725,
  "ired": 5711,
  "ireg": 36105,
  "ires": 5156,
  "irgend": 20209,
  "irgt": 24376,
  "iries": 18517,
  "iring": 14012,
  "irische": 44388,
  "irischen": 32403,
  "irk": 9621,
  "irls": 25555,
  "irm": 2910,
  "irma": 23722,
  "irmen": 13774,
  "irms": 10345,
  "irn": 26919,
  "iro": 16341,
  "iron": 1154,
  "irr": 44385,
  "irrt": 39013,
  "irst": 884,
  "irt": 39011,
  "irts": 44387,
  "irus": 17569,
  "iry": 10148,
  "is": 103,
  "isal": 19011,
  "isan": 38766,
  "isation": 1014,
  "isations": 18482,
  "isc": 6997,
  "isch": 207,
  "ische": 441,
  "ischem": 8658,
  "ischen": 282,
  "ischer": 1439,
  "ischerei": 16810,
  "ischerweise": 24682,
  "isches": 3052,
  "ischsprach": 44623,
  "ischt": 17176,
  "ischung": 10250,
  "isco": 35234,
  "iscrimin": 33822,
  "ise": 462,
  "ised": 1138,
  "iseit": 30178,
  "iseite": 32267,
  "isely": 4470,
  "isemit": 8514,
  "isen": 1189,
  "isenbahn": 45864,
  "isenberg": 18194,
  "iser": 19010,
  "isers": 44060,
  "ises": 2483,
  "ish": 624,
  "ished": 6531,
  "isher": 3593,
  "isheries": 11248,
  "ishermen": 40824,
  "ishing": 9397,
  "ishment": 32941,
  "ishness": 32942,
  "isible": 22407,
  "isier": 23250,
  "isiere": 44061,
  "isieren": 4974,
  "isierende": 47145,
  "isierenden": 36787,
  "isiert": 4488,
  "isierte": 11167,
  "isierten": 8377,
  "isierter": 26828,
  "isierung": 1443,
  "isierungen": 20167,
  "isierungs": 9824,
  "isiest": 32266,
  "isik": 3178,
  "isiken": 33456,
  "ising": 2256,
  "ision": 1050,
  "isions": 1924,
  "isis": 4614,
  "isit": 38765,
  "isive": 38767,
  "isk": 1237,
  "iskal": 40187,
  "iskrimin": 18662,
  "iskriminierung": 20793,
  "iskuss": 36187,
  "iskut": 28866,
  "iskutieren": 38104,
  "isky": 19768,
  "isl": 1247,
  "islang": 10082,
  "isley": 32265,
  "ism": 920,
  "ismen": 32263,
  "isms": 13330,
  "ismus": 1861,
  "ison": 4414,
  "isons": 18483,
  "isory": 12937,
  "isp": 1322,
  "ispiel": 1507,
  "ispiele": 8615,
  "isplaced": 40230,
  "isprach": 40229,
  "isprudence": 45957,
  "iss": 217,
  "issab": 3366,
  "issabon": 3373,
  "isse": 1393,
  "issen": 1115,
  "issens": 7411,
  "isses": 12052,
  "ission": 14512,
  "issionen": 18049,
  "issitudes": 39247,
  "issl": 39245,
  "issy": 39246,
  "ist": 425,
  "ista": 28668,
  "istall": 45238,
  "istan": 7880,
  "istance": 32827,
  "istand": 28669,
  "istanz": 32826,
  "iste": 8255,
  "isted": 8587,
  "istellung": 37099,
  "isten": 1131,
  "istence": 6427,
  "istencies": 23574,
  "istency": 12619,
  "istent": 12406,
  "istenten": 32828,
  "istenz": 8819,
  "istenzen": 45831,
  "ister": 5696,
  "istern": 15306,
  "isters": 24320,
  "istet": 32264,
  "istic": 4424,
  "istical": 14062,
  "istically": 23470,
  "isticated": 29195,
  "istics": 10476,
  "istik": 19689,
  "istiken": 22577,
  "istina": 39703,
  "isting": 30552,
  "istisch": 6043,
  "istische": 4959,
  "istischem": 36919,
  "istischen": 4391,
  "istischer": 12232,
  "istisches": 21776,
  "istle": 17650,
  "istr": 10341,
  "ists": 2341,
  "isture": 28670,
  "isy": 13546,
  "isza": 35235,
  "isziplin": 7050,
  "it": 106,
  "ita": 12938,
  "itable": 7918,
  "itably": 10570,
  "itage": 11449,
  "itags": 38785,
  "ital": 1687,
  "italia": 28933,
  "italien": 40348,
  "itar": 16768,
  "itarian": 13995,
  "itary": 15618,
  "itat": 14742,
  "itate": 30188,
  "itated": 35246,
  "itates": 44076,
  "itating": 38783,
  "itation": 5784,
  "itations": 32280,
  "itative": 9614,
  "itats": 30189,
  "itauen": 23256,
  "itch": 17996,
  "itches": 44078,
  "ite": 942,
  "itect": 25484,
  "ited": 1485,
  "itel": 8588,
  "item": 28307,
  "iten": 6861,
  "iter": 5814,
  "iterr": 4656,
  "iterran": 4703,
  "iterranean": 4889,
  "iterranen": 29209,
  "ites": 13769,
  "itet": 6792,
  "itete": 28803,
  "iteten": 33039,
  "ith": 273,
  "ither": 3924,
  "itherto": 16427,
  "ithuania": 23402,
  "iti": 1028,
  "itial": 6003,
  "itiative": 1425,
  "itiativen": 5309,
  "ities": 841,
  "itim": 4042,
  "itime": 7866,
  "itimen": 46912,
  "itimes": 38784,
  "itin": 38779,
  "iting": 7583,
  "itio": 45755,
  "ition": 541,
  "itionen": 4647,
  "itions": 1933,
  "itious": 5841,
  "itiously": 41226,
  "itis": 32279,
  "itiv": 17142,
  "itive": 3392,
  "itives": 5842,
  "itiz": 1378,
  "itizens": 10178,
  "itjack": 44080,
  "itkrÃ¤fte": 44079,
  "ito": 32278,
  "itologie": 9295,
  "itology": 9928,
  "itor": 2029,
  "itorial": 22707,
  "itoring": 25985,
  "itors": 5601,
  "itory": 7979,
  "itous": 38782,
  "itrak": 7980,
  "itre": 38780,
  "itrus": 26831,
  "its": 3011,
  "itsky": 18246,
  "itt": 2220,
  "itte": 423,
  "itted": 38781,
  "ittee": 941,
  "ittees": 6648,
  "ittel": 740,
  "itten": 11169,
  "ittern": 44077,
  "ittings": 15148,
  "ittle": 3571,
  "itts": 17997,
  "itu": 835,
  "itual": 22631,
  "ituation": 946,
  "ituationen": 18642,
  "itude": 5770,
  "itudes": 17143,
  "iture": 25483,
  "ity": 331,
  "itz": 1321,
  "itze": 13332,
  "itzen": 7683,
  "itzende": 40228,
  "itzer": 8285,
  "itzerland": 9363,
  "itzstand": 45956,
  "itzt": 9481,
  "itzung": 10383,
  "itzungen": 23605,
  "itÃ¤": 1621,
  "itÃ¤r": 10342,
  "itÃ¤re": 25485,
  "itÃ¤ren": 23255,
  "itÃ¤res": 40331,
  "itÃ¤t": 871,
  "itÃ¤ten": 2616,
  "itÃ¤ts": 3071,
  "itÃ¤tsprinzip": 10393,
  "itÃ¤tsstif": 46645,
  "ium": 1834,
  "iums": 12443,
  "ius": 30106,
  "iv": 307,
  "ivable": 25708,
  "ivably": 30468,
  "ival": 6609,
  "ivan": 25707,
  "ivat": 32695,
  "ivate": 14277,
  "ivated": 25709,
  "ivaten": 21731,
  "ivating": 44945,
  "ivation": 9556,
  "ive": 305,
  "iveau": 6280,
  "iveaus": 19109,
  "ived": 3357,
  "ivell": 44943,
  "ively": 2201,
  "iven": 874,
  "iveness": 4335,
  "ivenÃ¶l": 16494,
  "iver": 3282,
  "ivers": 3927,
  "iversary": 23779,
  "iversity": 27508,
  "ivery": 16743,
  "ives": 969,
  "ivid": 2420,
  "ividual": 46433,
  "iviel": 28573,
  "ivier": 35678,
  "ivierung": 32696,
  "ivil": 2150,
  "ivile": 15068,
  "ivilluft": 28574,
  "iving": 2512,
  "ivities": 44944,
  "ivity": 8204,
  "ivitÃ¤t": 18081,
  "ivoc": 13370,
  "ivors": 39478,
  "ivsten": 32697,
  "iwan": 38601,
  "iweiÃŁ": 43875,
  "ix": 2942,
  "ixed": 8986,
  "ixt": 18458,
  "ixture": 26569,
  "iz": 600,
  "ize": 4015,
  "ized": 7367,
  "izei": 14627,
  "izeit": 32932,
  "izen": 22604,
  "izeprÃ¤sident": 10305,
  "izes": 18141,
  "izien": 35951,
  "izieren": 32933,
  "iziert": 35953,
  "izierung": 45452,
  "izil": 39875,
  "izin": 12602,
  "izip": 35952,
  "izist": 39876,
  "izisten": 21800,
  "izon": 8395,
  "izont": 45453,
  "izufÃ¼hren": 25815,
  "izza": 21051,
  "izÃ¼g": 8676,
  "iÃ¤r": 43871,
  "iÃ¤re": 43872,
  "iÃ¤ren": 28249,
  "iÃ¶": 9611,
  "iÃ¶s": 16343,
  "iÃ¶se": 15890,
  "iÃ¶sen": 19535,
  "iÃŁ": 892,
  "iÃŁb": 2891,
  "iÃŁbrauch": 5314,
  "iÃŁe": 40031,
  "iÃŁen": 15753,
  "iÃŁheit": 19187,
  "iÃŁheiten": 36069,
  "iÃŁig": 14317,
  "iÃŁt": 14316,
  "j": 65,
  "ja": 20844,
  "jack": 43877,
  "jacke": 43879,
  "jagd": 24285,
  "jagt": 43878,
  "jah": 38604,
  "jahr": 5226,
  "jahre": 21563,
  "jahren": 33669,
  "jahres": 11843,
  "jahresfrist": 37337,
  "jan": 17974,
  "jas": 38603,
  "je": 6342,
  "ject": 732,
  "jected": 6905,
  "jects": 32972,
  "jeda": 28250,
  "jekt": 7515,
  "jekte": 10925,
  "jekten": 15291,
  "jen": 3362,
  "jenige": 22778,
  "jenigen": 3525,
  "jer": 38602,
  "jerre": 32185,
  "jet": 19536,
  "jido": 10564,
  "jikistan": 35134,
  "jing": 15606,
  "jo": 14993,
  "joghurt": 35133,
  "jordan": 38605,
  "jud": 11028,
  "judge": 35132,
  "judged": 41823,
  "jug": 24284,
  "junkt": 17130,
  "just": 6199,
  "jÃ¤hr": 6200,
  "jÃ¤hrige": 11548,
  "jÃ¤hrigen": 10419,
  "jÃ¤hriger": 33760,
  "jÃ¤hriges": 47402,
  "jÃ¤hrlich": 26229,
  "jÃ¶ste": 17522,
  "k": 66,
  "ka": 30109,
  "kada": 35139,
  "kal": 24287,
  "kalation": 42698,
  "kam": 43881,
  "kamp": 11314,
  "kampagne": 41855,
  "kampagnen": 34120,
  "kampf": 37311,
  "kan": 17523,
  "kanal": 37614,
  "kandal": 26787,
  "kanzler": 24289,
  "kanÃ¤le": 48827,
  "kap": 13982,
  "kapaz": 16705,
  "kapazitÃ¤t": 27945,
  "kapazitÃ¤ten": 21470,
  "kapit": 48479,
  "kapital": 16344,
  "kar": 26784,
  "karte": 42847,
  "karten": 38613,
  "kasten": 35138,
  "kasus": 26789,
  "katalog": 18986,
  "katastrop": 9200,
  "katastrophe": 14434,
  "katastrophen": 13294,
  "kategor": 30116,
  "kategorie": 49797,
  "kategorien": 43024,
  "katell": 35136,
  "kau": 22375,
  "kaufen": 38611,
  "kay": 15956,
  "ke": 755,
  "keep": 39959,
  "keeping": 21066,
  "kehr": 1267,
  "kehren": 12623,
  "kehrenden": 40199,
  "kehrt": 12822,
  "kehrungen": 19770,
  "kei": 45576,
  "keim": 30647,
  "keit": 437,
  "keiten": 15084,
  "kel": 38606,
  "ken": 1012,
  "kend": 43882,
  "kenn": 25443,
  "kenne": 21093,
  "kennen": 4923,
  "kennt": 38609,
  "kenntnis": 16746,
  "kenntnisse": 32190,
  "kennzeichnung": 31926,
  "kenstein": 40095,
  "kept": 16077,
  "keptiker": 34351,
  "ker": 24286,
  "kered": 35135,
  "kerk": 43886,
  "kette": 15958,
  "kew": 45577,
  "key": 3613,
  "keys": 36023,
  "kg": 43880,
  "ki": 30110,
  "killed": 38615,
  "kin": 21564,
  "kina": 32188,
  "kind": 21565,
  "kins": 38610,
  "kish": 43884,
  "kk": 30111,
  "kkup": 38137,
  "kl": 1326,
  "klag": 14471,
  "klagen": 38607,
  "klagt": 22377,
  "klagten": 21433,
  "klam": 33154,
  "klammert": 36215,
  "klang": 8547,
  "klar": 10565,
  "klass": 30771,
  "klasse": 33155,
  "klassen": 30772,
  "klausel": 14995,
  "klauseln": 30118,
  "klav": 35137,
  "klima": 36214,
  "klin": 43885,
  "klore": 45959,
  "klus": 20411,
  "klÃ¤r": 1606,
  "klÃ¤ren": 21895,
  "klÃ¤rt": 11227,
  "klÃ¤rten": 30810,
  "klÃ¤rung": 9974,
  "klÃ¤rungen": 16114,
  "kn": 30112,
  "know": 11315,
  "known": 11438,
  "ko": 4487,
  "kodex": 17976,
  "koe": 47021,
  "koh": 16605,
  "kohol": 11677,
  "kohÃ¤renz": 42245,
  "kolle": 43883,
  "kollegen": 26791,
  "kolog": 6161,
  "kolonial": 38612,
  "kom": 30114,
  "komm": 2729,
  "kommen": 972,
  "kommens": 3940,
  "kommissar": 15957,
  "kommissarin": 23071,
  "kommission": 11886,
  "kommnung": 33392,
  "kommt": 8098,
  "kommun": 12645,
  "komp": 17975,
  "kompeten": 14735,
  "kompetenz": 16316,
  "komplex": 25264,
  "kon": 1360,
  "konferenz": 2765,
  "konferenzen": 46535,
  "konflik": 33156,
  "konflikt": 25931,
  "konflikten": 43193,
  "konflikts": 49543,
  "kong": 30115,
  "konom": 5861,
  "kons": 27312,
  "konsolidierung": 31980,
  "konstru": 36226,
  "konsum": 27313,
  "kontamination": 45974,
  "konting": 19211,
  "kontro": 3810,
  "kontroll": 9997,
  "kontrolle": 5275,
  "kontrollen": 14887,
  "konvention": 10730,
  "konzentration": 27314,
  "konzentrationen": 30775,
  "konzep": 24666,
  "konzept": 19212,
  "konzepts": 28106,
  "konzerne": 22664,
  "konzernen": 45973,
  "koordin": 36729,
  "kop": 25442,
  "kor": 30113,
  "korps": 49796,
  "korre": 26786,
  "kos": 32187,
  "kosten": 8418,
  "kott": 26785,
  "kr": 16745,
  "kraft": 5598,
  "kraftwagen": 22848,
  "kraine": 18987,
  "krank": 14734,
  "krankheit": 22227,
  "krankheiten": 26478,
  "krankungen": 42116,
  "kre": 9103,
  "kredit": 26790,
  "kreis": 12523,
  "kreise": 47878,
  "kreisen": 47879,
  "kret": 7975,
  "krie": 24288,
  "krieg": 10667,
  "kriege": 49403,
  "krieges": 34687,
  "kriminalitÃ¤t": 28252,
  "krise": 18985,
  "krisen": 27947,
  "krit": 9104,
  "kriterien": 11287,
  "kriterium": 26324,
  "kritik": 41620,
  "kritischen": 47880,
  "krut": 48744,
  "krÃ¤": 5837,
  "krÃ¤ft": 15520,
  "krÃ¤fte": 9799,
  "krÃ¤ften": 15193,
  "krÃ¤ftig": 21279,
  "krÃ¤ftige": 31624,
  "krÃ¤ftigen": 31623,
  "krÃ¤ftiger": 42172,
  "krÃ¤ftiges": 48630,
  "ks": 23221,
  "kt": 264,
  "kte": 1408,
  "kten": 3317,
  "kter": 18984,
  "ktes": 44831,
  "ktheit": 44832,
  "ktik": 30422,
  "ktiken": 44833,
  "ktion": 689,
  "ktionen": 2546,
  "ktionismus": 24575,
  "ktions": 11480,
  "ktisch": 17624,
  "ktiv": 2609,
  "ktive": 16026,
  "ktiven": 15690,
  "ktiver": 24457,
  "ktivitÃ¤t": 8767,
  "ktivitÃ¤ten": 36464,
  "ktivitÃ¤ts": 24764,
  "ktlich": 39381,
  "ktober": 11763,
  "ktor": 2024,
  "ktors": 6710,
  "ktr": 32638,
  "ktrin": 38232,
  "ktur": 1666,
  "kture": 9218,
  "kturen": 36293,
  "ktÃ¤tigen": 44834,
  "ktÃ¼re": 28524,
  "kultur": 13539,
  "kulturen": 37436,
  "kund": 10444,
  "kundig": 48061,
  "kunft": 1835,
  "kung": 4207,
  "kungen": 8432,
  "kur": 8788,
  "kurb": 20645,
  "kurbeln": 23151,
  "kurs": 12933,
  "kurse": 23952,
  "kursen": 33949,
  "kv": 28251,
  "kw": 14994,
  "kward": 38608,
  "ky": 14733,
  "kÃ¤": 32186,
  "kÃ¤me": 38614,
  "kÃ¤mp": 2346,
  "kÃ¤mpfen": 29024,
  "kÃ¤mpft": 20478,
  "kÃ¤mpfung": 2535,
  "kÃ¤mpfungs": 33337,
  "kÃ¤ufer": 43887,
  "kÃ¶mm": 28253,
  "kÃ¶rper": 12030,
  "kÃ¶rperschaften": 12535,
  "kÃ¼nd": 6265,
  "kÃ¼ndigen": 23882,
  "kÃ¼ndigt": 41279,
  "kÃ¼ndigte": 47415,
  "kÃ¼nfte": 22376,
  "kÃ¼nften": 26788,
  "kÃ¼rzung": 32189,
  "kÃ¼rzungen": 30117,
  "kÃ¼ste": 25444,
  "l": 67,
  "la": 299,
  "label": 17132,
  "labelling": 18992,
  "labels": 38622,
  "lable": 43890,
  "laced": 39471,
  "lachs": 35142,
  "lachtet": 25447,
  "lade": 44928,
  "laden": 13369,
  "ladenen": 48421,
  "ladung": 35675,
  "lafen": 28570,
  "lag": 992,
  "lage": 1505,
  "lageb": 44929,
  "lagen": 1213,
  "lager": 16842,
  "lagern": 24617,
  "lagert": 36109,
  "lagerten": 26532,
  "lagerung": 15698,
  "lagerungen": 30465,
  "lages": 28569,
  "lagher": 25882,
  "lagnahm": 36110,
  "lags": 45731,
  "lagt": 12977,
  "laim": 16435,
  "laimed": 37571,
  "lak": 39470,
  "lam": 16345,
  "lament": 6859,
  "lamentar": 7456,
  "lan": 869,
  "lance": 30120,
  "land": 967,
  "lander": 15752,
  "landes": 21838,
  "landet": 36104,
  "landminen": 45724,
  "lands": 3962,
  "landschaft": 40077,
  "landsprodukt": 33052,
  "lane": 40027,
  "lang": 11029,
  "lange": 20377,
  "langen": 4481,
  "langes": 14833,
  "langt": 5428,
  "langung": 41824,
  "lant": 6000,
  "lanted": 45661,
  "lappen": 35673,
  "lar": 922,
  "laration": 17271,
  "lare": 5483,
  "lared": 11064,
  "largement": 21084,
  "lary": 18989,
  "lassen": 3343,
  "lasses": 35144,
  "lassung": 15292,
  "lassungen": 14472,
  "lassungs": 38621,
  "last": 3310,
  "lasten": 15066,
  "lasting": 46718,
  "lasttransport": 46719,
  "lastung": 20511,
  "lation": 35140,
  "latz": 12547,
  "lau": 7531,
  "laub": 5580,
  "lauben": 9276,
  "lauber": 39472,
  "laubnis": 24931,
  "laubt": 13594,
  "laubte": 33706,
  "laubwÃ¼rdigkeit": 9429,
  "lauf": 4824,
  "laufe": 47105,
  "laufen": 4825,
  "laufenden": 31136,
  "laufkommens": 36773,
  "laus": 6799,
  "lause": 35674,
  "lausel": 11853,
  "lauseln": 24976,
  "laut": 10950,
  "lauts": 39473,
  "lav": 17630,
  "lavan": 15067,
  "law": 19653,
  "lax": 28568,
  "laÃŁ": 4002,
  "ld": 1182,
  "le": 126,
  "lear": 855,
  "learbeit": 45656,
  "leare": 18498,
  "leas": 26867,
  "lease": 14002,
  "leased": 38878,
  "leb": 20881,
  "leben": 4435,
  "lebens": 15009,
  "lebt": 25511,
  "lebung": 12365,
  "lechter": 12751,
  "lechts": 15974,
  "lect": 4490,
  "lected": 8058,
  "lection": 10932,
  "lectric": 33593,
  "led": 1037,
  "ledge": 3845,
  "ledged": 27262,
  "leeren": 32333,
  "lef": 16365,
  "leg": 1094,
  "legation": 3588,
  "lege": 15635,
  "legen": 1006,
  "legenheit": 2533,
  "legenheiten": 4005,
  "legentlich": 24635,
  "leger": 18016,
  "legisl": 25904,
  "legislative": 49539,
  "legislator": 49540,
  "legt": 4416,
  "legte": 14328,
  "legten": 18189,
  "leguminosen": 19756,
  "legung": 4116,
  "legungen": 6289,
  "lehen": 19573,
  "lehnen": 17153,
  "lehnung": 9535,
  "lehr": 23284,
  "lehrer": 42632,
  "lei": 2310,
  "leiben": 4053,
  "leich": 792,
  "leichen": 19742,
  "leicht": 2207,
  "leichterungen": 29003,
  "leid": 15636,
  "leiden": 20187,
  "leihen": 36406,
  "lein": 8934,
  "leis": 3260,
  "leisch": 5700,
  "leist": 3027,
  "leisten": 4846,
  "leistet": 4055,
  "leisteten": 46706,
  "leistung": 10189,
  "leistungen": 9495,
  "leistungs": 20499,
  "leistungsaus": 31796,
  "leit": 3520,
  "leiten": 7445,
  "leitend": 26075,
  "leitende": 33491,
  "leitenden": 46774,
  "leiter": 36606,
  "leitet": 12851,
  "leitlinien": 24820,
  "leitung": 9341,
  "leitungen": 17330,
  "lekt": 9451,
  "lektiv": 23285,
  "lem": 19571,
  "leman": 25510,
  "lemen": 1670,
  "lement": 1210,
  "lementaritÃ¤t": 25918,
  "lementation": 30742,
  "lemente": 8345,
  "lemented": 4010,
  "lementen": 45870,
  "lementierung": 25917,
  "lementing": 45871,
  "lements": 19574,
  "lems": 28348,
  "len": 7205,
  "lend": 20845,
  "lene": 22379,
  "lenken": 43892,
  "lent": 43888,
  "ler": 2376,
  "lerc": 33340,
  "lern": 13983,
  "lernen": 16943,
  "lernt": 42056,
  "lers": 25446,
  "lerweile": 36423,
  "les": 1290,
  "lesen": 12625,
  "less": 2996,
  "lessly": 19264,
  "lessness": 24788,
  "lesung": 45922,
  "let": 16366,
  "lete": 22432,
  "leted": 25509,
  "letons": 42232,
  "lets": 24350,
  "letz": 2948,
  "letzt": 6086,
  "leuchtet": 44211,
  "leum": 25508,
  "leun": 9207,
  "leute": 12947,
  "leuten": 32334,
  "lev": 19572,
  "levant": 20188,
  "level": 10679,
  "lex": 1912,
  "lexib": 3314,
  "lexibilitÃ¤t": 36580,
  "lexible": 7020,
  "ley": 9022,
  "leys": 38877,
  "lez": 12560,
  "li": 18461,
  "lia": 28254,
  "liament": 2219,
  "liamentary": 30887,
  "liance": 30121,
  "liani": 38623,
  "liardo": 34462,
  "lib": 18988,
  "liberal": 18990,
  "liberalisierung": 29757,
  "liberalism": 48960,
  "lic": 762,
  "licable": 36028,
  "licant": 36027,
  "lich": 188,
  "liche": 593,
  "lichem": 17592,
  "lichen": 452,
  "licher": 1672,
  "licherweise": 7614,
  "liches": 4327,
  "lichkeit": 1764,
  "lichkeiten": 10857,
  "lichkeits": 30831,
  "lichsten": 20235,
  "licht": 7702,
  "lichte": 25599,
  "lichten": 22380,
  "lichtet": 44554,
  "lichung": 8656,
  "licit": 10489,
  "lick": 2010,
  "licken": 23661,
  "lict": 30650,
  "licted": 23536,
  "licting": 45587,
  "lie": 337,
  "lieb": 35719,
  "liebe": 27087,
  "lieben": 8953,
  "liebenen": 41612,
  "lied": 3512,
  "liederung": 17223,
  "lief": 28609,
  "liefer": 18588,
  "lieferanten": 48932,
  "liefern": 45029,
  "liefert": 13596,
  "lieferung": 42956,
  "lieferungen": 26574,
  "liegen": 2070,
  "liegenden": 40482,
  "lieger": 45028,
  "liegt": 6105,
  "liehen": 15382,
  "lier": 5599,
  "liers": 20846,
  "lies": 3618,
  "lieÃŁ": 763,
  "lieÃŁen": 5545,
  "lieÃŁenden": 39965,
  "lieÃŁlich": 6572,
  "lieÃŁt": 15103,
  "life": 12031,
  "liferation": 30123,
  "lift": 43893,
  "lig": 43889,
  "light": 32193,
  "lighten": 23222,
  "lightenment": 49321,
  "lik": 4868,
  "likationen": 36777,
  "like": 18462,
  "lim": 19538,
  "limin": 10337,
  "limit": 42419,
  "limited": 49023,
  "limm": 17131,
  "limmer": 35143,
  "limp": 43894,
  "lin": 637,
  "linary": 9234,
  "line": 3969,
  "lined": 8396,
  "lines": 6768,
  "liness": 35966,
  "ling": 2365,
  "linge": 6682,
  "lingen": 21173,
  "lings": 7804,
  "lingswirtschaft": 47718,
  "lingt": 30904,
  "linie": 1129,
  "linien": 2424,
  "lining": 19729,
  "link": 45485,
  "linterpret": 45486,
  "lione": 32195,
  "lis": 26792,
  "lish": 1463,
  "list": 20150,
  "liste": 11030,
  "listen": 32194,
  "lit": 8251,
  "litten": 20634,
  "liz": 5073,
  "lizenzen": 41093,
  "liziert": 41092,
  "lizitÃ¤t": 47175,
  "ll": 147,
  "lla": 23309,
  "llaf": 7760,
  "llari": 14492,
  "llariou": 14719,
  "llation": 15991,
  "llbar": 38984,
  "lle": 955,
  "lled": 12815,
  "lleg": 36100,
  "llen": 429,
  "llence": 21028,
  "llent": 3665,
  "ller": 2654,
  "llern": 44360,
  "llers": 38983,
  "lles": 12041,
  "llfish": 28391,
  "lli": 20206,
  "llig": 2720,
  "lligwerden": 46523,
  "lling": 3720,
  "llo": 38982,
  "llor": 19041,
  "llos": 5077,
  "llose": 22458,
  "llosen": 19893,
  "lls": 15990,
  "llschaft": 1921,
  "llschaften": 6521,
  "llt": 918,
  "llte": 26914,
  "llten": 28390,
  "lltÃ¤tigkeit": 45701,
  "llulose": 20897,
  "llung": 1334,
  "llungen": 44359,
  "ln": 38616,
  "lo": 686,
  "load": 22616,
  "loaded": 30636,
  "loading": 35986,
  "lob": 45518,
  "lobal": 2066,
  "lock": 9316,
  "locke": 47910,
  "locken": 32956,
  "log": 22378,
  "lohn": 24573,
  "loitation": 32957,
  "long": 35141,
  "lood": 45520,
  "look": 10837,
  "looking": 22175,
  "lor": 10796,
  "lords": 43895,
  "lore": 13762,
  "los": 931,
  "lose": 7914,
  "losen": 6613,
  "losenzahl": 40056,
  "loser": 28799,
  "loses": 45704,
  "losigkeit": 4505,
  "losion": 36083,
  "lossen": 1763,
  "lost": 45519,
  "losung": 33033,
  "losure": 33034,
  "lotte": 30122,
  "low": 38617,
  "loy": 1242,
  "loyed": 8894,
  "loyers": 40188,
  "loyment": 1602,
  "loÃŁ": 24572,
  "ls": 19537,
  "lsen": 32192,
  "lt": 3869,
  "lten": 32191,
  "lteren": 25448,
  "luft": 43891,
  "lug": 38618,
  "lung": 764,
  "lungen": 2250,
  "lungs": 1781,
  "lus": 1918,
  "lusses": 18991,
  "luste": 16122,
  "luÃŁ": 1561,
  "ly": 219,
  "lying": 6277,
  "lymp": 35534,
  "lyn": 44675,
  "lyss": 28483,
  "lÃ¤": 815,
  "lÃ¤ch": 25860,
  "lÃ¤che": 16880,
  "lÃ¤chen": 9320,
  "lÃ¤g": 13833,
  "lÃ¤ge": 7827,
  "lÃ¤gen": 19181,
  "lÃ¤ger": 27232,
  "lÃ¤gt": 5858,
  "lÃ¤m": 36052,
  "lÃ¤nd": 7749,
  "lÃ¤nder": 3420,
  "lÃ¤ndern": 3159,
  "lÃ¤ne": 10668,
  "lÃ¤nen": 21566,
  "lÃ¤r": 38619,
  "lÃ¤re": 17266,
  "lÃ¤rm": 26794,
  "lÃ¤s": 33005,
  "lÃ¤ss": 7678,
  "lÃ¤ssigkeit": 27699,
  "lÃ¤ssigung": 41473,
  "lÃ¤tz": 3474,
  "lÃ¤uf": 12809,
  "lÃ¤ufe": 24596,
  "lÃ¤ufen": 45624,
  "lÃ¤ufig": 8680,
  "lÃ¤uft": 9652,
  "lÃ¤utet": 45625,
  "lÃ¤ÃŁ": 5286,
  "lÃ¤ÃŁlich": 7197,
  "lÃ¤ÃŁt": 15188,
  "lÃ¶": 25445,
  "lÃ¶hne": 49489,
  "lÃ¶hnen": 49490,
  "lÃ¶s": 10038,
  "lÃ¶se": 35145,
  "lÃ¶sen": 14996,
  "lÃ¶st": 38620,
  "lÃ¶sung": 11869,
  "lÃ¶sungen": 34040,
  "lÃ¶sungs": 48001,
  "lÃ¼": 30119,
  "lÃ¼ck": 5694,
  "lÃ¼cke": 33717,
  "lÃ¼cken": 36887,
  "lÃ¼cklicherweise": 27603,
  "lÃ¼sse": 26793,
  "m": 68,
  "ma": 8929,
  "mach": 16347,
  "machen": 10039,
  "macht": 9014,
  "machten": 25452,
  "machts": 48709,
  "machung": 22249,
  "machungen": 48710,
  "mack": 12736,
  "macy": 38631,
  "made": 25450,
  "mail": 13985,
  "mails": 38632,
  "maj": 37146,
  "majority": 43337,
  "makers": 20847,
  "making": 6029,
  "mal": 932,
  "malig": 25875,
  "mals": 2821,
  "man": 1833,
  "management": 13023,
  "managements": 30841,
  "mand": 6592,
  "manden": 19229,
  "mangel": 18687,
  "manipulation": 36326,
  "mann": 10669,
  "mans": 17977,
  "manship": 34437,
  "mantel": 40400,
  "map": 30126,
  "mar": 10338,
  "marck": 41755,
  "mark": 4819,
  "marke": 47103,
  "marken": 41055,
  "markets": 41057,
  "marking": 41056,
  "markt": 1980,
  "marktes": 18693,
  "marktordnung": 36349,
  "mas": 16747,
  "masch": 32201,
  "maschine": 43116,
  "massen": 43898,
  "mat": 7255,
  "material": 16748,
  "materialien": 42255,
  "math": 35149,
  "matic": 12032,
  "matik": 28256,
  "mau": 38627,
  "maÃŁ": 2344,
  "maÃŁen": 6977,
  "maÃŁnahme": 18713,
  "maÃŁnahmen": 3854,
  "mb": 3344,
  "mbel": 12474,
  "mbol": 8559,
  "mbolic": 18251,
  "mbud": 15807,
  "mbudsman": 17480,
  "md": 15607,
  "mden": 3519,
  "mdet": 43902,
  "me": 416,
  "meat": 30545,
  "mechanismen": 12597,
  "mechanismus": 21770,
  "med": 7750,
  "mede": 47704,
  "medien": 26280,
  "mediterranen": 47705,
  "meer": 5380,
  "mehl": 45214,
  "mehr": 3485,
  "mehrheit": 24818,
  "meid": 22574,
  "meidung": 12986,
  "mein": 854,
  "meinung": 45655,
  "meister": 15394,
  "mel": 14473,
  "meld": 8644,
  "melde": 20063,
  "meldung": 37130,
  "meldungen": 31358,
  "member": 35147,
  "men": 254,
  "mend": 802,
  "menge": 15051,
  "mengen": 15052,
  "menistan": 39356,
  "mensch": 27022,
  "menschen": 39355,
  "ment": 265,
  "mented": 23392,
  "menthaltung": 44835,
  "mentioned": 39382,
  "ments": 696,
  "mer": 655,
  "mera": 35973,
  "merk": 2643,
  "merken": 9565,
  "merkmal": 27421,
  "merkmale": 42892,
  "merksam": 3546,
  "merkt": 10374,
  "merz": 11922,
  "merzung": 16689,
  "mes": 2084,
  "mess": 24290,
  "messen": 10926,
  "messene": 43903,
  "messungen": 49404,
  "met": 5779,
  "meter": 25761,
  "meth": 13763,
  "methode": 24068,
  "methoden": 17924,
  "mework": 2186,
  "mie": 18463,
  "mien": 8509,
  "mil": 7862,
  "milch": 11860,
  "militar": 41502,
  "military": 27708,
  "militÃ¤r": 26284,
  "mill": 43896,
  "min": 5754,
  "mination": 38630,
  "mind": 19540,
  "minded": 21504,
  "minderung": 31213,
  "mine": 17525,
  "minen": 15192,
  "mines": 25451,
  "ming": 8857,
  "mining": 32199,
  "minister": 4792,
  "ministern": 43906,
  "ministr": 19541,
  "ministration": 24173,
  "minster": 33725,
  "minute": 26211,
  "mir": 19539,
  "misch": 38624,
  "mischen": 14997,
  "mischt": 28257,
  "mischung": 13540,
  "mish": 38625,
  "miss": 2305,
  "missibility": 33330,
  "missible": 11234,
  "mission": 5389,
  "missionen": 9412,
  "missions": 4907,
  "mit": 1013,
  "mitglie": 4226,
  "mitglied": 18274,
  "mitglieder": 16597,
  "mitgliedern": 31085,
  "mitt": 2994,
  "mittag": 6024,
  "mitte": 17524,
  "mitted": 3783,
  "mittedly": 27498,
  "mitteilung": 37615,
  "mittel": 1235,
  "mitteln": 4859,
  "mittelt": 8460,
  "mium": 9820,
  "mix": 38629,
  "miÃŁbrauch": 12548,
  "mlich": 9291,
  "mm": 4596,
  "mma": 16607,
  "mmelled": 41019,
  "mmes": 28255,
  "mmet": 14893,
  "mming": 23803,
  "mn": 21567,
  "mo": 35146,
  "mod": 11574,
  "modalitÃ¤ten": 31487,
  "modell": 9821,
  "modelle": 34136,
  "modells": 20672,
  "modified": 20024,
  "modus": 37322,
  "mog": 38626,
  "moking": 43904,
  "mon": 7150,
  "monat": 29379,
  "monatigen": 42994,
  "mond": 32200,
  "money": 21568,
  "monopol": 23904,
  "monopole": 47578,
  "monopols": 49384,
  "month": 19361,
  "mony": 47577,
  "moral": 43900,
  "mord": 13116,
  "more": 4312,
  "morgen": 32198,
  "mortem": 30127,
  "mos": 9373,
  "mosph": 10655,
  "mosphÃ¤re": 15897,
  "most": 3886,
  "mot": 30124,
  "mother": 35148,
  "mp": 609,
  "mprodu": 32936,
  "mpt": 11079,
  "ms": 521,
  "msen": 25449,
  "mt": 13984,
  "mund": 32197,
  "mundet": 43905,
  "mung": 16346,
  "mungen": 26795,
  "munition": 43907,
  "mus": 32196,
  "must": 43897,
  "muster": 32202,
  "mut": 3425,
  "mutlich": 36595,
  "mutter": 33485,
  "mutz": 12189,
  "mutzung": 7576,
  "mutzungen": 19431,
  "mÃ¤cht": 11575,
  "mÃ¤chte": 21569,
  "mÃ¤chten": 35150,
  "mÃ¤chtigen": 41872,
  "mÃ¤chtigt": 26403,
  "mÃ¤h": 12190,
  "mÃ¤l": 24292,
  "mÃ¤lert": 31890,
  "mÃ¤n": 24291,
  "mÃ¤rkte": 9015,
  "mÃ¤rkten": 13986,
  "mÃ¤ÃŁ": 1825,
  "mÃ¤ÃŁig": 6185,
  "mÃ¤ÃŁige": 11394,
  "mÃ¤ÃŁigen": 10738,
  "mÃ¤ÃŁiger": 21904,
  "mÃ¤ÃŁiges": 46225,
  "mÃ¤ÃŁigkeit": 13859,
  "mÃ¤ÃŁigung": 46224,
  "mÃ¶": 2482,
  "mÃ¶gen": 12458,
  "mÃ¶glich": 6787,
  "mÃ¶gliche": 12839,
  "mÃ¶glichem": 47517,
  "mÃ¶glichen": 15153,
  "mÃ¶glicher": 27659,
  "mÃ¶glichkeit": 5573,
  "mÃ¶glichkeiten": 6990,
  "mÃ¶l": 38628,
  "mÃ¶rder": 43901,
  "mÃ¼": 5838,
  "mÃ¼d": 23223,
  "mÃ¼h": 43899,
  "mÃ¼ll": 26213,
  "mÃ¼n": 30125,
  "mÃ¼t": 19542,
  "n": 69,
  "na": 17133,
  "nach": 9443,
  "nachgieb": 22947,
  "nachweis": 41659,
  "nage": 38635,
  "nah": 660,
  "nahen": 45497,
  "nahm": 7825,
  "nahme": 1369,
  "nahmen": 983,
  "nahmere": 10019,
  "nahms": 18626,
  "nahr": 43911,
  "nam": 35152,
  "namental": 43914,
  "napp": 38641,
  "nar": 26796,
  "national": 8118,
  "natur": 38640,
  "nder": 812,
  "ndez": 11577,
  "ne": 344,
  "nected": 39552,
  "ned": 35151,
  "needed": 32741,
  "negoti": 35730,
  "neh": 3211,
  "nehm": 4459,
  "nehmbar": 10524,
  "nehme": 22770,
  "nehmen": 1046,
  "nehmer": 3409,
  "nehmern": 10200,
  "nehmers": 40988,
  "nehmlich": 16182,
  "nehmung": 19874,
  "neiden": 15072,
  "neider": 45047,
  "neidet": 39553,
  "neidung": 22546,
  "neidungen": 28616,
  "neimittel": 19666,
  "nel": 6825,
  "nelle": 12737,
  "nels": 38637,
  "nement": 38636,
  "nen": 343,
  "nend": 23224,
  "ner": 939,
  "nerg": 13838,
  "nern": 5099,
  "nero": 40062,
  "ners": 3526,
  "nes": 7976,
  "ness": 3109,
  "nest": 20849,
  "nestr": 49133,
  "net": 3203,
  "nete": 27091,
  "neten": 14537,
  "neter": 45046,
  "nets": 46684,
  "netz": 8722,
  "netze": 14430,
  "netzen": 24294,
  "netzes": 25034,
  "nex": 10592,
  "ney": 22545,
  "neys": 45048,
  "nez": 16041,
  "neÃŁ": 35729,
  "ng": 20848,
  "nichten": 43915,
  "nieÃŁ": 35156,
  "nieÃŁer": 38303,
  "night": 22381,
  "nimmt": 7400,
  "nine": 43912,
  "ning": 3887,
  "nings": 43913,
  "nio": 26797,
  "nis": 1257,
  "nisch": 15960,
  "nische": 17978,
  "nischen": 11576,
  "nisches": 38639,
  "nism": 16348,
  "nismÃ¤ÃŁ": 16724,
  "nismÃ¤ÃŁig": 42253,
  "nisse": 1842,
  "nissen": 4399,
  "nisses": 15608,
  "nist": 38634,
  "nisvolle": 45897,
  "nitten": 24295,
  "nitz": 38638,
  "niv": 43910,
  "niveau": 10445,
  "niveaus": 20850,
  "no": 43908,
  "nommen": 4383,
  "nor": 38633,
  "norm": 25453,
  "normen": 11316,
  "not": 13987,
  "nots": 38642,
  "nova": 38643,
  "now": 1003,
  "ns": 15959,
  "nt": 9922,
  "nte": 43909,
  "nten": 35153,
  "numer": 43917,
  "nummer": 38644,
  "nung": 827,
  "nungen": 5370,
  "nungs": 5322,
  "nutrition": 35155,
  "nutzen": 30129,
  "nutzung": 35154,
  "ny": 24293,
  "nÃ¤chst": 16749,
  "nÃ¤ck": 23225,
  "nÃ¤ckigkeit": 37872,
  "nÃ¤he": 43916,
  "nÃ¶ten": 22382,
  "nÃ¼": 7863,
  "nÃ¼gen": 20151,
  "nÃ¼p": 8309,
  "nÃ¼pfen": 19966,
  "nÃ¼pfung": 23932,
  "nÃ¼tz": 30128,
  "o": 70,
  "oasen": 43923,
  "ob": 1114,
  "obald": 23571,
  "obby": 9151,
  "oben": 10927,
  "ober": 6699,
  "obil": 8154,
  "obile": 23570,
  "obilitÃ¤t": 11504,
  "obin": 6836,
  "oble": 32205,
  "obles": 21851,
  "obst": 35158,
  "obyl": 40147,
  "oc": 619,
  "ocal": 28733,
  "ocat": 39893,
  "ocation": 14553,
  "ocaust": 20351,
  "occup": 35960,
  "och": 369,
  "oche": 18103,
  "ochen": 22557,
  "ochten": 25736,
  "ochter": 30511,
  "ocide": 16866,
  "ociety": 15734,
  "ock": 2750,
  "ocken": 29068,
  "ockt": 17674,
  "oco": 19726,
  "ocol": 3088,
  "ocracy": 14554,
  "ocrat": 3822,
  "ocrates": 39894,
  "ocratic": 18263,
  "ocrats": 36646,
  "ocultures": 45470,
  "od": 491,
  "odder": 39793,
  "ode": 3204,
  "odell": 5435,
  "oden": 5695,
  "oder": 26798,
  "odes": 30583,
  "odex": 11957,
  "oding": 45338,
  "odizes": 23497,
  "ods": 39791,
  "odus": 39792,
  "ody": 3522,
  "odyear": 15168,
  "oe": 12934,
  "of": 4612,
  "ofar": 14384,
  "ofern": 9709,
  "off": 13327,
  "offe": 24296,
  "offen": 26799,
  "offensive": 48417,
  "offiz": 35160,
  "offs": 31549,
  "oft": 25454,
  "og": 636,
  "ogan": 32949,
  "oge": 35157,
  "ogen": 2459,
  "ogenic": 33360,
  "ogg": 45482,
  "oggenhuber": 13615,
  "ogh": 18146,
  "oghurt": 18947,
  "ogical": 45484,
  "ogn": 45483,
  "ogra": 23226,
  "ograms": 29852,
  "ograph": 2796,
  "ogue": 27200,
  "oher": 18464,
  "ohl": 18465,
  "ohle": 38647,
  "ohlen": 12738,
  "ohn": 11317,
  "ohne": 21570,
  "ohnen": 43921,
  "ohol": 24297,
  "ohr": 28258,
  "oices": 43920,
  "oid": 20851,
  "oiden": 43919,
  "oij": 15293,
  "oil": 38645,
  "oiled": 43922,
  "oin": 4555,
  "oint": 2135,
  "ointed": 10202,
  "oints": 33607,
  "oir": 22383,
  "oirs": 49250,
  "ois": 43918,
  "ok": 569,
  "oke": 17672,
  "oked": 21047,
  "oken": 39854,
  "okes": 32922,
  "oking": 19723,
  "okk": 24558,
  "okol": 3979,
  "okolade": 29159,
  "okoladen": 46906,
  "okoll": 4762,
  "okolle": 18139,
  "okolon": 36669,
  "okon": 25807,
  "okonferenz": 34737,
  "okrat": 1479,
  "okraten": 5544,
  "okratie": 30797,
  "okratische": 17289,
  "okratischen": 9575,
  "okulturen": 45422,
  "okument": 32923,
  "ol": 177,
  "ola": 32466,
  "olation": 44518,
  "old": 2531,
  "oldaten": 14362,
  "olden": 32467,
  "ole": 12345,
  "olences": 35449,
  "oler": 6673,
  "olera": 41334,
  "oleranz": 12510,
  "oles": 20917,
  "oletano": 37367,
  "olf": 20916,
  "olge": 11746,
  "oli": 28434,
  "olia": 39113,
  "oliberal": 24406,
  "olic": 665,
  "olicy": 4440,
  "olid": 6705,
  "olidierung": 16639,
  "oligans": 35451,
  "oline": 30317,
  "olit": 403,
  "olitano": 18120,
  "oliter": 32818,
  "olitical": 17236,
  "olitik": 714,
  "olition": 15393,
  "olitres": 35824,
  "olizei": 35450,
  "olizisten": 39116,
  "olk": 2006,
  "olks": 17747,
  "oll": 677,
  "ollar": 6284,
  "ollary": 39924,
  "olle": 597,
  "ollege": 16477,
  "ollegen": 22602,
  "ollen": 6063,
  "ollow": 1767,
  "ollowing": 13417,
  "ollt": 27207,
  "ollte": 45510,
  "olly": 15420,
  "olmet": 14503,
  "olo": 44517,
  "olog": 1041,
  "ologen": 39114,
  "ological": 5247,
  "ologie": 6970,
  "ologien": 36130,
  "ologische": 30711,
  "ologischen": 30710,
  "ology": 5982,
  "olon": 9381,
  "olonial": 11867,
  "olse": 39112,
  "olta": 39115,
  "olumen": 19057,
  "olute": 35446,
  "oluted": 35448,
  "olution": 4420,
  "olutions": 35447,
  "olv": 21673,
  "olved": 19608,
  "olventen": 49205,
  "olz": 6796,
  "om": 144,
  "omat": 5327,
  "omaten": 28382,
  "omatic": 10245,
  "omatie": 27584,
  "omb": 6411,
  "ombard": 17838,
  "ombating": 41298,
  "ombe": 35375,
  "ombia": 33779,
  "ome": 577,
  "omed": 28381,
  "omen": 1901,
  "omenergie": 28967,
  "oment": 2537,
  "omente": 40420,
  "omenten": 46470,
  "omer": 32387,
  "omes": 12369,
  "omet": 9209,
  "ometerweit": 45428,
  "ometres": 20657,
  "omic": 26906,
  "omin": 6274,
  "omination": 44333,
  "ominen": 31243,
  "oming": 19039,
  "omint": 28383,
  "omit": 8935,
  "omm": 176,
  "omme": 35445,
  "ommen": 543,
  "ommend": 3189,
  "ommendation": 20504,
  "ommens": 44516,
  "ommer": 6070,
  "ommerce": 8178,
  "ommiss": 239,
  "ommissar": 1327,
  "ommission": 248,
  "ommod": 12375,
  "ommt": 15032,
  "ommun": 4257,
  "omobile": 35376,
  "omot": 21644,
  "omp": 1636,
  "ompan": 8617,
  "ompany": 23945,
  "ompeten": 11585,
  "oms": 7461,
  "on": 100,
  "ona": 7151,
  "onanz": 38762,
  "onas": 35230,
  "onaz": 32260,
  "ond": 3943,
  "onder": 836,
  "ondere": 1441,
  "ondo": 24840,
  "onds": 2189,
  "one": 784,
  "onek": 39983,
  "onen": 8730,
  "onent": 44053,
  "onents": 22406,
  "oner": 38761,
  "ones": 7582,
  "oney": 2498,
  "ong": 851,
  "onged": 21602,
  "onger": 2983,
  "ongering": 46606,
  "ongl": 40020,
  "oni": 11890,
  "onia": 38763,
  "onic": 44054,
  "onien": 24318,
  "onies": 44055,
  "onik": 24317,
  "oniki": 25368,
  "oning": 13329,
  "onio": 44056,
  "onk": 28301,
  "only": 30174,
  "onnen": 5207,
  "onnenheit": 36827,
  "onograms": 30175,
  "onom": 8434,
  "onomie": 41560,
  "ons": 4123,
  "onsmog": 40924,
  "onst": 23249,
  "onsten": 13767,
  "onstr": 13768,
  "ont": 5729,
  "ontain": 16358,
  "onung": 18481,
  "ony": 9107,
  "onym": 13510,
  "onymitÃ¤t": 42011,
  "onz": 12197,
  "oo": 32203,
  "ood": 4990,
  "ook": 15609,
  "ool": 5503,
  "oon": 8789,
  "ooth": 16750,
  "op": 289,
  "opard": 10697,
  "opath": 14039,
  "ope": 1274,
  "open": 44921,
  "oper": 3111,
  "operability": 8836,
  "operabilitÃ¤t": 40726,
  "operation": 1559,
  "operationen": 46101,
  "opes": 44922,
  "opf": 17213,
  "opfen": 35666,
  "opfer": 20276,
  "opfern": 27058,
  "opft": 39458,
  "oph": 4076,
  "opher": 27057,
  "ophil": 17629,
  "ophile": 29171,
  "ophob": 5295,
  "opje": 39459,
  "oplan": 25701,
  "ople": 865,
  "oples": 6074,
  "opo": 32685,
  "opol": 5765,
  "opole": 16841,
  "opoul": 6644,
  "opoulos": 7904,
  "opoulou": 16221,
  "opp": 4066,
  "oppeln": 20539,
  "oppelt": 19865,
  "opping": 19864,
  "opplung": 40906,
  "oppt": 23414,
  "oprodu": 28565,
  "ops": 12394,
  "optim": 39460,
  "option": 17214,
  "opulation": 32686,
  "oqu": 38646,
  "or": 111,
  "ora": 18001,
  "oral": 4705,
  "oralisch": 36751,
  "orand": 25490,
  "orandum": 31927,
  "orandums": 49492,
  "orary": 24325,
  "orate": 7705,
  "orben": 23261,
  "orbit": 25491,
  "ord": 428,
  "ordan": 22578,
  "orde": 20870,
  "orders": 38804,
  "ordin": 1882,
  "ordinary": 30846,
  "ordinate": 21907,
  "ordinated": 36330,
  "ordination": 25973,
  "ording": 6393,
  "ordnen": 18123,
  "ordnet": 45239,
  "ordnung": 1150,
  "ordnungen": 9230,
  "ordnungs": 15399,
  "ords": 23471,
  "ore": 529,
  "oreboard": 32897,
  "ored": 15002,
  "oreichen": 45373,
  "oren": 4191,
  "orene": 30195,
  "orenen": 46958,
  "ores": 18488,
  "oret": 11324,
  "orf": 7349,
  "org": 1964,
  "organ": 3347,
  "organe": 17772,
  "organen": 26068,
  "organisation": 4636,
  "organisationen": 7741,
  "organised": 46733,
  "organisiert": 46734,
  "organs": 36585,
  "organtini": 15142,
  "orge": 3628,
  "orgen": 1820,
  "orgnis": 5801,
  "orgt": 7314,
  "orgten": 40446,
  "orgung": 5088,
  "orgungs": 11231,
  "ori": 19020,
  "oria": 38802,
  "orian": 44103,
  "orie": 16771,
  "oried": 38803,
  "orien": 21606,
  "orient": 8056,
  "orientated": 22117,
  "oriented": 24209,
  "orientiert": 37085,
  "orientierte": 17868,
  "orientierten": 15224,
  "orientierung": 37084,
  "ories": 23260,
  "orification": 44104,
  "orily": 22413,
  "orin": 32293,
  "oring": 28317,
  "orious": 18002,
  "orisch": 38800,
  "orische": 38801,
  "orischen": 32294,
  "orities": 1800,
  "ority": 1467,
  "ork": 12036,
  "orm": 3643,
  "ormen": 7704,
  "orn": 2118,
  "ornen": 44102,
  "orning": 5252,
  "ornograph": 4661,
  "orp": 32292,
  "orps": 44105,
  "orr": 4575,
  "orre": 6702,
  "orries": 19879,
  "orrow": 3293,
  "orry": 10239,
  "ors": 1029,
  "orse": 9827,
  "ort": 238,
  "orte": 1335,
  "orted": 3578,
  "ortefeu": 45962,
  "ortem": 28891,
  "orten": 14225,
  "orter": 15623,
  "orters": 21607,
  "orteur": 1598,
  "orth": 3931,
  "orthern": 8947,
  "ortien": 44739,
  "ortion": 14517,
  "orts": 17616,
  "ortug": 1876,
  "orum": 9021,
  "orums": 23262,
  "orus": 44101,
  "ory": 1431,
  "orza": 32295,
  "os": 236,
  "osafety": 39301,
  "osal": 7354,
  "osals": 39300,
  "ose": 681,
  "osed": 3151,
  "osen": 7216,
  "oses": 7927,
  "osev": 7777,
  "osex": 15738,
  "osia": 32588,
  "osing": 10816,
  "osion": 39299,
  "osis": 30389,
  "osition": 2486,
  "ositionen": 33362,
  "ositions": 44737,
  "osity": 32587,
  "osla": 4221,
  "osn": 44735,
  "oso": 44736,
  "osozial": 27007,
  "osp": 11342,
  "osph": 27006,
  "oss": 3839,
  "osse": 35561,
  "ossen": 14516,
  "ossier": 12127,
  "ossiers": 14375,
  "ost": 1711,
  "oste": 12777,
  "osten": 20852,
  "ostet": 14030,
  "ostiag": 40353,
  "ostic": 33232,
  "osting": 46156,
  "osts": 40352,
  "ot": 215,
  "ota": 44659,
  "otal": 12378,
  "otas": 44661,
  "ote": 973,
  "otechn": 30691,
  "otechnical": 43062,
  "otechnolog": 8084,
  "oted": 2668,
  "oten": 3194,
  "otential": 9458,
  "oters": 30130,
  "otes": 5512,
  "oth": 1296,
  "othen": 16818,
  "othenburg": 17104,
  "other": 2200,
  "othes": 45927,
  "othilfe": 45928,
  "othing": 20410,
  "otho": 40217,
  "othr": 24431,
  "othringen": 26673,
  "oti": 2210,
  "otiations": 30884,
  "oticed": 44665,
  "otin": 44660,
  "otine": 44662,
  "oting": 2722,
  "otion": 7109,
  "otionen": 44663,
  "otions": 28477,
  "oto": 8869,
  "otograph": 28478,
  "otographs": 34814,
  "otos": 32548,
  "otov": 39239,
  "otovolta": 43470,
  "otrotz": 25629,
  "ots": 6383,
  "ott": 3680,
  "otte": 16817,
  "otted": 17185,
  "otten": 10941,
  "ottet": 30363,
  "otti": 12479,
  "otting": 44664,
  "ottish": 16963,
  "ottland": 46811,
  "ottung": 33509,
  "otum": 15044,
  "ou": 498,
  "oubtedly": 10370,
  "oud": 19711,
  "ouf": 25455,
  "ough": 1367,
  "ought": 6064,
  "oul": 5394,
  "ould": 279,
  "oulement": 35892,
  "oun": 528,
  "ound": 8190,
  "ounded": 19964,
  "oung": 4933,
  "ount": 1661,
  "ountable": 30817,
  "ountain": 17295,
  "ounted": 21793,
  "ounter": 15411,
  "ounting": 13180,
  "ounts": 5181,
  "oupe": 25790,
  "our": 427,
  "ourable": 39704,
  "ource": 21027,
  "ourcen": 4897,
  "oured": 11031,
  "ourge": 21026,
  "ourished": 32830,
  "ourismus": 11773,
  "ourn": 5308,
  "ournal": 6093,
  "ourrire": 15714,
  "ours": 32829,
  "ourse": 13173,
  "ourt": 3171,
  "ous": 471,
  "ouse": 1667,
  "ouses": 23484,
  "ously": 5358,
  "out": 546,
  "outed": 39797,
  "outh": 3396,
  "outine": 45390,
  "outs": 23506,
  "ouverÃ¤n": 9645,
  "ov": 1007,
  "ova": 10841,
  "ovation": 33065,
  "ovationen": 45748,
  "ove": 3642,
  "over": 3636,
  "overnment": 2068,
  "overs": 17526,
  "overty": 31038,
  "overy": 35159,
  "oviel": 21844,
  "oviet": 21092,
  "ovina": 19191,
  "oving": 30707,
  "ovis": 21091,
  "ovisual": 49157,
  "ovo": 27255,
  "ovor": 45747,
  "ow": 285,
  "owards": 44908,
  "owatt": 44907,
  "owed": 35655,
  "oweit": 30454,
  "owenig": 12785,
  "oweniger": 35656,
  "ower": 12220,
  "owering": 44909,
  "owever": 986,
  "owina": 19108,
  "owing": 39451,
  "own": 1730,
  "owned": 40361,
  "owners": 20441,
  "owness": 30825,
  "ows": 18079,
  "owski": 16840,
  "ox": 6554,
  "oxid": 41324,
  "oy": 3673,
  "oyer": 27484,
  "oys": 32206,
  "oz": 4384,
  "ozamb": 6985,
  "ozi": 9079,
  "ozial": 22384,
  "oÃŁ": 32204,
  "oÃŁen": 10928,
  "p": 71,
  "pa": 43924,
  "pack": 16350,
  "packungen": 48712,
  "page": 28260,
  "paid": 38656,
  "paket": 17527,
  "pakets": 30134,
  "pakt": 7977,
  "pal": 38648,
  "palten": 43930,
  "pap": 12346,
  "papier": 16692,
  "papiere": 37368,
  "par": 2142,
  "paragraph": 19241,
  "paren": 36374,
  "parent": 46344,
  "parents": 46345,
  "park": 38650,
  "parlament": 46346,
  "part": 4737,
  "parte": 15787,
  "partei": 16936,
  "parteien": 29683,
  "partner": 13685,
  "partnern": 29215,
  "parts": 27387,
  "party": 41046,
  "pass": 21571,
  "passen": 25458,
  "passing": 43934,
  "pat": 25457,
  "patents": 42768,
  "pause": 30131,
  "pay": 8790,
  "pays": 29459,
  "paz": 38654,
  "paÃŁ": 26801,
  "paÃŁt": 11578,
  "pe": 381,
  "peace": 39629,
  "peare": 32783,
  "peas": 35786,
  "pecial": 2193,
  "pect": 963,
  "pected": 5456,
  "ped": 15294,
  "pegel": 27117,
  "pegn": 32784,
  "peist": 35787,
  "pekt": 5162,
  "pen": 15961,
  "pend": 2448,
  "pendence": 10797,
  "pendent": 4287,
  "penditure": 46444,
  "pens": 28259,
  "people": 27116,
  "per": 3129,
  "perform": 30989,
  "performance": 43077,
  "performing": 49873,
  "periode": 12648,
  "perioden": 46660,
  "peripher": 46658,
  "person": 10566,
  "personal": 41774,
  "personen": 18362,
  "personnel": 22968,
  "perspektive": 46659,
  "pert": 35161,
  "perten": 27452,
  "pes": 25456,
  "pest": 15962,
  "pet": 10670,
  "peten": 4131,
  "pf": 4454,
  "pfeiler": 18994,
  "pflanz": 38655,
  "pflanzen": 20152,
  "pflege": 33589,
  "pflich": 5255,
  "pflicht": 2564,
  "pflichtet": 41128,
  "ph": 1634,
  "phabet": 36288,
  "phabeten": 46131,
  "phase": 33217,
  "phen": 32207,
  "pher": 18993,
  "pheric": 25280,
  "phon": 40334,
  "phones": 46130,
  "pices": 28261,
  "pid": 3870,
  "pidem": 11838,
  "pidemie": 41897,
  "piece": 32208,
  "piel": 43926,
  "pielt": 38653,
  "pillar": 35162,
  "pine": 43928,
  "ping": 22385,
  "pir": 10136,
  "pite": 4156,
  "pl": 5046,
  "pla": 13117,
  "place": 16302,
  "plan": 3834,
  "planen": 40859,
  "plans": 20530,
  "plant": 47165,
  "planung": 18264,
  "plex": 38652,
  "plus": 14216,
  "plÃ¤ne": 20566,
  "plÃ¤nen": 27571,
  "plÃ¤tz": 17979,
  "plÃ¤tze": 22271,
  "plÃ¤tzen": 34438,
  "po": 10339,
  "point": 13764,
  "points": 35164,
  "pol": 16349,
  "polit": 5347,
  "political": 41150,
  "politically": 47246,
  "politik": 1680,
  "politisch": 26189,
  "politische": 12672,
  "politischen": 8299,
  "politischer": 26190,
  "politisches": 33682,
  "polizei": 48711,
  "poll": 38649,
  "pon": 996,
  "pone": 12191,
  "ponien": 18178,
  "por": 4040,
  "pornograph": 8375,
  "pornographie": 9364,
  "port": 394,
  "porten": 40898,
  "porting": 45174,
  "ports": 39663,
  "pos": 43925,
  "pose": 43927,
  "position": 24301,
  "positionen": 49406,
  "post": 24300,
  "posten": 25091,
  "pot": 19543,
  "potential": 30132,
  "pots": 43931,
  "power": 23228,
  "pp": 293,
  "ppa": 44925,
  "ppe": 3232,
  "pped": 9465,
  "ppelho": 39465,
  "ppen": 1832,
  "ppenbek": 28959,
  "pper": 24474,
  "ppich": 20277,
  "pping": 11485,
  "pport": 769,
  "pporteur": 1601,
  "pprochement": 25704,
  "ppt": 22528,
  "ppung": 35669,
  "ppy": 32691,
  "ppÃ¤nen": 18573,
  "pr": 1168,
  "pract": 30133,
  "prakt": 35163,
  "praktiken": 43242,
  "pre": 4685,
  "pread": 13988,
  "prechen": 10446,
  "prechend": 26802,
  "preis": 19882,
  "preise": 13260,
  "preisen": 36749,
  "preises": 36750,
  "preistrÃ¤ger": 37739,
  "pres": 26800,
  "president": 38028,
  "press": 24299,
  "pret": 5839,
  "preted": 36748,
  "preten": 43929,
  "prevention": 47061,
  "priesen": 36168,
  "pril": 4625,
  "prinzip": 4068,
  "prinzipien": 36677,
  "prises": 33105,
  "private": 45850,
  "pro": 1229,
  "prob": 30746,
  "probe": 28863,
  "proben": 20404,
  "problem": 11093,
  "problematik": 26392,
  "probleme": 13628,
  "problemen": 24650,
  "problems": 28864,
  "process": 45877,
  "prochen": 2211,
  "proclaimed": 45881,
  "produ": 5365,
  "produced": 47249,
  "producing": 22037,
  "productive": 19901,
  "products": 47250,
  "produkt": 19900,
  "produkte": 16207,
  "produkten": 24920,
  "produktion": 13692,
  "produktiv": 21271,
  "produkts": 26597,
  "produzenten": 23850,
  "prof": 28862,
  "profile": 49732,
  "profit": 28865,
  "program": 8755,
  "programm": 8283,
  "programme": 13940,
  "programmen": 18847,
  "programms": 18848,
  "projekt": 33120,
  "projekte": 18661,
  "projekten": 20405,
  "proliferation": 30747,
  "prom": 24298,
  "promotion": 49405,
  "proof": 40186,
  "protein": 45879,
  "protokoll": 33121,
  "protokolle": 45880,
  "prov": 45876,
  "prozent": 27290,
  "prozesses": 45878,
  "prozeÃŁ": 13205,
  "prungen": 45849,
  "prÃ¤": 3755,
  "prÃ¤ferenz": 40849,
  "prÃ¤g": 21222,
  "prÃ¤gt": 12658,
  "prÃ¤mie": 33519,
  "prÃ¤mien": 46834,
  "prÃ¤sident": 8191,
  "prÃ¤vention": 26095,
  "prÃ¼": 3116,
  "prÃ¼ft": 6222,
  "prÃ¼fung": 6693,
  "prÃ¼fungen": 21966,
  "ps": 10135,
  "psed": 25085,
  "psis": 25084,
  "pt": 664,
  "ptember": 5029,
  "ption": 5912,
  "ptions": 39921,
  "pton": 39920,
  "public": 38651,
  "pul": 23227,
  "punkt": 1493,
  "punkte": 7401,
  "punkten": 15295,
  "pus": 14215,
  "put": 12549,
  "puts": 43933,
  "pÃ¤s": 43932,
  "q": 72,
  "qu": 332,
  "qual": 9038,
  "qualified": 31368,
  "quality": 10066,
  "qualitÃ¤t": 7271,
  "qualitÃ¤ten": 29469,
  "qually": 25726,
  "quarters": 32734,
  "quate": 4878,
  "quately": 13808,
  "que": 3430,
  "quelle": 18585,
  "quellen": 14370,
  "quem": 32733,
  "quenz": 45011,
  "quer": 45009,
  "querung": 39530,
  "ques": 9632,
  "quick": 45010,
  "quid": 17637,
  "quiola": 39532,
  "quis": 5683,
  "quita": 21741,
  "quival": 39531,
  "quote": 10590,
  "quoten": 14044,
  "quotenregelung": 48491,
  "r": 73,
  "ra": 161,
  "rab": 14245,
  "rable": 24382,
  "rac": 26924,
  "rach": 4871,
  "rache": 2110,
  "rachen": 4669,
  "racht": 2140,
  "rachte": 4849,
  "rachten": 2162,
  "rachter": 41064,
  "racies": 18519,
  "racism": 42856,
  "racist": 38034,
  "racks": 44424,
  "ract": 12761,
  "racted": 44422,
  "racy": 2974,
  "rad": 32416,
  "rades": 39031,
  "raditionen": 44425,
  "rael": 3456,
  "raels": 20211,
  "rafen": 21656,
  "raft": 1977,
  "raften": 44423,
  "rafting": 33286,
  "rag": 652,
  "rage": 14014,
  "ragen": 1184,
  "rages": 23320,
  "rags": 35971,
  "ragt": 8653,
  "ragung": 28739,
  "rahmen": 5538,
  "rahmens": 22846,
  "rail": 44420,
  "rain": 11458,
  "raine": 17573,
  "rainer": 34133,
  "rak": 7053,
  "rake": 44421,
  "rakt": 25563,
  "ram": 44418,
  "ran": 477,
  "ranational": 15406,
  "ranc": 25778,
  "ranca": 23489,
  "rance": 18129,
  "ranche": 9743,
  "rand": 24302,
  "rang": 4093,
  "range": 5854,
  "ranger": 22590,
  "rangern": 19706,
  "rangert": 29175,
  "rangig": 33547,
  "rangige": 29174,
  "rangigen": 29173,
  "ranging": 21999,
  "rank": 5334,
  "ranke": 35875,
  "ranken": 10365,
  "ranking": 36843,
  "rankt": 25779,
  "rankung": 30575,
  "ranlagen": 45315,
  "rannt": 18995,
  "rannten": 43937,
  "rans": 15720,
  "rant": 14737,
  "ranted": 35874,
  "ranten": 14064,
  "rants": 7672,
  "rap": 7761,
  "rapie": 8639,
  "rapporteur": 35408,
  "raro": 32209,
  "ras": 12347,
  "rasch": 20153,
  "rat": 753,
  "ratch": 39958,
  "rate": 9529,
  "rated": 5769,
  "raten": 4775,
  "raternity": 25842,
  "rates": 11032,
  "rath": 45575,
  "rating": 10839,
  "ration": 4385,
  "rations": 20853,
  "rative": 38659,
  "rators": 19739,
  "ratory": 22626,
  "rats": 14308,
  "rau": 32417,
  "rauben": 44426,
  "rauch": 1008,
  "raucher": 36116,
  "raum": 2638,
  "raumes": 40628,
  "raums": 19252,
  "raw": 44419,
  "raxis": 35409,
  "ray": 25562,
  "rays": 32418,
  "rderischen": 43941,
  "re": 112,
  "rea": 9447,
  "reaching": 13996,
  "react": 44111,
  "read": 1204,
  "reading": 28861,
  "ready": 1347,
  "reaktoren": 38811,
  "reast": 38807,
  "reat": 614,
  "reated": 24565,
  "reating": 35956,
  "reatment": 39888,
  "reb": 9203,
  "reben": 7523,
  "rebens": 32297,
  "rebt": 12941,
  "rebungen": 15553,
  "rec": 5675,
  "rech": 2617,
  "reche": 7981,
  "rechen": 1222,
  "rechend": 4735,
  "rechens": 46492,
  "recher": 12459,
  "rechnen": 46491,
  "rechnet": 35259,
  "rechnung": 36471,
  "rechnungen": 35260,
  "recht": 2336,
  "rechte": 1403,
  "rechten": 8195,
  "rechter": 10983,
  "rechtlich": 21171,
  "rechtliche": 12108,
  "rechtlichem": 46407,
  "rechtlichen": 8347,
  "rechtlicher": 20477,
  "rechts": 2828,
  "rechtsakt": 36505,
  "rechtz": 18238,
  "rechung": 12113,
  "rechungen": 22741,
  "recise": 47319,
  "reck": 5787,
  "recken": 11173,
  "reckt": 17537,
  "rect": 791,
  "recy": 24326,
  "red": 1521,
  "rede": 20175,
  "reden": 19560,
  "redit": 21129,
  "redite": 46068,
  "redited": 40303,
  "reds": 11326,
  "redu": 30196,
  "reduz": 32054,
  "reduzierung": 38209,
  "ree": 1509,
  "reece": 5169,
  "reening": 32299,
  "reet": 44107,
  "ref": 32296,
  "refer": 44113,
  "reff": 6165,
  "reffe": 44112,
  "reffen": 2342,
  "reffend": 6947,
  "reffens": 22063,
  "reform": 14226,
  "reformen": 12201,
  "refoulement": 43119,
  "reg": 2450,
  "regel": 7524,
  "regeln": 9204,
  "regelung": 8435,
  "regelungen": 14664,
  "regen": 17144,
  "reger": 38808,
  "regierung": 13869,
  "regierungen": 27408,
  "regierungs": 11821,
  "regime": 33358,
  "regimes": 46445,
  "region": 12643,
  "regional": 10981,
  "regionalen": 48143,
  "regionen": 9490,
  "register": 30918,
  "regt": 44110,
  "regul": 36442,
  "regulated": 30919,
  "regulation": 24759,
  "regulierung": 16944,
  "regung": 26017,
  "rehen": 5105,
  "rehend": 32298,
  "rehens": 31157,
  "rehensible": 19324,
  "reht": 44108,
  "rei": 1002,
  "reib": 8256,
  "reiben": 3735,
  "reibenden": 46829,
  "reiber": 12253,
  "reibt": 11582,
  "reibung": 15542,
  "reibungen": 37100,
  "reich": 747,
  "reiche": 4164,
  "reichen": 1659,
  "reichend": 5768,
  "reichende": 25957,
  "reichenden": 13829,
  "reicht": 3091,
  "reichte": 32980,
  "reichtÃ¼mer": 36551,
  "reichung": 7481,
  "reien": 44109,
  "reif": 12940,
  "reifen": 8732,
  "reifens": 48379,
  "reift": 9323,
  "reign": 6268,
  "reiheit": 33062,
  "rein": 15313,
  "reinigt": 48606,
  "reis": 26842,
  "reise": 15624,
  "reisen": 20177,
  "reises": 38809,
  "reit": 1534,
  "reite": 11325,
  "reiten": 5772,
  "reitet": 8219,
  "reitete": 22182,
  "reiteten": 17903,
  "reitung": 7684,
  "reiz": 13334,
  "reize": 13198,
  "reiÃŁen": 38810,
  "rel": 9713,
  "reland": 5937,
  "related": 12009,
  "relev": 38812,
  "rem": 26841,
  "reme": 38806,
  "ren": 883,
  "rence": 22636,
  "rences": 45665,
  "rench": 4105,
  "rene": 11500,
  "rengt": 45664,
  "renn": 7402,
  "renne": 45663,
  "rennen": 13836,
  "rennung": 6001,
  "rennungsanlagen": 10650,
  "rens": 25460,
  "rent": 15610,
  "rente": 33019,
  "renten": 21573,
  "renz": 5658,
  "renzen": 21082,
  "rep": 5786,
  "representation": 36897,
  "represented": 29301,
  "reprises": 38814,
  "reprÃ¤sent": 36896,
  "republik": 14650,
  "requis": 44114,
  "res": 226,
  "resent": 966,
  "resentation": 33051,
  "resented": 8659,
  "reserve": 25639,
  "reserven": 17191,
  "resh": 11340,
  "resist": 21695,
  "resistant": 24212,
  "respect": 11599,
  "respective": 13959,
  "respon": 6525,
  "respond": 29347,
  "respondenten": 32036,
  "responsibility": 41322,
  "ress": 687,
  "ressaten": 45521,
  "resse": 16823,
  "ressed": 24574,
  "ressen": 20950,
  "resses": 32958,
  "ressing": 15739,
  "ression": 5487,
  "ressive": 21056,
  "ressourcen": 10718,
  "rest": 39270,
  "resund": 44705,
  "ret": 1728,
  "retch": 15777,
  "retched": 31631,
  "rete": 3393,
  "reten": 2377,
  "reter": 11734,
  "rets": 20176,
  "rett": 25962,
  "reuen": 30197,
  "reut": 19021,
  "reuung": 24327,
  "reuungs": 44115,
  "revolution": 38813,
  "rew": 25492,
  "rez": 44106,
  "reÃŁ": 38805,
  "rgue": 43940,
  "ri": 794,
  "ria": 11372,
  "riage": 21070,
  "riages": 39988,
  "rian": 28779,
  "rib": 28262,
  "riber": 45607,
  "ric": 6129,
  "rical": 21572,
  "rically": 43935,
  "rich": 15296,
  "richen": 14738,
  "richt": 1368,
  "richten": 7611,
  "richter": 33158,
  "richtet": 19545,
  "richtlinie": 7612,
  "richtlinien": 28896,
  "richtung": 3904,
  "richtungen": 6806,
  "rid": 14736,
  "rie": 701,
  "rieb": 21060,
  "riebe": 39943,
  "rieben": 5244,
  "riebene": 23527,
  "ried": 2479,
  "rieden": 2315,
  "riedenheit": 15790,
  "rief": 4280,
  "rieg": 3612,
  "riegen": 35999,
  "riend": 5825,
  "riendly": 17004,
  "rient": 12247,
  "riere": 36038,
  "rieren": 23229,
  "riert": 38657,
  "ries": 12739,
  "rif": 2035,
  "riff": 24591,
  "rifft": 5166,
  "rification": 38661,
  "rifice": 24729,
  "rift": 5337,
  "riften": 2103,
  "rig": 6445,
  "rige": 11444,
  "rigen": 2502,
  "riger": 17982,
  "right": 19544,
  "rigt": 38660,
  "rik": 11318,
  "riken": 30135,
  "riktionen": 32998,
  "ril": 26804,
  "rillen": 43938,
  "riment": 12348,
  "rimin": 1697,
  "riminal": 3219,
  "riminalitÃ¤t": 8103,
  "riminelle": 27350,
  "rine": 23230,
  "ring": 843,
  "ringen": 3877,
  "ringlichkeit": 9322,
  "ringt": 33011,
  "ringung": 45642,
  "rior": 3732,
  "rioritÃ¤ten": 40845,
  "riot": 12422,
  "riots": 45608,
  "rire": 14560,
  "rische": 22387,
  "rischen": 15297,
  "rischer": 24303,
  "rise": 9710,
  "risik": 13989,
  "risiken": 20054,
  "risiko": 22218,
  "risk": 25461,
  "rissen": 35165,
  "rist": 22386,
  "risy": 16752,
  "rit": 550,
  "rite": 39835,
  "rites": 32912,
  "rits": 30595,
  "ritt": 1499,
  "ritte": 2853,
  "rittel": 38658,
  "ritten": 3206,
  "rittens": 5885,
  "ritter": 19719,
  "ritts": 3431,
  "rium": 12423,
  "riumalgin": 37374,
  "riumph": 23004,
  "riz": 14217,
  "ro": 123,
  "road": 15317,
  "roads": 30227,
  "roat": 12206,
  "roaten": 44201,
  "rob": 38869,
  "rober": 44198,
  "roc": 12946,
  "rocarbon": 34208,
  "rochement": 25505,
  "rochen": 7051,
  "rock": 44199,
  "rodu": 2303,
  "roffen": 3581,
  "rog": 19028,
  "rogate": 48965,
  "rogen": 30226,
  "rogram": 35300,
  "rogramm": 24347,
  "rogrammierung": 49410,
  "roh": 8315,
  "rohr": 30225,
  "roht": 38870,
  "rohung": 13338,
  "rohungen": 22120,
  "rok": 5260,
  "roken": 44203,
  "rokes": 41130,
  "rokrat": 7900,
  "rokraten": 29262,
  "roleum": 44204,
  "rolle": 13559,
  "rollen": 44200,
  "rollt": 44202,
  "rom": 455,
  "romiÃŁ": 23482,
  "roms": 45289,
  "ron": 2603,
  "rong": 5780,
  "ronic": 6938,
  "ronik": 27419,
  "ronom": 36463,
  "ronomic": 46487,
  "ront": 7129,
  "rooted": 23280,
  "roots": 21621,
  "rop": 186,
  "roper": 28446,
  "ropfen": 39149,
  "roph": 21679,
  "ropic": 44552,
  "roport": 39148,
  "roportion": 19615,
  "ropri": 2395,
  "ros": 9715,
  "rosam": 32328,
  "rosamine": 49945,
  "rosanct": 31402,
  "ross": 3122,
  "rost": 26860,
  "rot": 10145,
  "rots": 26861,
  "rott": 31427,
  "rottung": 18864,
  "rotz": 3541,
  "rough": 12364,
  "round": 3351,
  "rous": 13337,
  "roux": 32329,
  "rov": 9830,
  "row": 2918,
  "rowded": 36519,
  "rowing": 22758,
  "roÃ¶konom": 11038,
  "rs": 17980,
  "rt": 7310,
  "ru": 574,
  "ruck": 1579,
  "ruckt": 24559,
  "rudence": 21048,
  "ruf": 16352,
  "rufen": 13541,
  "ruft": 30606,
  "rug": 4110,
  "ruh": 7774,
  "ruhe": 27190,
  "ruhr": 45425,
  "ruit": 10272,
  "ruktur": 23510,
  "rum": 16351,
  "rump": 38662,
  "rums": 35167,
  "run": 26803,
  "runde": 15298,
  "runden": 35166,
  "rung": 17134,
  "rungen": 16751,
  "running": 49592,
  "rup": 17981,
  "rupe": 28721,
  "ruppe": 12802,
  "ruppen": 15730,
  "rupt": 6951,
  "rupted": 25265,
  "rus": 25459,
  "rust": 12192,
  "rwar": 43936,
  "ry": 1035,
  "rÃ¤": 402,
  "rÃ¤che": 32817,
  "rÃ¤chen": 45197,
  "rÃ¤cht": 45196,
  "rÃ¤ft": 7823,
  "rÃ¤ge": 6421,
  "rÃ¤gen": 11772,
  "rÃ¤ger": 12794,
  "rÃ¤glich": 39684,
  "rÃ¤gt": 6526,
  "rÃ¤mt": 45198,
  "rÃ¤n": 1991,
  "rÃ¤ngen": 27375,
  "rÃ¤ngt": 15464,
  "rÃ¤nke": 28976,
  "rÃ¤nken": 14351,
  "rÃ¤nkt": 28975,
  "rÃ¤s": 484,
  "rÃ¤sent": 6680,
  "rÃ¤sentation": 26248,
  "rÃ¤sident": 500,
  "rÃ¤te": 24516,
  "rÃ¤ten": 32816,
  "rÃ¤ter": 39683,
  "rÃ¤uch": 30542,
  "rÃ¤uche": 30543,
  "rÃ¤um": 13171,
  "rÃ¤ume": 14287,
  "rÃ¤umen": 10069,
  "rÃ¶der": 25462,
  "rÃ¶nt": 43939,
  "rÃ¼": 1747,
  "rÃ¼ben": 46175,
  "rÃ¼che": 40369,
  "rÃ¼ck": 2847,
  "rÃ¼cke": 29080,
  "rÃ¼cken": 14116,
  "rÃ¼ckgang": 29081,
  "rÃ¼ckgangs": 46558,
  "rÃ¼ckt": 11652,
  "rÃ¼m": 46173,
  "rÃ¼st": 16118,
  "rÃ¼stung": 48687,
  "rÃ¼t": 46174,
  "s": 74,
  "sa": 26805,
  "saal": 38668,
  "sage": 17135,
  "sagen": 18467,
  "sagt": 23234,
  "sam": 734,
  "same": 20360,
  "samen": 21062,
  "samkeit": 8011,
  "samm": 6533,
  "sammlung": 7304,
  "samt": 45553,
  "sand": 32210,
  "sar": 43943,
  "sats": 21574,
  "satz": 1461,
  "satzes": 36255,
  "saving": 49593,
  "sbedingte": 38670,
  "sbekund": 38671,
  "sburg": 21575,
  "sc": 9105,
  "scale": 11288,
  "scept": 38665,
  "sch": 180,
  "scha": 379,
  "schad": 27115,
  "schaffen": 11357,
  "schaffenden": 48195,
  "schafft": 28647,
  "schaffung": 10827,
  "schaft": 399,
  "schaften": 2688,
  "schafter": 17231,
  "schaftet": 24503,
  "schaftlich": 28660,
  "schaftliche": 6963,
  "schaftlichen": 3805,
  "schafts": 17234,
  "schale": 44526,
  "schancen": 30320,
  "scharakter": 35455,
  "scharta": 16394,
  "schatz": 35453,
  "schau": 8537,
  "schauen": 22565,
  "sche": 905,
  "schech": 16497,
  "schede": 32472,
  "schef": 28797,
  "schefs": 9148,
  "scheibe": 40046,
  "scheid": 1436,
  "scheiden": 2499,
  "scheidend": 19811,
  "scheidet": 11804,
  "scheidung": 24681,
  "scheidungen": 33179,
  "schein": 2931,
  "scheine": 46591,
  "scheinend": 15802,
  "scheinlich": 6692,
  "scheinlichkeit": 33423,
  "schen": 713,
  "schende": 45540,
  "schenswert": 44529,
  "scher": 14020,
  "schern": 26946,
  "sches": 44523,
  "schet": 6797,
  "schetschen": 6821,
  "schicht": 30318,
  "schichten": 24408,
  "schicken": 44531,
  "schie": 1309,
  "schieben": 11390,
  "schied": 2242,
  "schiede": 5985,
  "schieden": 1605,
  "schiedene": 46117,
  "schiedenheit": 33212,
  "schiedentlich": 27396,
  "schiedet": 7952,
  "schiedliche": 46371,
  "schiedung": 11233,
  "schieÃŁen": 36210,
  "schiff": 19609,
  "schiffahrt": 34523,
  "schiffe": 34522,
  "schiffen": 44528,
  "schikistan": 35456,
  "schirm": 28437,
  "schiÃ¶": 13140,
  "schiÃ¶ld": 13314,
  "schl": 9624,
  "schlachtung": 41674,
  "schlag": 8655,
  "schlagen": 18530,
  "schlagt": 32470,
  "schlagung": 41585,
  "schlamm": 47947,
  "schland": 26948,
  "schlieÃŁ": 976,
  "schlieÃŁen": 4804,
  "schlieÃŁend": 3284,
  "schlieÃŁlich": 4165,
  "schlieÃŁt": 13402,
  "schlieÃŁung": 16885,
  "schlieÃŁungen": 36106,
  "schlieÃŁungsantrag": 18645,
  "schlossen": 5677,
  "schlossenheit": 12303,
  "schlusses": 29491,
  "schluÃŁ": 4220,
  "schlÃ¤": 44525,
  "schlÃ¤ge": 26950,
  "schlÃ¼ss": 47948,
  "schlÃ¼sse": 20665,
  "schlÃ¼ssel": 37191,
  "schlÃ¼sselung": 31400,
  "schlÃ¼ssen": 26344,
  "schm": 26945,
  "schmer": 44524,
  "schn": 5940,
  "schnitt": 7902,
  "schnitte": 22054,
  "schnitten": 41245,
  "schnitts": 21283,
  "schnur": 27621,
  "schock": 44527,
  "schokolade": 30321,
  "schra": 20230,
  "schranken": 44530,
  "schrauben": 49080,
  "schrecken": 32469,
  "schreiben": 19610,
  "schreiber": 44532,
  "schreibung": 28438,
  "schreit": 4641,
  "schreiten": 12858,
  "schreitet": 18780,
  "schrift": 23336,
  "schriften": 18531,
  "schritt": 14775,
  "schritte": 26949,
  "schrott": 44534,
  "scht": 4940,
  "schte": 15033,
  "schten": 15335,
  "schub": 16000,
  "schul": 13348,
  "schuld": 6381,
  "schulden": 26441,
  "schuldigungen": 22071,
  "schuldung": 23884,
  "schule": 39123,
  "schulen": 25170,
  "schung": 15663,
  "schungel": 44533,
  "schungen": 28436,
  "schusses": 20918,
  "schutz": 2611,
  "schutzes": 18237,
  "schuÃŁ": 11336,
  "schw": 5850,
  "schwachen": 41231,
  "schwankungen": 27612,
  "schweigen": 32471,
  "schwelle": 47338,
  "schwemm": 14158,
  "schwer": 26947,
  "schwierigkeiten": 27613,
  "schwing": 41230,
  "schÃ¤d": 7526,
  "schÃ¤den": 13349,
  "schÃ¤r": 30319,
  "schÃ¤tze": 39124,
  "schÃ¤tzen": 35454,
  "schÃ¤tzung": 18532,
  "schÃ¶pfung": 25593,
  "scious": 41621,
  "scr": 43949,
  "se": 468,
  "seas": 27145,
  "seated": 39753,
  "sebene": 9741,
  "sec": 12799,
  "sect": 26806,
  "sector": 34765,
  "secut": 8211,
  "secutor": 9523,
  "see": 16055,
  "seed": 32861,
  "seek": 18127,
  "seekers": 20105,
  "seh": 8332,
  "sehbaren": 47787,
  "sehe": 45295,
  "sehen": 3874,
  "sein": 20154,
  "seit": 5395,
  "seite": 22839,
  "seitige": 31186,
  "seitigen": 47260,
  "seits": 32212,
  "sekret": 9643,
  "sekretariat": 34015,
  "sekretÃ¤r": 10329,
  "sektor": 6875,
  "sektoren": 47529,
  "sektors": 12408,
  "sel": 1191,
  "selbe": 13627,
  "selben": 7884,
  "self": 3589,
  "seligkeiten": 36175,
  "selle": 40170,
  "seln": 30738,
  "selves": 3371,
  "sely": 18996,
  "sen": 350,
  "senal": 35737,
  "send": 23232,
  "sende": 45064,
  "senden": 15706,
  "sender": 35738,
  "sendungen": 34651,
  "senkung": 21003,
  "sens": 5265,
  "sense": 21002,
  "sensitive": 33676,
  "sent": 43944,
  "sential": 43947,
  "senz": 14540,
  "sequ": 2014,
  "sequent": 7332,
  "sequently": 6933,
  "sequenz": 46295,
  "ser": 6952,
  "serklÃ¤rung": 20613,
  "serv": 3363,
  "servation": 46735,
  "service": 29120,
  "ses": 11887,
  "session": 9444,
  "sessions": 25463,
  "set": 9016,
[...]
